{
  "version": "1.0",
  "truncation": null,
  "padding": null,
  "added_tokens": [
    {
      "id": 0,
      "content": "[UNK]",
      "single_word": false,
      "lstrip": false,
      "rstrip": false,
      "normalized": false,
      "special": true
    },
    {
      "id": 1,
      "content": "[PAD]",
      "single_word": false,
      "lstrip": false,
      "rstrip": false,
      "normalized": false,
      "special": true
    },
    {
      "id": 2,
      "content": "[SOS]",
      "single_word": false,
      "lstrip": false,
      "rstrip": false,
      "normalized": false,
      "special": true
    },
    {
      "id": 3,
      "content": "[EOS]",
      "single_word": false,
      "lstrip": false,
      "rstrip": false,
      "normalized": false,
      "special": true
    }
  ],
  "normalizer": null,
  "pre_tokenizer": {
    "type": "Whitespace"
  },
  "post_processor": null,
  "decoder": null,
  "model": {
    "type": "BPE",
    "dropout": null,
    "unk_token": "[UNK]",
    "continuing_subword_prefix": null,
    "end_of_word_suffix": null,
    "fuse_unk": false,
    "byte_fallback": false,
    "ignore_merges": false,
    "vocab": {
      "[UNK]": 0,
      "[PAD]": 1,
      "[SOS]": 2,
      "[EOS]": 3,
      "!": 4,
      "\"": 5,
      "#": 6,
      "$": 7,
      "%": 8,
      "&": 9,
      "'": 10,
      "(": 11,
      ")": 12,
      "*": 13,
      "+": 14,
      ",": 15,
      "-": 16,
      ".": 17,
      "/": 18,
      "0": 19,
      "1": 20,
      "2": 21,
      "3": 22,
      "4": 23,
      "5": 24,
      "6": 25,
      "7": 26,
      "8": 27,
      "9": 28,
      ":": 29,
      ";": 30,
      "<": 31,
      "=": 32,
      ">": 33,
      "?": 34,
      "@": 35,
      "A": 36,
      "B": 37,
      "C": 38,
      "D": 39,
      "E": 40,
      "F": 41,
      "G": 42,
      "H": 43,
      "I": 44,
      "J": 45,
      "K": 46,
      "L": 47,
      "M": 48,
      "N": 49,
      "O": 50,
      "P": 51,
      "Q": 52,
      "R": 53,
      "S": 54,
      "T": 55,
      "U": 56,
      "V": 57,
      "W": 58,
      "X": 59,
      "Y": 60,
      "Z": 61,
      "[": 62,
      "\\": 63,
      "]": 64,
      "^": 65,
      "_": 66,
      "`": 67,
      "a": 68,
      "b": 69,
      "c": 70,
      "d": 71,
      "e": 72,
      "f": 73,
      "g": 74,
      "h": 75,
      "i": 76,
      "j": 77,
      "k": 78,
      "l": 79,
      "m": 80,
      "n": 81,
      "o": 82,
      "p": 83,
      "q": 84,
      "r": 85,
      "s": 86,
      "t": 87,
      "u": 88,
      "v": 89,
      "w": 90,
      "x": 91,
      "y": 92,
      "z": 93,
      "{": 94,
      "}": 95,
      "~": 96,
      "": 97,
      "": 98,
      "£": 99,
      "©": 100,
      "°": 101,
      "²": 102,
      "¹": 103,
      "Å": 104,
      "É": 105,
      "×": 106,
      "à": 107,
      "á": 108,
      "â": 109,
      "ã": 110,
      "å": 111,
      "è": 112,
      "é": 113,
      "í": 114,
      "ñ": 115,
      "ó": 116,
      "ö": 117,
      "ü": 118,
      "Ā": 119,
      "ā": 120,
      "ē": 121,
      "œ": 122,
      "ஆ": 123,
      "இ": 124,
      "உ": 125,
      "ச": 126,
      "ட": 127,
      "த": 128,
      "ந": 129,
      "ன": 130,
      "ப": 131,
      "ம": 132,
      "ய": 133,
      "ர": 134,
      "ல": 135,
      "வ": 136,
      "ா": 137,
      "ி": 138,
      "ீ": 139,
      "ு": 140,
      "ெ": 141,
      "ே": 142,
      "ை": 143,
      "்": 144,
      "ం": 145,
      "ః": 146,
      "అ": 147,
      "ఆ": 148,
      "ఇ": 149,
      "ఈ": 150,
      "ఉ": 151,
      "ఊ": 152,
      "ఋ": 153,
      "ఎ": 154,
      "ఏ": 155,
      "ఐ": 156,
      "ఒ": 157,
      "ఓ": 158,
      "ఔ": 159,
      "క": 160,
      "ఖ": 161,
      "గ": 162,
      "ఘ": 163,
      "చ": 164,
      "ఛ": 165,
      "జ": 166,
      "ఞ": 167,
      "ట": 168,
      "ఠ": 169,
      "డ": 170,
      "ఢ": 171,
      "ణ": 172,
      "త": 173,
      "థ": 174,
      "ద": 175,
      "ధ": 176,
      "న": 177,
      "ప": 178,
      "ఫ": 179,
      "బ": 180,
      "భ": 181,
      "మ": 182,
      "య": 183,
      "ర": 184,
      "ఱ": 185,
      "ల": 186,
      "ళ": 187,
      "వ": 188,
      "శ": 189,
      "ష": 190,
      "స": 191,
      "హ": 192,
      "ా": 193,
      "ి": 194,
      "ీ": 195,
      "ు": 196,
      "ూ": 197,
      "ృ": 198,
      "ె": 199,
      "ే": 200,
      "ై": 201,
      "ొ": 202,
      "ో": 203,
      "ౌ": 204,
      "్": 205,
      "ౖ": 206,
      "౦": 207,
      "౨": 208,
      "౩": 209,
      "​": 210,
      "‌": 211,
      "‍": 212,
      "‎": 213,
      "–": 214,
      "—": 215,
      "‘": 216,
      "’": 217,
      "“": 218,
      "”": 219,
      "‟": 220,
      "…": 221,
      "⁻": 222,
      "€": 223,
      "→": 224,
      "♪": 225,
      "ﬂ": 226,
      "�": 227,
      "th": 228,
      "ou": 229,
      "in": 230,
      "ను": 231,
      "రు": 232,
      "er": 233,
      "న్": 234,
      "on": 235,
      "ని": 236,
      "స్": 237,
      "an": 238,
      "ది": 239,
      "మీ": 240,
      "క్": 241,
      "ర్": 242,
      "at": 243,
      "re": 244,
      "me": 245,
      "రి": 246,
      "ప్": 247,
      "కు": 248,
      "నా": 249,
      "you": 250,
      "..": 251,
      "మీరు": 252,
      "the": 253,
      "or": 254,
      "నే": 255,
      "ing": 256,
      "ll": 257,
      "లు": 258,
      "is": 259,
      "to": 260,
      "నేను": 261,
      "ిం": 262,
      "le": 263,
      "దు": 264,
      "ట్": 265,
      "it": 266,
      "ము": 267,
      "en": 268,
      "డి": 269,
      "st": 270,
      "ar": 271,
      "కా": 272,
      "ow": 273,
      "se": 274,
      "ల్": 275,
      "ంది": 276,
      "డు": 277,
      "తు": 278,
      "he": 279,
      "ంట": 280,
      "వా": 281,
      "చే": 282,
      "ve": 283,
      "పు": 284,
      "మా": 285,
      "గా": 286,
      "...": 287,
      "లే": 288,
      "ed": 289,
      "త్": 290,
      "చి": 291,
      "ic": 292,
      "లి": 293,
      "క్క": 294,
      "ై": 295,
      "రా": 296,
      "of": 297,
      "ఒక": 298,
      "న్నా": 299,
      "ot": 300,
      "్య": 301,
      "వి": 302,
      "as": 303,
      "ay": 304,
      "es": 305,
      "ac": 306,
      "యు": 307,
      "be": 308,
      "లో": 309,
      "al": 310,
      "యి": 311,
      "and": 312,
      "చు": 313,
      "లా": 314,
      "ండి": 315,
      "కి": 316,
      "ion": 317,
      "et": 318,
      "ere": 319,
      "ప్ర": 320,
      "తి": 321,
      "సం": 322,
      "ame": 323,
      "డా": 324,
      "ig": 325,
      "గ్": 326,
      "చ్": 327,
      "id": 328,
      "hat": 329,
      "మరి": 330,
      "డ్": 331,
      "వు": 332,
      "om": 333,
      "గు": 334,
      "You": 335,
      "టి": 336,
      "ద్": 337,
      "మే": 338,
      "సి": 339,
      "that": 340,
      "all": 341,
      "మరియు": 342,
      "ad": 343,
      "స్తు": 344,
      "లేదు": 345,
      "న్ని": 346,
      "for": 347,
      "మి": 348,
      "ke": 349,
      "IN": 350,
      "కో": 351,
      "oo": 352,
      "చా": 353,
      "న్న": 354,
      "ut": 355,
      "ch": 356,
      "ht": 357,
      "సు": 358,
      "నికి": 359,
      "కొ": 360,
      "ఉంది": 361,
      "దా": 362,
      "ome": 363,
      "ld": 364,
      "ప్పు": 365,
      "రం": 366,
      "యా": 367,
      "తె": 368,
      "అత": 369,
      "ab": 370,
      "ha": 371,
      "గి": 372,
      "out": 373,
      "nd": 374,
      "we": 375,
      "ro": 376,
      "do": 377,
      "పా": 378,
      "ందు": 379,
      "wi": 380,
      "ver": 381,
      "క్కడ": 382,
      "వె": 383,
      "మేము": 384,
      "nt": 385,
      "బ్": 386,
      "మ్": 387,
      "ింది": 388,
      "here": 389,
      "li": 390,
      "now": 391,
      "ck": 392,
      "am": 393,
      "మె": 394,
      "ight": 395,
      "ne": 396,
      "Name": 397,
      "వచ్": 398,
      "ING": 399,
      "తా": 400,
      "చూ": 401,
      "are": 402,
      "one": 403,
      "యం": 404,
      "your": 405,
      "చె": 406,
      "ag": 407,
      "సా": 408,
      "రిం": 409,
      "బా": 410,
      "We": 411,
      "ళ్": 412,
      "ంగా": 413,
      "not": 414,
      "this": 415,
      "నాకు": 416,
      "వే": 417,
      "im": 418,
      "ఇది": 419,
      "sh": 420,
      "lo": 421,
      "ఉంట": 422,
      "ొక్క": 423,
      "up": 424,
      "my": 425,
      "ust": 426,
      "ur": 427,
      "He": 428,
      "ct": 429,
      "ట్ట": 430,
      "యొక్క": 431,
      "నీ": 432,
      "ప్పుడు": 433,
      "ir": 434,
      "The": 435,
      "ack": 436,
      "us": 437,
      "తో": 438,
      "అతను": 439,
      "ly": 440,
      "పి": 441,
      "ంద": 442,
      "un": 443,
      "పో": 444,
      "wh": 445,
      "పొ": 446,
      "ation": 447,
      "de": 448,
      "go": 449,
      "డానికి": 450,
      "మై": 451,
      "know": 452,
      "ri": 453,
      "get": 454,
      "ent": 455,
      "have": 456,
      "pe": 457,
      "AN": 458,
      "అను": 459,
      "ant": 460,
      "ఏమి": 461,
      "క్ష": 462,
      "నం": 463,
      "ళ్ళ": 464,
      "రే": 465,
      "with": 466,
      "ించ": 467,
      "టా": 468,
      "కే": 469,
      "It": 470,
      "ష్": 471,
      "ప్ప": 472,
      "వ్": 473,
      "ol": 474,
      "was": 475,
      "ఇక్కడ": 476,
      "రె": 477,
      "mo": 478,
      "రో": 479,
      "అన్ని": 480,
      "thing": 481,
      "if": 482,
      "ould": 483,
      "గొ": 484,
      "న్నాను": 485,
      "can": 486,
      "తెలు": 487,
      "pl": 488,
      "ther": 489,
      "ce": 490,
      "na": 491,
      "కాదు": 492,
      "op": 493,
      "00": 494,
      "ind": 495,
      "fe": 496,
      "ఫ్": 497,
      "Th": 498,
      "జా": 499,
      "te": 500,
      "ఉం": 501,
      "No": 502,
      "What": 503,
      "ment": 504,
      "ter": 505,
      "tr": 506,
      "మైన": 507,
      "right": 508,
      "ఉన్నా": 509,
      "ti": 510,
      "ద్ద": 511,
      "got": 512,
      "వల": 513,
      "అది": 514,
      "don": 515,
      "ta": 516,
      "అవు": 517,
      "some": 518,
      "uck": 519,
      "హా": 520,
      "తీ": 521,
      "తం": 522,
      "రీ": 523,
      "what": 524,
      "ile": 525,
      "భా": 526,
      "ఆమె": 527,
      "no": 528,
      "wor": 529,
      "just": 530,
      "రణ": 531,
      "ంటి": 532,
      "ook": 533,
      "ill": 534,
      "మం": 535,
      "లను": 536,
      "ate": 537,
      "ap": 538,
      "ింగ్": 539,
      "పె": 540,
      "bo": 541,
      "సిన": 542,
      "art": 543,
      "మార్": 544,
      "వారు": 545,
      "స్థ": 546,
      "ించు": 547,
      "OU": 548,
      "ంటు": 549,
      "కానీ": 550,
      "కోసం": 551,
      "ల్ల": 552,
      "ort": 553,
      "కలి": 554,
      "టకు": 555,
      "ON": 556,
      "చాలా": 557,
      "హ్": 558,
      "తెలుసు": 559,
      "our": 560,
      "And": 561,
      "want": 562,
      "con": 563,
      "వెళ్ళ": 564,
      "ain": 565,
      "చింది": 566,
      "ss": 567,
      "వ్య": 568,
      "ఖ్య": 569,
      "au": 570,
      "స్తా": 571,
      "like": 572,
      "gon": 573,
      "ive": 574,
      "యో": 575,
      "చేయ": 576,
      "కీ": 577,
      "TH": 578,
      "ah": 579,
      "చేస్తు": 580,
      "ఉన్నాయి": 581,
      "em": 582,
      "రించి": 583,
      "about": 584,
      "That": 585,
      "own": 586,
      "ie": 587,
      "అవును": 588,
      "man": 589,
      "gonna": 590,
      "చూడ": 591,
      "ood": 592,
      "ఇప్పుడు": 593,
      "ist": 594,
      "వచ్చు": 595,
      "దే": 596,
      "వర్": 597,
      "so": 598,
      "టు": 599,
      "ink": 600,
      "there": 601,
      "శా": 602,
      "Wh": 603,
      "ందుకు": 604,
      "ంత": 605,
      "ice": 606,
      "fr": 607,
      "way": 608,
      "him": 609,
      "గురించి": 610,
      "ER": 611,
      "tion": 612,
      "డం": 613,
      "Com": 614,
      "సమ": 615,
      "బి": 616,
      "ure": 617,
      "పే": 618,
      "రిగి": 619,
      "kay": 620,
      "సంఖ్య": 621,
      "స్ట": 622,
      "వచ్చింది": 623,
      "ష్ట": 624,
      "fo": 625,
      "ry": 626,
      "త్త": 627,
      "com": 628,
      "కుంటు": 629,
      "il": 630,
      "కుడి": 631,
      "ep": 632,
      "um": 633,
      "but": 634,
      "did": 635,
      "gu": 636,
      "ard": 637,
      "కలిగి": 638,
      "పరి": 639,
      "ెట్": 640,
      "ex": 641,
      "జు": 642,
      "ంటే": 643,
      "ase": 644,
      "end": 645,
      "హి": 646,
      "Well": 647,
      "న్నారు": 648,
      "back": 649,
      "eah": 650,
      "గొన్న": 651,
      "pro": 652,
      "\\\\": 653,
      "తుంది": 654,
      "Sh": 655,
      "ers": 656,
      "LL": 657,
      "ally": 658,
      "ge": 659,
      "ick": 660,
      "ound": 661,
      "సె": 662,
      "త్ర": 663,
      "will": 664,
      "age": 665,
      "ధా": 666,
      "ాయి": 667,
      "gr": 668,
      "ide": 669,
      "ఎవ": 670,
      "ప్రతి": 671,
      "very": 672,
      "ast": 673,
      "sa": 674,
      "మంచి": 675,
      "మొ": 676,
      "qu": 677,
      "ఉంటు": 678,
      "బు": 679,
      "హే": 680,
      "రెం": 681,
      "This": 682,
      "వీ": 683,
      "మూ": 684,
      "సరే": 685,
      "తెలి": 686,
      "time": 687,
      "el": 688,
      "ఉంటుంది": 689,
      "ine": 690,
      "fuck": 691,
      "నుండి": 692,
      "day": 693,
      "పొంద": 694,
      "Oh": 695,
      "తన": 696,
      "అవ": 697,
      "oug": 698,
      "తే": 699,
      "they": 700,
      "able": 701,
      "ట్టు": 702,
      "లీ": 703,
      "షి": 704,
      "ong": 705,
      "name": 706,
      "RE": 707,
      "CK": 708,
      "any": 709,
      "ప్రా": 710,
      "జీ": 711,
      "్యా": 712,
      "ma": 713,
      "Hey": 714,
      "అక్కడ": 715,
      "sc": 716,
      "రై": 717,
      "తిరిగి": 718,
      "ూర్": 719,
      "from": 720,
      "ME": 721,
      "ess": 722,
      "ble": 723,
      "శ్": 724,
      "col": 725,
      "ul": 726,
      "think": 727,
      "చూడండి": 728,
      "ఏద": 729,
      "need": 730,
      "top": 731,
      "ఎలా": 732,
      "DE": 733,
      "All": 734,
      "YOU": 735,
      "లేదా": 736,
      "Comment": 737,
      "క్తి": 738,
      "di": 739,
      "కేవల": 740,
      "విం": 741,
      "కేవలం": 742,
      "AT": 743,
      "But": 744,
      "గం": 745,
      "కం": 746,
      "down": 747,
      "కొన్ని": 748,
      "వద్ద": 749,
      "ave": 750,
      "per": 751,
      "అని": 752,
      "ఉంటాయి": 753,
      "Yeah": 754,
      "క్కు": 755,
      "డూ": 756,
      "pre": 757,
      "ఓహ్": 758,
      "లని": 759,
      "see": 760,
      "been": 761,
      "king": 762,
      "br": 763,
      "good": 764,
      "మని": 765,
      "ంచ": 766,
      "Do": 767,
      "CH": 768,
      "వంటి": 769,
      "po": 770,
      "జి": 771,
      "Go": 772,
      "Ch": 773,
      "అవస": 774,
      "In": 775,
      "సో": 776,
      "ౌన్": 777,
      "ace": 778,
      "itt": 779,
      "ple": 780,
      "come": 781,
      "స్ట్": 782,
      "చెప్ప": 783,
      "av": 784,
      "So": 785,
      "How": 786,
      "సర్": 787,
      "Re": 788,
      "అనుకుంటు": 789,
      "బడ": 790,
      "who": 791,
      "by": 792,
      "look": 793,
      "lect": 794,
      "bu": 795,
      "GR": 796,
      "జ్": 797,
      "LE": 798,
      "రూ": 799,
      "ంచు": 800,
      "color": 801,
      "ఉండ": 802,
      "పని": 803,
      "న్నారా": 804,
      "నిర్": 805,
      "డె": 806,
      "దీ": 807,
      "OR": 808,
      "Se": 809,
      "her": 810,
      "నిజ": 811,
      "కార్": 812,
      "ass": 813,
      "sed": 814,
      "వెళ్ళి": 815,
      "అతని": 816,
      "య్య": 817,
      "క్రి": 818,
      "మాట్": 819,
      "ప్పుడూ": 820,
      "బాగా": 821,
      "Okay": 822,
      "ber": 823,
      "రకు": 824,
      "సే": 825,
      "pr": 826,
      "ఎందుకు": 827,
      "ree": 828,
      "dy": 829,
      "SI": 830,
      "చిన": 831,
      "కూ": 832,
      "off": 833,
      "co": 834,
      "ans": 835,
      "విష": 836,
      "డాలి": 837,
      "St": 838,
      "GH": 839,
      "ting": 840,
      "యూ": 841,
      "ండ్": 842,
      "తీసు": 843,
      "స్థా": 844,
      "మాట్లా": 845,
      "స్తుంది": 846,
      "క్స్": 847,
      "టానికి": 848,
      "అవసరం": 849,
      "పొందు": 850,
      "guy": 851,
      "pp": 852,
      "ven": 853,
      "ట్టి": 854,
      "కాల్": 855,
      "చేసిన": 856,
      "port": 857,
      "టర్": 858,
      "ty": 859,
      "చేయు": 860,
      "రోజు": 861,
      "వ్యక్తి": 862,
      "cl": 863,
      "call": 864,
      "indow": 865,
      "take": 866,
      "ఉంటే": 867,
      "సమయం": 868,
      "Con": 869,
      "పేరు": 870,
      "ధ్య": 871,
      "న్ను": 872,
      "ప్పటి": 873,
      "iz": 874,
      "old": 875,
      "గో": 876,
      "డో": 877,
      "let": 878,
      "రెండు": 879,
      "LA": 880,
      "ank": 881,
      "ang": 882,
      "ించా": 883,
      "when": 884,
      "them": 885,
      "Mo": 886,
      "ర్థ": 887,
      "లం": 888,
      "షన్": 889,
      "పయో": 890,
      "ough": 891,
      "ue": 892,
      "De": 893,
      "she": 894,
      "ఏమిటి": 895,
      "పై": 896,
      "UN": 897,
      "che": 898,
      "eric": 899,
      "వారా": 900,
      "act": 901,
      "his": 902,
      "టె": 903,
      "ittle": 904,
      "ser": 905,
      "కంటే": 906,
      "ak": 907,
      "అప్": 908,
      "MAN": 909,
      "could": 910,
      "డౌన్": 911,
      "NO": 912,
      "చేస్తున్నాను": 913,
      "ST": 914,
      "కను": 915,
      "డీ": 916,
      "త్రి": 917,
      "say": 918,
      "dis": 919,
      "men": 920,
      "తెలియ": 921,
      "ian": 922,
      "BE": 923,
      "ton": 924,
      "ity": 925,
      "మో": 926,
      "little": 927,
      "file": 928,
      "lp": 929,
      "బర్": 930,
      "ning": 931,
      "KDE": 932,
      "దర్": 933,
      "ఫా": 934,
      "చ్చి": 935,
      "work": 936,
      "There": 937,
      "ite": 938,
      "వాటి": 939,
      "going": 940,
      "తంగా": 941,
      "la": 942,
      "మర్": 943,
      "బె": 944,
      "form": 945,
      "new": 946,
      "has": 947,
      "ంట్": 948,
      "ous": 949,
      "Come": 950,
      "Now": 951,
      "గుర్": 952,
      "something": 953,
      "ఫో": 954,
      "రంభ": 955,
      "పొందుటకు": 956,
      "వై": 957,
      "would": 958,
      "ధి": 959,
      "సహా": 960,
      "హె": 961,
      "int": 962,
      "ముందు": 963,
      "Ne": 964,
      "They": 965,
      "కె": 966,
      "too": 967,
      "der": 968,
      "ఎం": 969,
      "ప్రారంభ": 970,
      "మ్మ": 971,
      "AR": 972,
      "fucking": 973,
      "పొందండి": 974,
      "ఏదో": 975,
      "లె": 976,
      "మీకు": 977,
      "మొద": 978,
      "టం": 979,
      "కింగ్": 980,
      "బయ": 981,
      "res": 982,
      "arch": 983,
      "tal": 984,
      "where": 985,
      "ia": 986,
      "xt": 987,
      "ఆఫ్": 988,
      "LI": 989,
      "ఉన్న": 990,
      "ద్వారా": 991,
      "tw": 992,
      "సమా": 993,
      "యన్": 994,
      "ary": 995,
      "సై": 996,
      "పయోగ": 997,
      "ies": 998,
      "how": 999,
      "హు": 1000,
      "play": 1001,
      "పట్ట": 1002,
      "చెప్": 1003,
      "mon": 1004,
      "క్కువ": 1005,
      "Not": 1006,
      "UCK": 1007,
      "లెట్": 1008,
      "Get": 1009,
      "cr": 1010,
      "వాటిని": 1011,
      "select": 1012,
      "ause": 1013,
      "est": 1014,
      "should": 1015,
      "మనిషి": 1016,
      "ear": 1017,
      "WH": 1018,
      "other": 1019,
      "ub": 1020,
      "ణం": 1021,
      "kill": 1022,
      "నన్ను": 1023,
      "శీ": 1024,
      "read": 1025,
      "really": 1026,
      "చేసి": 1027,
      "కొత్త": 1028,
      "more": 1029,
      "మాకు": 1030,
      "over": 1031,
      "శం": 1032,
      "యే": 1033,
      "నిజంగా": 1034,
      "und": 1035,
      "were": 1036,
      "కర్": 1037,
      "దయ": 1038,
      "cre": 1039,
      "పీ": 1040,
      "tell": 1041,
      "jo": 1042,
      "50": 1043,
      "every": 1044,
      "ait": 1045,
      "తర": 1046,
      "కమ్": 1047,
      "IT": 1048,
      "బో": 1049,
      "బడి": 1050,
      "స్నే": 1051,
      "Let": 1052,
      "కరిం": 1053,
      "పూర్": 1054,
      "Don": 1055,
      "SH": 1056,
      "టీ": 1057,
      "list": 1058,
      "శి": 1059,
      "rip": 1060,
      "okay": 1061,
      "put": 1062,
      "దాని": 1063,
      "start": 1064,
      "uch": 1065,
      "త్స": 1066,
      "Mr": 1067,
      "dd": 1068,
      "వాత": 1069,
      "happ": 1070,
      "సీ": 1071,
      "Look": 1072,
      "ంగ్": 1073,
      "Br": 1074,
      "ైన": 1075,
      "action": 1076,
      "ఎప్పుడూ": 1077,
      "iss": 1078,
      "దయచేసి": 1079,
      "ద్దు": 1080,
      "ect": 1081,
      "బ్బు": 1082,
      "ష్టం": 1083,
      "sp": 1084,
      "ఖచ్చి": 1085,
      "గీ": 1086,
      "cur": 1087,
      "విచా": 1088,
      "oney": 1089,
      "స్తాయి": 1090,
      "ire": 1091,
      "నె": 1092,
      "తూ": 1093,
      "పిల్ల": 1094,
      "ఎవరు": 1095,
      "విండో": 1096,
      "రము": 1097,
      "‌ను": 1098,
      "దిగా": 1099,
      "THE": 1100,
      "Un": 1101,
      "యత్": 1102,
      "sel": 1103,
      "lock": 1104,
      "riend": 1105,
      "చర్": 1106,
      "స్తున్నాను": 1107,
      "Be": 1108,
      "లేక": 1109,
      "key": 1110,
      "బడింది": 1111,
      "She": 1112,
      "ట్లు": 1113,
      "des": 1114,
      "had": 1115,
      "ఆట": 1116,
      "ory": 1117,
      "ద్ధ": 1118,
      "కలు": 1119,
      "ication": 1120,
      "Why": 1121,
      "ఖచ్చితంగా": 1122,
      "ఆలో": 1123,
      "వది": 1124,
      ".\"": 1125,
      "ఫై": 1126,
      "ప్రయత్": 1127,
      "మాట్లాడ": 1128,
      "ug": 1129,
      "జె": 1130,
      "బం": 1131,
      "స్టర్": 1132,
      "చం": 1133,
      "move": 1134,
      "తలు": 1135,
      "ంటా": 1136,
      "10": 1137,
      "fir": 1138,
      "friend": 1139,
      "sor": 1140,
      "అం": 1141,
      "మాత్ర": 1142,
      "ించడానికి": 1143,
      "ance": 1144,
      "క్ర": 1145,
      "My": 1146,
      "ఇవ్": 1147,
      "పెద్ద": 1148,
      "సహాయం": 1149,
      "Am": 1150,
      "bit": 1151,
      "fore": 1152,
      "If": 1153,
      "ప్రయత్ని": 1154,
      "రాలు": 1155,
      "ople": 1156,
      "చెప్పా": 1157,
      "AD": 1158,
      "డుతుంది": 1159,
      "--": 1160,
      "రికా": 1161,
      "bet": 1162,
      "didn": 1163,
      "న్స్": 1164,
      "వెళ్": 1165,
      "ప్పటికీ": 1166,
      "cut": 1167,
      "ff": 1168,
      "డబ్బు": 1169,
      "ప్రే": 1170,
      "గ్ర": 1171,
      "200": 1172,
      "An": 1173,
      "ever": 1174,
      "ైనా": 1175,
      "make": 1176,
      "window": 1177,
      "నము": 1178,
      "పం": 1179,
      "యవా": 1180,
      "love": 1181,
      "urn": 1182,
      "బయటకు": 1183,
      "ull": 1184,
      "wr": 1185,
      "పడానికి": 1186,
      "min": 1187,
      "మాత్రమే": 1188,
      "బ్యా": 1189,
      "వేచి": 1190,
      "atch": 1191,
      "కూడా": 1192,
      "సింది": 1193,
      "యిలు": 1194,
      "os": 1195,
      "use": 1196,
      "వం": 1197,
      "స్తున్న": 1198,
      "never": 1199,
      "cause": 1200,
      "రుగు": 1201,
      "mem": 1202,
      "అతనికి": 1203,
      "much": 1204,
      "part": 1205,
      "షా": 1206,
      "lease": 1207,
      "జరి": 1208,
      "does": 1209,
      "boy": 1210,
      "చేస్తుంది": 1211,
      "అతనిని": 1212,
      "Pl": 1213,
      "find": 1214,
      "ఎక్కడ": 1215,
      "హితు": 1216,
      "two": 1217,
      "స్నేహితు": 1218,
      "నది": 1219,
      "set": 1220,
      "కొద్": 1221,
      "కొరకు": 1222,
      "doing": 1223,
      "ఉండాలి": 1224,
      "మార్గం": 1225,
      "IS": 1226,
      "gre": 1227,
      "ark": 1228,
      "ించుము": 1229,
      "Are": 1230,
      "శు": 1231,
      "ins": 1232,
      "UNT": 1233,
      "అబ్": 1234,
      "ach": 1235,
      "ool": 1236,
      "ALL": 1237,
      "ft": 1238,
      "తీసుకు": 1239,
      "ouse": 1240,
      "వ్వు": 1241,
      "ize": 1242,
      "TO": 1243,
      "అమె": 1244,
      "ఎందు": 1245,
      "shit": 1246,
      "స్తారు": 1247,
      "చేయుము": 1248,
      "body": 1249,
      "జీవి": 1250,
      "విషయం": 1251,
      "ఎందుకంటే": 1252,
      "dr": 1253,
      "అర్థ": 1254,
      "ఫక్": 1255,
      "cont": 1256,
      "కొద్దిగా": 1257,
      "ving": 1258,
      "నో": 1259,
      "భావి": 1260,
      "గే": 1261,
      "రుడు": 1262,
      "ident": 1263,
      "GRUNT": 1264,
      "గుర్తు": 1265,
      "DO": 1266,
      "ింపు": 1267,
      "word": 1268,
      "హో": 1269,
      "people": 1270,
      "OAN": 1271,
      "రక": 1272,
      "feel": 1273,
      "అంద": 1274,
      "యె": 1275,
      "bel": 1276,
      "spe": 1277,
      "కల": 1278,
      "only": 1279,
      "దాలు": 1280,
      "cess": 1281,
      "ange": 1282,
      "then": 1283,
      "రాత్రి": 1284,
      "అనుకుంటున్నారా": 1285,
      "ఓకే": 1286,
      "బట్టి": 1287,
      "ash": 1288,
      "Gen": 1289,
      "Where": 1290,
      "ont": 1291,
      "అబ్బా": 1292,
      "RI": 1293,
      "అభ": 1294,
      "రక్ష": 1295,
      "పూర్తి": 1296,
      "ount": 1297,
      "formation": 1298,
      "MU": 1299,
      "RO": 1300,
      "won": 1301,
      "ఇం": 1302,
      "కొను": 1303,
      "happen": 1304,
      "అయి": 1305,
      "les": 1306,
      "help": 1307,
      "త్రం": 1308,
      "విధ": 1309,
      "life": 1310,
      "వదిలి": 1311,
      "ho": 1312,
      "yst": 1313,
      "కోరు": 1314,
      "EN": 1315,
      "uh": 1316,
      "ఎల్ల": 1317,
      "దృ": 1318,
      "రొ": 1319,
      "ద్ర": 1320,
      "లై": 1321,
      "స్య": 1322,
      "కోవా": 1323,
      "Please": 1324,
      "ix": 1325,
      "సరి": 1326,
      "again": 1327,
      "Char": 1328,
      "అర్థం": 1329,
      "bl": 1330,
      "sure": 1331,
      "యింది": 1332,
      "Americ": 1333,
      "Just": 1334,
      "mean": 1335,
      "head": 1336,
      "డ్డా": 1337,
      "show": 1338,
      "20": 1339,
      "For": 1340,
      "ktop": 1341,
      "money": 1342,
      "into": 1343,
      "కాబట్టి": 1344,
      "ready": 1345,
      "బీ": 1346,
      "ake": 1347,
      "cle": 1348,
      "తప్పు": 1349,
      "lie": 1350,
      "ES": 1351,
      "ప్రో": 1352,
      "iew": 1353,
      "Tr": 1354,
      "ci": 1355,
      "info": 1356,
      "తోంది": 1357,
      "God": 1358,
      "ror": 1359,
      "ండా": 1360,
      "దూ": 1361,
      "విన": 1362,
      "fer": 1363,
      "fig": 1364,
      "lt": 1365,
      "stand": 1366,
      "under": 1367,
      "sorry": 1368,
      "అబ్బాయిలు": 1369,
      "\"%": 1370,
      "tit": 1371,
      "గల": 1372,
      "bre": 1373,
      "crip": 1374,
      "వరి": 1375,
      "ish": 1376,
      "Who": 1377,
      "\\\\\\\\": 1378,
      "GROAN": 1379,
      "రమైన": 1380,
      "ated": 1381,
      "రంగు": 1382,
      "self": 1383,
      "bab": 1384,
      "వత్స": 1385,
      "సంవత్స": 1386,
      "ఎవరై": 1387,
      "కనుగొ": 1388,
      "ways": 1389,
      "LES": 1390,
      "చెప్పారు": 1391,
      "ఎక్కువ": 1392,
      "ఏం": 1393,
      "than": 1394,
      "ery": 1395,
      "ence": 1396,
      "పిక": 1397,
      "తెలియదు": 1398,
      "ail": 1399,
      "లకు": 1400,
      "month": 1401,
      "ystem": 1402,
      "En": 1403,
      "Op": 1404,
      "ask": 1405,
      "జాక్": 1406,
      "bro": 1407,
      "sup": 1408,
      "As": 1409,
      "అప్పుడు": 1410,
      "ord": 1411,
      "ich": 1412,
      "ఏదైనా": 1413,
      "ఖా": 1414,
      "దో": 1415,
      "ించే": 1416,
      "Is": 1417,
      "ఇష్టం": 1418,
      "డర్": 1419,
      "తొ": 1420,
      "ద్య": 1421,
      "ధన్": 1422,
      "tom": 1423,
      "ions": 1424,
      "ధన్యవా": 1425,
      "'%": 1426,
      "AM": 1427,
      "home": 1428,
      "tp": 1429,
      "vice": 1430,
      "ఫి": 1431,
      "ప్లే": 1432,
      "డిస్": 1433,
      "http": 1434,
      "Short": 1435,
      "ధన్యవాదాలు": 1436,
      "AS": 1437,
      "AY": 1438,
      "అమ్": 1439,
      "రుపు": 1440,
      "ించిన": 1441,
      "త్య": 1442,
      "చారు": 1443,
      "కొన": 1444,
      "kid": 1445,
      "long": 1446,
      "తరు": 1447,
      "ల్లి": 1448,
      "చిన్న": 1449,
      "స్తున్నా": 1450,
      "దర్శ": 1451,
      "Bl": 1452,
      "af": 1453,
      "వస్తాయి": 1454,
      "ుడు": 1455,
      "డియో": 1456,
      "irl": 1457,
      "పోయింది": 1458,
      "place": 1459,
      "Ke": 1460,
      "mm": 1461,
      "కృ": 1462,
      "వరకు": 1463,
      "యాలు": 1464,
      "ల్స్": 1465,
      "ade": 1466,
      "రంగా": 1467,
      "అనుకు": 1468,
      "mother": 1469,
      "text": 1470,
      "New": 1471,
      "Des": 1472,
      "care": 1473,
      "జీవితం": 1474,
      "Ex": 1475,
      "nice": 1476,
      "year": 1477,
      "బహు": 1478,
      "హం": 1479,
      "guys": 1480,
      "మొదటి": 1481,
      "60": 1482,
      "SO": 1483,
      "even": 1484,
      "give": 1485,
      "item": 1486,
      "చేయా": 1487,
      "చేయవచ్చు": 1488,
      "బర్ట్": 1489,
      "Jack": 1490,
      "ర్డ్": 1491,
      "ించండి": 1492,
      "lot": 1493,
      "ww": 1494,
      "ణా": 1495,
      "బే": 1496,
      "లోకి": 1497,
      "తెలుసా": 1498,
      "వెళ్ళండి": 1499,
      "సూ": 1500,
      "lose": 1501,
      "why": 1502,
      "said": 1503,
      "ఫకింగ్": 1504,
      "వలసిన": 1505,
      "ఎవరైనా": 1506,
      "పద": 1507,
      "కారు": 1508,
      "్యం": 1509,
      "ప్రజ": 1510,
      "run": 1511,
      "ప్రస్తు": 1512,
      "plication": 1513,
      "wait": 1514,
      "before": 1515,
      "ign": 1516,
      "str": 1517,
      "around": 1518,
      "search": 1519,
      "చేశా": 1520,
      "amn": 1521,
      "Lo": 1522,
      "Man": 1523,
      "ike": 1524,
      "ps": 1525,
      "కరణ": 1526,
      "చెయ్య": 1527,
      "Jo": 1528,
      "val": 1529,
      "try": 1530,
      "may": 1531,
      "చేయి": 1532,
      "talk": 1533,
      "WE": 1534,
      "hand": 1535,
      "గత": 1536,
      "దస్": 1537,
      "మతి": 1538,
      "real": 1539,
      "ought": 1540,
      "Dis": 1541,
      "Le": 1542,
      "still": 1543,
      "గ్రా": 1544,
      "మిస్టర్": 1545,
      "పోతే": 1546,
      "girl": 1547,
      "జే": 1548,
      "పడుతుంది": 1549,
      "member": 1550,
      "used": 1551,
      "చన": 1552,
      "్యూ": 1553,
      "rent": 1554,
      "కుండా": 1555,
      "చుము": 1556,
      "వ్యా": 1557,
      "దేవు": 1558,
      "Yes": 1559,
      "hell": 1560,
      "వుపయోగ": 1561,
      "అమెరికా": 1562,
      "Bo": 1563,
      "Good": 1564,
      "Ju": 1565,
      "నిమి": 1566,
      "వారి": 1567,
      "gotta": 1568,
      "సమస్య": 1569,
      "check": 1570,
      "title": 1571,
      "Gr": 1572,
      "LO": 1573,
      "OH": 1574,
      "Pro": 1575,
      "sir": 1576,
      "మన్": 1577,
      "మళ్ళ": 1578,
      "లాక్": 1579,
      "better": 1580,
      "=\\\\\\\\": 1581,
      "ర్లు": 1582,
      "అనుకుంటున్నాను": 1583,
      "ek": 1584,
      "sit": 1585,
      "ంలో": 1586,
      "ico": 1587,
      "first": 1588,
      "IC": 1589,
      "ily": 1590,
      "స్త": 1591,
      "Can": 1592,
      "stop": 1593,
      "button": 1594,
      "car": 1595,
      "ph": 1596,
      "these": 1597,
      "ise": 1598,
      "leave": 1599,
      "రింగ్": 1600,
      "urt": 1601,
      "ించడం": 1602,
      "SIC": 1603,
      "కొనసా": 1604,
      "ప్రజలు": 1605,
      "Col": 1606,
      "keep": 1607,
      "load": 1608,
      "ళ్ళు": 1609,
      "America": 1610,
      "Cop": 1611,
      "du": 1612,
      "ith": 1613,
      "డే": 1614,
      "భూ": 1615,
      "యిన": 1616,
      "మళ్ళీ": 1617,
      "Fr": 1618,
      "అంటే": 1619,
      "ఆల్": 1620,
      "ప్యా": 1621,
      "గ్గ": 1622,
      "సమాచా": 1623,
      "ner": 1624,
      "వాడు": 1625,
      "కోల్": 1626,
      "ext": 1627,
      "ఫోన్": 1628,
      ":%": 1629,
      "CO": 1630,
      "GO": 1631,
      "ild": 1632,
      "దొ": 1633,
      "anna": 1634,
      "క్లి": 1635,
      "నాలు": 1636,
      "మును": 1637,
      "unch": 1638,
      "bug": 1639,
      "came": 1640,
      "కోవ": 1641,
      "ప్రేమ": 1642,
      "MUSIC": 1643,
      "Pre": 1644,
      "dre": 1645,
      "miss": 1646,
      "నై": 1647,
      "స్టా": 1648,
      "బ్బ": 1649,
      "క్షమ": 1650,
      "ious": 1651,
      "ఉత్త": 1652,
      "టో": 1653,
      "సివే": 1654,
      "Show": 1655,
      "తెలిసిన": 1656,
      "CD": 1657,
      "డిద": 1658,
      "చూడాలి": 1659,
      "Thank": 1660,
      "చేశారు": 1661,
      "az": 1662,
      "last": 1663,
      "ిక": 1664,
      "thr": 1665,
      "తున్న": 1666,
      "EA": 1667,
      "ELI": 1668,
      "Here": 1669,
      "son": 1670,
      "unt": 1671,
      "yes": 1672,
      "షం": 1673,
      "స్వా": 1674,
      "red": 1675,
      "ict": 1676,
      "always": 1677,
      "ose": 1678,
      "స్క్": 1679,
      "ction": 1680,
      "cond": 1681,
      "@}": 1682,
      "PS": 1683,
      "found": 1684,
      "night": 1685,
      "లతో": 1686,
      "left": 1687,
      "వార్": 1688,
      "రణం": 1689,
      "ONE": 1690,
      "menu": 1691,
      "UR": 1692,
      "bar": 1693,
      "{@}": 1694,
      "అయ్య": 1695,
      "డవ": 1696,
      "ating": 1697,
      "well": 1698,
      "open": 1699,
      "fl": 1700,
      "mind": 1701,
      "పార్": 1702,
      "ఉన్నప్పుడు": 1703,
      "ఎల్లప్పుడూ": 1704,
      "డిస్కు": 1705,
      "దేవుని": 1706,
      "fa": 1707,
      "fin": 1708,
      "sing": 1709,
      "uff": 1710,
      "జర్": 1711,
      "information": 1712,
      "చుట్ట": 1713,
      "CHUCK": 1714,
      "Window": 1715,
      "అలా": 1716,
      "ఇంటి": 1717,
      "గింది": 1718,
      "కొని": 1719,
      "GHS": 1720,
      "అమ్మా": 1721,
      "DI": 1722,
      "NA": 1723,
      "block": 1724,
      "done": 1725,
      "ful": 1726,
      "ik": 1727,
      "mand": 1728,
      "యిం": 1729,
      "Your": 1730,
      "యారు": 1731,
      "మర్చి": 1732,
      "చుట్టూ": 1733,
      "To": 1734,
      "ible": 1735,
      "ఇతర": 1736,
      "య్": 1737,
      "వండి": 1738,
      "llow": 1739,
      "belie": 1740,
      "rol": 1741,
      "ABE": 1742,
      "FUCK": 1743,
      "ZABE": 1744,
      "bus": 1745,
      "గుడ్": 1746,
      "label": 1747,
      "Open": 1748,
      "ELIZABE": 1749,
      "ELIZABETH": 1750,
      "VD": 1751,
      "ath": 1752,
      "big": 1753,
      "count": 1754,
      "dif": 1755,
      "అధ్య": 1756,
      "జస్ట్": 1757,
      "తర్": 1758,
      "ములు": 1759,
      "coming": 1760,
      "Te": 1761,
      "TER": 1762,
      "ny": 1763,
      "నమ్మ": 1764,
      "లై": 1765,
      "పుము": 1766,
      "acti": 1767,
      "చెల్ల": 1768,
      "దీన్ని": 1769,
      "ించారు": 1770,
      "Generic": 1771,
      "Qu": 1772,
      "yeah": 1773,
      "చ్చ": 1774,
      "Add": 1775,
      "og": 1776,
      "ఉపయోగ": 1777,
      "నొ": 1778,
      "నలు": 1779,
      "పట్టు": 1780,
      "report": 1781,
      "కుడు": 1782,
      "నాశ": 1783,
      "iles": 1784,
      "అభి": 1785,
      "Al": 1786,
      "DVD": 1787,
      "On": 1788,
      "Sor": 1789,
      "mag": 1790,
      "చేస్తా": 1791,
      "జాబి": 1792,
      "క్రియా": 1793,
      "LAU": 1794,
      "SC": 1795,
      "ఏమీ": 1796,
      "త్తం": 1797,
      "బ్ర": 1798,
      "quest": 1799,
      "మూడు": 1800,
      "cription": 1801,
      "ఎల్": 1802,
      "రువు": 1803,
      "atter": 1804,
      "anything": 1805,
      "అధ్యక్ష": 1806,
      "GenericName": 1807,
      "ip": 1808,
      "రకం": 1809,
      "రాం": 1810,
      "igh": 1811,
      "సైన్": 1812,
      "Some": 1813,
      "ial": 1814,
      "wanna": 1815,
      "ించి": 1816,
      "రాల": 1817,
      "ధారణ": 1818,
      "pres": 1819,
      "Move": 1820,
      "తరువాత": 1821,
      "తర్వాత": 1822,
      "ject": 1823,
      "నల్": 1824,
      "నందు": 1825,
      "పర్": 1826,
      "లూ": 1827,
      "ల్లో": 1828,
      "ప్రదర్శ": 1829,
      "డ్రి": 1830,
      "బడిన": 1831,
      "కరించ": 1832,
      "అయ్యో": 1833,
      "Right": 1834,
      "io": 1835,
      "kes": 1836,
      "మహి": 1837,
      "స్తోంది": 1838,
      "ater": 1839,
      "కాలేదు": 1840,
      "వాలని": 1841,
      "పున": 1842,
      "నంత": 1843,
      "baby": 1844,
      "బహుశా": 1845,
      "మహిళ": 1846,
      "aw": 1847,
      "అక్ష": 1848,
      "ఆర్": 1849,
      "ఫె": 1850,
      "వద్దు": 1851,
      "తారు": 1852,
      "టాప్": 1853,
      "ault": 1854,
      "blem": 1855,
      "looking": 1856,
      "ఎంపిక": 1857,
      "OF": 1858,
      "line": 1859,
      "జరిగి": 1860,
      "భయ": 1861,
      "భు": 1862,
      "remember": 1863,
      "డిపి": 1864,
      "తున్నారు": 1865,
      "త్తు": 1866,
      "sho": 1867,
      "ANT": 1868,
      "000": 1869,
      "ంచండి": 1870,
      "చంపడానికి": 1871,
      "ంటారు": 1872,
      "after": 1873,
      "Or": 1874,
      "పించు": 1875,
      "stay": 1876,
      "చివరి": 1877,
      "week": 1878,
      "పాత": 1879,
      "చెప్పండి": 1880,
      "job": 1881,
      "దానిని": 1882,
      "జాబితా": 1883,
      "Ar": 1884,
      "bad": 1885,
      "cent": 1886,
      "వరు": 1887,
      "ులు": 1888,
      "గాడిద": 1889,
      "త్తి": 1890,
      "option": 1891,
      "icode": 1892,
      "believe": 1893,
      "నాశనం": 1894,
      "Fuck": 1895,
      "KChar": 1896,
      "ax": 1897,
      "వహ": 1898,
      "ors": 1899,
      "today": 1900,
      "application": 1901,
      "box": 1902,
      "మొత్తం": 1903,
      "డిపిఐ": 1904,
      "away": 1905,
      "అమర్": 1906,
      "కని": 1907,
      "(%": 1908,
      "must": 1909,
      "pack": 1910,
      "మైన": 1911,
      "ందో": 1912,
      "పోయిన": 1913,
      "GHT": 1914,
      "RING": 1915,
      "SE": 1916,
      "Set": 1917,
      "fun": 1918,
      "విశ్": 1919,
      "స్తున్నారు": 1920,
      "loc": 1921,
      "problem": 1922,
      "card": 1923,
      "ధ్": 1924,
      "రిస్తున్నాను": 1925,
      "roll": 1926,
      "getting": 1927,
      "please": 1928,
      "అనుకున్నాను": 1929,
      "ఇప్పటికీ": 1930,
      "చండి": 1931,
      "లుక్": 1932,
      "stall": 1933,
      "sess": 1934,
      "వాస": 1935,
      "world": 1936,
      "Select": 1937,
      "'.": 1938,
      "Ho": 1939,
      "PI": 1940,
      "system": 1941,
      "పడి": 1942,
      "వన్నా": 1943,
      "స్వ": 1944,
      "మీద": 1945,
      "att": 1946,
      "జిమ్": 1947,
      "Ind": 1948,
      "గంట": 1949,
      "తల్లి": 1950,
      "పై": 1951,
      "పాటు": 1952,
      "known": 1953,
      "వీలు": 1954,
      "కార్య": 1955,
      "తొల": 1956,
      "Au": 1957,
      "CE": 1958,
      "GE": 1959,
      "HE": 1960,
      "VE": 1961,
      "game": 1962,
      "డ్యూ": 1963,
      "సొ": 1964,
      "ons": 1965,
      "లేని": 1966,
      "మరింత": 1967,
      "దారి": 1968,
      "most": 1969,
      "గొప్ప": 1970,
      "తండ్రి": 1971,
      "fault": 1972,
      "భ్": 1973,
      "ౌస్": 1974,
      "పాట": 1975,
      "సాధారణ": 1976,
      "type": 1977,
      "Play": 1978,
      "ఎస్": 1979,
      "మధ్య": 1980,
      "because": 1981,
      "కోండి": 1982,
      "సారి": 1983,
      "భావ": 1984,
      "పెట్ట": 1985,
      "హెల్": 1986,
      "అయితే": 1987,
      "understand": 1988,
      "years": 1989,
      "through": 1990,
      "SCRE": 1991,
      "KE": 1992,
      "టే": 1993,
      "things": 1994,
      "మాట్లాడు": 1995,
      "minut": 1996,
      "ale": 1997,
      "dri": 1998,
      "view": 1999,
      "ట్రా": 2000,
      "fect": 2001,
      "చేయండి": 2002,
      "ూర్పు": 2003,
      "శిశు": 2004,
      "విచారిస్తున్నాను": 2005,
      "ఆలోచన": 2006,
      "CHUCKLES": 2007,
      "శిశువు": 2008,
      "Pr": 2009,
      "bon": 2010,
      "ts": 2011,
      "ఆకృ": 2012,
      "తల": 2013,
      "ata": 2014,
      "unicode": 2015,
      "ried": 2016,
      "When": 2017,
      "Cont": 2018,
      "శీల": 2019,
      "అధ్యక్షుడు": 2020,
      "కులు": 2021,
      "told": 2022,
      "కావలసిన": 2023,
      "ower": 2024,
      "భాగ": 2025,
      "desktop": 2026,
      "KCharselect": 2027,
      "Every": 2028,
      "PH": 2029,
      "పంచ": 2030,
      "thought": 2031,
      "త్రా": 2032,
      "ical": 2033,
      "గుర్తుంచు": 2034,
      "LING": 2035,
      "kind": 2036,
      "sm": 2037,
      "ual": 2038,
      "నవ్వు": 2039,
      "ఫీ": 2040,
      "చేసింది": 2041,
      "AND": 2042,
      "ించింది": 2043,
      "స్థి": 2044,
      "ERE": 2045,
      "వీక్ష": 2046,
      "files": 2047,
      "జరిగినది": 2048,
      "KING": 2049,
      "Spe": 2050,
      "dit": 2051,
      "gin": 2052,
      "same": 2053,
      "wal": 2054,
      "అంత": 2055,
      "పల": 2056,
      "its": 2057,
      "డుగు": 2058,
      "hear": 2059,
      "vel": 2060,
      "ప్రపంచ": 2061,
      "ages": 2062,
      "రొక": 2063,
      "house": 2064,
      "late": 2065,
      "అదే": 2066,
      "less": 2067,
      "తులు": 2068,
      "ఒకటి": 2069,
      "దాన్ని": 2070,
      "short": 2071,
      "పరిమా": 2072,
      "పొందడానికి": 2073,
      "current": 2074,
      "TR": 2075,
      "డొ": 2076,
      "ళీ": 2077,
      "error": 2078,
      "ager": 2079,
      "ఉండవచ్చు": 2080,
      "తొలగ": 2081,
      "row": 2082,
      "డై": 2083,
      "పడ్డా": 2084,
      "three": 2085,
      "meet": 2086,
      "కుమా": 2087,
      "సియా": 2088,
      "చెప్పే": 2089,
      "wrong": 2090,
      "జరిగింది": 2091,
      "GRUNTS": 2092,
      "Res": 2093,
      "ied": 2094,
      "pt": 2095,
      "ually": 2096,
      "ఎంత": 2097,
      "నెట్": 2098,
      "those": 2099,
      "med": 2100,
      "దులు": 2101,
      "మాం": 2102,
      "నిజమైన": 2103,
      "ఫైలు": 2104,
      "Did": 2105,
      "ger": 2106,
      "ra": 2107,
      "side": 2108,
      "ఒక్క": 2109,
      "రగా": 2110,
      "their": 2111,
      "hed": 2112,
      "గిన": 2113,
      "స్థానం": 2114,
      "figure": 2115,
      "ఆకృతీ": 2116,
      "Back": 2117,
      "made": 2118,
      "ధన": 2119,
      "పడ": 2120,
      "స్ప": 2121,
      "న్నాడు": 2122,
      "ific": 2123,
      "disc": 2124,
      "File": 2125,
      "IM": 2126,
      "Jim": 2127,
      "Use": 2128,
      "bed": 2129,
      "ప్రమా": 2130,
      "tings": 2131,
      "selected": 2132,
      "వినండి": 2133,
      "19": 2134,
      "Have": 2135,
      "pain": 2136,
      "pers": 2137,
      "turn": 2138,
      "war": 2139,
      "టై": 2140,
      "నడు": 2141,
      "లలో": 2142,
      "ళా": 2143,
      "నియం": 2144,
      "org": 2145,
      "tow": 2146,
      "సిద్ధ": 2147,
      "lost": 2148,
      "పెట్టు": 2149,
      "num": 2150,
      "జరుగు": 2151,
      "rect": 2152,
      "ట్స్": 2153,
      "enough": 2154,
      "ste": 2155,
      "విలు": 2156,
      "బ్రా": 2157,
      "వ్రా": 2158,
      "వలె": 2159,
      "పరిక": 2160,
      "GRUNTING": 2161,
      "రక్షి": 2162,
      "ఖాళీ": 2163,
      "FUCKING": 2164,
      "Che": 2165,
      "అడుగు": 2166,
      "కన్": 2167,
      "గర్": 2168,
      "atus": 2169,
      "mess": 2170,
      "second": 2171,
      "మాన్": 2172,
      "బ్లాక్": 2173,
      "వచ్చి": 2174,
      "ఇవ్వాలని": 2175,
      "తప్ప": 2176,
      "యర్": 2177,
      "already": 2178,
      "సురక్షి": 2179,
      "వెర్": 2180,
      "saw": 2181,
      "సోద": 2182,
      "అమ్మాయి": 2183,
      "//": 2184,
      "LY": 2185,
      "fine": 2186,
      "sl": 2187,
      "ఇప్పటి": 2188,
      "జత": 2189,
      "తయారు": 2190,
      "‍క్": 2191,
      "నిక": 2192,
      "లుడు": 2193,
      "nothing": 2194,
      "చేస్తున్న": 2195,
      "స్టీ": 2196,
      "బ్బంది": 2197,
      "30": 2198,
      "ED": 2199,
      "YING": 2200,
      "fam": 2201,
      "ందా": 2202,
      "ఉద్య": 2203,
      "ఎక్స్": 2204,
      "తమైన": 2205,
      "రగ": 2206,
      "anc": 2207,
      "ren": 2208,
      "reen": 2209,
      "Hell": 2210,
      "మొదలు": 2211,
      "WHAT": 2212,
      "break": 2213,
      "PLA": 2214,
      "air": 2215,
      "లిం": 2216,
      "స్సు": 2217,
      "చాలు": 2218,
      "దేశం": 2219,
      "comp": 2220,
      "GROANS": 2221,
      "600": 2222,
      "Sim": 2223,
      "mor": 2224,
      "అడ": 2225,
      "మలు": 2226,
      "మరొక": 2227,
      "మాన": 2228,
      "pect": 2229,
      "GHING": 2230,
      "Pres": 2231,
      "cu": 2232,
      "knew": 2233,
      "su": 2234,
      "అప్ర": 2235,
      "అరుపు": 2236,
      "టన్": 2237,
      "తక్కువ": 2238,
      "oup": 2239,
      "aug": 2240,
      "bra": 2241,
      "క్రమ": 2242,
      "కోరుకుంటు": 2243,
      "AL": 2244,
      "JO": 2245,
      "face": 2246,
      "gl": 2247,
      "pay": 2248,
      "గింపు": 2249,
      "యమైన": 2250,
      "నిట్ట": 2251,
      "నింగ్": 2252,
      "సంగీ": 2253,
      "చెడు": 2254,
      "రించు": 2255,
      "plan": 2256,
      "click": 2257,
      "తలుపు": 2258,
      "అందమైన": 2259,
      "విధంగా": 2260,
      "నిట్టూర్పు": 2261,
      "Ser": 2262,
      "అధి": 2263,
      "ఎంచు": 2264,
      "చీ": 2265,
      "హత్య": 2266,
      "lear": 2267,
      "live": 2268,
      "అనువర్": 2269,
      "హార్": 2270,
      "ధానం": 2271,
      "స్నేహితుడు": 2272,
      "దూరంగా": 2273,
      "Shortcut": 2274,
      "కుమారుడు": 2275,
      "Bal": 2276,
      "Sir": 2277,
      "gi": 2278,
      "hard": 2279,
      "ఒంటి": 2280,
      "మన": 2281,
      "లభ": 2282,
      "డిత్": 2283,
      "తుపా": 2284,
      "లియన్": 2285,
      "వివ": 2286,
      "సుకు": 2287,
      "tain": 2288,
      "app": 2289,
      "షిట్": 2290,
      "dith": 2291,
      "talking": 2292,
      "విచార": 2293,
      "పిల్లలు": 2294,
      "Judith": 2295,
      "ఉద్యో": 2296,
      "నిట్టూర్పుని": 2297,
      "Burt": 2298,
      "Cl": 2299,
      "May": 2300,
      "UP": 2301,
      "gle": 2302,
      "ye": 2303,
      "అర్": 2304,
      "సృ": 2305,
      "నుక": 2306,
      "ప్ల": 2307,
      "ప్రి": 2308,
      "నేందుకు": 2309,
      "వాట్": 2310,
      "chang": 2311,
      "while": 2312,
      "without": 2313,
      "Long": 2314,
      "ఫై": 2315,
      "another": 2316,
      "orm": 2317,
      "సంతో": 2318,
      "change": 2319,
      "next": 2320,
      "జుడిత్": 2321,
      "చర్య": 2322,
      "ఇంకా": 2323,
      "happened": 2324,
      "కోవాలి": 2325,
      "వ్యాపా": 2326,
      "తనం": 2327,
      "పాఠ": 2328,
      "nter": 2329,
      "ared": 2330,
      "విషయాలు": 2331,
      "స్తున్నాము": 2332,
      "Copy": 2333,
      "నియంత్": 2334,
      "Wait": 2335,
      "full": 2336,
      "swe": 2337,
      "ings": 2338,
      "వేశ": 2339,
      "OUT": 2340,
      "రైట్": 2341,
      "RIGHT": 2342,
      "IR": 2343,
      "Mom": 2344,
      "hon": 2345,
      "iv": 2346,
      "mark": 2347,
      "కూర్": 2348,
      "గండి": 2349,
      "వచ": 2350,
      "‍స్": 2351,
      "inter": 2352,
      "status": 2353,
      "గుం": 2354,
      "బుల్": 2355,
      "కార్డు": 2356,
      "క్షమించండి": 2357,
      "Baloo": 2358,
      "Fl": 2359,
      "MB": 2360,
      "Take": 2361,
      "గె": 2362,
      "చని": 2363,
      "జో": 2364,
      "థీ": 2365,
      "ense": 2366,
      "చ్ఛ": 2367,
      "వెళ": 2368,
      "uration": 2369,
      "పోలీ": 2370,
      "which": 2371,
      "ఫ్రాం": 2372,
      "వ్యవ": 2373,
      "తనము": 2374,
      "గుర్త": 2375,
      "మాట్లాడటానికి": 2376,
      "భావిస్తున్నాను": 2377,
      "GROANING": 2378,
      "సంవత్సరాల": 2379,
      "cop": 2380,
      "ime": 2381,
      "ling": 2382,
      "అదృ": 2383,
      "ఇన్": 2384,
      "మరణ": 2385,
      "ౌండ్": 2386,
      "led": 2387,
      "కాలం": 2388,
      "asy": 2389,
      "ద్దా": 2390,
      "ఉండండి": 2391,
      "పట్టీ": 2392,
      "everything": 2393,
      "great": 2394,
      "నాలుగు": 2395,
      "PLAYING": 2396,
      "Text": 2397,
      "sle": 2398,
      "లింగ్": 2399,
      "ర్చు": 2400,
      "ట్రి": 2401,
      "heart": 2402,
      "INE": 2403,
      "vers": 2404,
      "భావిం": 2405,
      "wanted": 2406,
      "gram": 2407,
      "ground": 2408,
      "MEN": 2409,
      "Search": 2410,
      "town": 2411,
      "ud": 2412,
      "వంత": 2413,
      "శో": 2414,
      "iness": 2415,
      "ative": 2416,
      "ముఖ": 2417,
      "కాలు": 2418,
      "వున్న": 2419,
      "room": 2420,
      "ama": 2421,
      "ల్లీ": 2422,
      "శాల": 2423,
      "listen": 2424,
      "Ac": 2425,
      "CAR": 2426,
      "GAS": 2427,
      "ILL": 2428,
      "List": 2429,
      "Like": 2430,
      "Mm": 2431,
      "cor": 2432,
      "hour": 2433,
      "అద్": 2434,
      "అందు": 2435,
      "దని": 2436,
      "ones": 2437,
      "ates": 2438,
      "ప్పి": 2439,
      "వెనుక": 2440,
      "ందం": 2441,
      "brother": 2442,
      "magic": 2443,
      "వరుస": 2444,
      "Co": 2445,
      "One": 2446,
      "gen": 2447,
      "hold": 2448,
      "ఇలా": 2449,
      "లేకుండా": 2450,
      "న్నారో": 2451,
      "Then": 2452,
      "అవుట్": 2453,
      "రెండవ": 2454,
      "ఆలోచి": 2455,
      "బంధ": 2456,
      "morning": 2457,
      "80": 2458,
      "Act": 2459,
      "Hi": 2460,
      "Ro": 2461,
      "అన్నారు": 2462,
      "ణి": 2463,
      "ణు": 2464,
      "వేయ": 2465,
      "someone": 2466,
      "తరల": 2467,
      "ప్రస్తుతం": 2468,
      "చెప్పేవాడు": 2469,
      "థీమ్": 2470,
      "వెళు": 2471,
      "BA": 2472,
      "SP": 2473,
      "Up": 2474,
      "బూ": 2475,
      "బాలుడు": 2476,
      "తీవ్": 2477,
      "స్టే": 2478,
      "Any": 2479,
      "support": 2480,
      "family": 2481,
      "MY": 2482,
      "Net": 2483,
      "TI": 2484,
      "bur": 2485,
      "close": 2486,
      "huh": 2487,
      "oc": 2488,
      "par": 2489,
      "ఐదు": 2490,
      "కరమైన": 2491,
      "జరగ": 2492,
      "హక్కు": 2493,
      "మానా": 2494,
      "త్రాలు": 2495,
      "సిస్ట": 2496,
      "యాను": 2497,
      "చెత్త": 2498,
      "బార్": 2499,
      "usic": 2500,
      "జాగ్ర": 2501,
      "ఎవరూ": 2502,
      "ult": 2503,
      "టెక్": 2504,
      "హుహ్": 2505,
      "wonder": 2506,
      "clear": 2507,
      "www": 2508,
      "Sorbon": 2509,
      "President": 2510,
      "సృష్ట": 2511,
      "నియంత్రణ": 2512,
      "ఫ్రాంక్": 2513,
      "జాగ్రత్త": 2514,
      "Sorbonne": 2515,
      "11": 2516,
      "Ste": 2517,
      "gun": 2518,
      "watch": 2519,
      "ఉద్ద": 2520,
      "స్తూ": 2521,
      "arm": 2522,
      "సార్లు": 2523,
      "పిస్తుంది": 2524,
      "ump": 2525,
      "bring": 2526,
      "friends": 2527,
      "బ్యాక్": 2528,
      "active": 2529,
      "COU": 2530,
      "MON": 2531,
      "VIC": 2532,
      "bir": 2533,
      "cour": 2534,
      "ఇచ్": 2535,
      "inmenu": 2536,
      "రిగా": 2537,
      "కున్న": 2538,
      "త్వ": 2539,
      "చిత్ర": 2540,
      "iction": 2541,
      "being": 2542,
      "చూసిన": 2543,
      "ational": 2544,
      "deal": 2545,
      "ఉన్నారు": 2546,
      "దేశ": 2547,
      "టుం": 2548,
      "మూసివే": 2549,
      "నిర్వా": 2550,
      "డెస్": 2551,
      "killed": 2552,
      "దోష": 2553,
      "ప్రస్తుత": 2554,
      "వార్తలు": 2555,
      "సోదరుడు": 2556,
      "ఇప్పటికే": 2557,
      "అద్భు": 2558,
      "MO": 2559,
      "pass": 2560,
      "ఎడ": 2561,
      "ర్య": 2562,
      "rest": 2563,
      "itch": 2564,
      "ప్రశ్": 2565,
      "చూపుము": 2566,
      "gets": 2567,
      "iled": 2568,
      "board": 2569,
      "Desktop": 2570,
      "సమాచారం": 2571,
      "ఉత్తమ": 2572,
      "Har": 2573,
      "case": 2574,
      "die": 2575,
      "might": 2576,
      "న్యా": 2577,
      "రియా": 2578,
      "కుటుం": 2579,
      "్యు": 2580,
      "గినంత": 2581,
      "posit": 2582,
      "వైపు": 2583,
      "పార్టీ": 2584,
      "Ap": 2585,
      "Gree": 2586,
      "LD": 2587,
      "View": 2588,
      "Won": 2589,
      "aut": 2590,
      "ఆన": 2591,
      "నని": 2592,
      "లొ": 2593,
      "స్తే": 2594,
      "ition": 2595,
      "పాడ": 2596,
      "తాయి": 2597,
      "yourself": 2598,
      "తీయ": 2599,
      "స్థాయి": 2600,
      "ంచనా": 2601,
      "whole": 2602,
      "స్థాప": 2603,
      "నమ్మకం": 2604,
      "GET": 2605,
      "Control": 2606,
      "స్పష్ట": 2607,
      "Could": 2608,
      "Down": 2609,
      "lic": 2610,
      "mill": 2611,
      "అంచనా": 2612,
      "ఉన్నాను": 2613,
      "ఎక్క": 2614,
      "తగినంత": 2615,
      "స్క్రి": 2616,
      "నేడు": 2617,
      "తున్నాను": 2618,
      "లిన": 2619,
      "best": 2620,
      "wife": 2621,
      "బ్రే": 2622,
      "Help": 2623,
      "రెడీ": 2624,
      "plug": 2625,
      "gether": 2626,
      "సెల్": 2627,
      "pret": 2628,
      "point": 2629,
      "నిర్వహ": 2630,
      "ఇవ్వండి": 2631,
      "ప్యాకే": 2632,
      "వెర్రి": 2633,
      "అప్రమే": 2634,
      "BO": 2635,
      "TOR": 2636,
      "ore": 2637,
      "vent": 2638,
      "కెట్": 2639,
      "జూ": 2640,
      "దం": 2641,
      "మర": 2642,
      "మై": 2643,
      "య్యా": 2644,
      "thi": 2645,
      "మాని": 2646,
      "గుతుంది": 2647,
      "many": 2648,
      "SIGHS": 2649,
      "NOW": 2650,
      "శుభ్": 2651,
      "cument": 2652,
      "100": 2653,
      "Give": 2654,
      "Vik": 2655,
      "clo": 2656,
      "sha": 2657,
      "ఆసియా": 2658,
      "కంగా": 2659,
      "కళా": 2660,
      "నూ": 2661,
      "నరకం": 2662,
      "హీ": 2663,
      "ince": 2664,
      "నిజా": 2665,
      "నిద్ర": 2666,
      "నాతో": 2667,
      "idd": 2668,
      "dead": 2669,
      "అనుభూ": 2670,
      "ప్రతిదీ": 2671,
      "else": 2672,
      "poss": 2673,
      "ించాలి": 2674,
      "ఇంటికి": 2675,
      "business": 2676,
      "ప్రదర్శన": 2677,
      "విలువ": 2678,
      "Check": 2679,
      "ఉద్యోగం": 2680,
      "సిస్టమ్": 2681,
      "Vika": 2682,
      "అనుభూతి": 2683,
      "Font": 2684,
      "Game": 2685,
      "Im": 2686,
      "mis": 2687,
      "went": 2688,
      "yle": 2689,
      "దయం": 2690,
      "లర్": 2691,
      "దిం": 2692,
      "విభ": 2693,
      "గ్రే": 2694,
      "అతన్ని": 2695,
      "బాటు": 2696,
      "ళ్లు": 2697,
      "మార్చ": 2698,
      "రూప": 2699,
      "party": 2700,
      "differ": 2701,
      "Query": 2702,
      "చేస్తాము": 2703,
      "సొంత": 2704,
      "ఎడమ": 2705,
      "స్క్రిప్": 2706,
      "Ab": 2707,
      "Mar": 2708,
      "Med": 2709,
      "ces": 2710,
      "dro": 2711,
      "hot": 2712,
      "ken": 2713,
      "ob": 2714,
      "vide": 2715,
      "ఇష్ట": 2716,
      "ఉదయం": 2717,
      "నువ్వు": 2718,
      "స్టి": 2719,
      "stone": 2720,
      "ంటర్": 2721,
      "ote": 2722,
      "స్తున్నారా": 2723,
      "మూల": 2724,
      "శ్వాస": 2725,
      "Indian": 2726,
      "ఉద్దే": 2727,
      "డెస్‍క్": 2728,
      "దోషము": 2729,
      "LAT": 2730,
      "sur": 2731,
      "wer": 2732,
      "టింగ్": 2733,
      "వస": 2734,
      "వై": 2735,
      "ముగింపు": 2736,
      "రంగ": 2737,
      "మైక్": 2738,
      "guess": 2739,
      "జ్ఞ": 2740,
      "స్థితి": 2741,
      "DPI": 2742,
      "Hold": 2743,
      "PING": 2744,
      "free": 2745,
      "ffect": 2746,
      "gine": 2747,
      "hit": 2748,
      "pol": 2749,
      "జన": 2750,
      "together": 2751,
      "ముఖ్య": 2752,
      "వాస్త": 2753,
      "వులు": 2754,
      "cket": 2755,
      "enter": 2756,
      "భార్య": 2757,
      "మార్పు": 2758,
      "SIMON": 2759,
      "saying": 2760,
      "dream": 2761,
      "SCREAM": 2762,
      "సిద్ధంగా": 2763,
      "పోలీసు": 2764,
      "VICTOR": 2765,
      "Greely": 2766,
      "Wonder": 2767,
      "PE": 2768,
      "ball": 2769,
      "ru": 2770,
      "నగ": 2771,
      "పండి": 2772,
      "బై": 2773,
      "మనం": 2774,
      "క్యూ": 2775,
      "క్టర్": 2776,
      "ల్డ్": 2777,
      "ved": 2778,
      "యిస్": 2779,
      "child": 2780,
      "ించవచ్చు": 2781,
      "track": 2782,
      "కలిసి": 2783,
      "times": 2784,
      "suppo": 2785,
      "different": 2786,
      "15": 2787,
      "49": 2788,
      "Ant": 2789,
      "CON": 2790,
      "Po": 2791,
      "Stop": 2792,
      "cer": 2793,
      "fire": 2794,
      "mar": 2795,
      "sch": 2796,
      "sign": 2797,
      "కల్": 2798,
      "లక్ష": 2799,
      "న్Name": 2800,
      "కాం": 2801,
      "ves": 2802,
      "ప్రవేశ": 2803,
      "oman": 2804,
      "సులభ": 2805,
      "image": 2806,
      "trust": 2807,
      "taking": 2808,
      "బిట్": 2809,
      "పరిష్": 2810,
      "పైగా": 2811,
      "law": 2812,
      "జరిమానా": 2813,
      "inside": 2814,
      "trying": 2815,
      "azy": 2816,
      "JOE": 2817,
      "తుపాకీ": 2818,
      "ictionary": 2819,
      "gent": 2820,
      "అమరి": 2821,
      "ouble": 2822,
      "పురు": 2823,
      "ica": 2824,
      "trans": 2825,
      "సెర్": 2826,
      "కోవాలని": 2827,
      "dule": 2828,
      "Simon": 2829,
      "sleep": 2830,
      "ప్యాకేజీ": 2831,
      "12": 2832,
      "BLO": 2833,
      "Er": 2834,
      "MM": 2835,
      "Me": 2836,
      "Pos": 2837,
      "sw": 2838,
      "ten": 2839,
      "vis": 2840,
      "ఇబ్బంది": 2841,
      "కళ్ళు": 2842,
      "దగ్గ": 2843,
      "వడం": 2844,
      "శ్యం": 2845,
      "హలో": 2846,
      "install": 2847,
      "isn": 2848,
      "stuff": 2849,
      "ses": 2850,
      "forget": 2851,
      "char": 2852,
      "aper": 2853,
      "THAT": 2854,
      "టువంటి": 2855,
      "days": 2856,
      "pring": 2857,
      "సైమన్": 2858,
      "Unable": 2859,
      "తీసుకుని": 2860,
      "కనుగొనేందుకు": 2861,
      "Asia": 2862,
      "మర్చిపో": 2863,
      "PHONE": 2864,
      "16": 2865,
      "cy": 2866,
      "ker": 2867,
      "వృ": 2868,
      "outh": 2869,
      "rel": 2870,
      "త్యం": 2871,
      "డ్రా": 2872,
      "safe": 2873,
      "ప్రయత్నించండి": 2874,
      "గలరు": 2875,
      "valid": 2876,
      "దొరక": 2877,
      "పునః": 2878,
      "Hello": 2879,
      "వ్యాపార": 2880,
      "పురుష": 2881,
      "Ah": 2882,
      "Edit": 2883,
      "aid": 2884,
      "main": 2885,
      "గెట్": 2886,
      "జం": 2887,
      "పర": 2888,
      "పడు": 2889,
      "భవ": 2890,
      "వొ": 2891,
      "ెన్": 2892,
      "ars": 2893,
      "వారం": 2894,
      "డ్రై": 2895,
      "మిలియన్": 2896,
      "తెరువు": 2897,
      "రించ": 2898,
      "చూడటానికి": 2899,
      "సరేనా": 2900,
      "రైస్": 2901,
      "dio": 2902,
      "సహాయ": 2903,
      "మాట్లాడటం": 2904,
      "క్రమం": 2905,
      "Joes": 2906,
      "40": 2907,
      "OK": 2908,
      "date": 2909,
      "eyes": 2910,
      "అన్": 2911,
      "తని": 2912,
      "రై": 2913,
      "శబ్": 2914,
      "హౌస్": 2915,
      "దురు": 2916,
      "ట్ర": 2917,
      "తున్నా": 2918,
      "hether": 2919,
      "వాల్": 2920,
      "ఉంటా": 2921,
      "నీలం": 2922,
      "user": 2923,
      "ఉంచండి": 2924,
      "ters": 2925,
      "లనుకుంటు": 2926,
      "చేయడానికి": 2927,
      "చేయబడింది": 2928,
      "Command": 2929,
      "ures": 2930,
      "group": 2931,
      "Remove": 2932,
      "నిర్ధా": 2933,
      "space": 2934,
      "firm": 2935,
      "running": 2936,
      "నవ్వుతూ": 2937,
      "pretty": 2938,
      "CT": 2939,
      "abe": 2940,
      "data": 2941,
      "lad": 2942,
      "pull": 2943,
      "ype": 2944,
      "ండ": 2945,
      "ఖీ": 2946,
      "సర": 2947,
      "reas": 2948,
      "order": 2949,
      "వేది": 2950,
      "few": 2951,
      "took": 2952,
      "DOOR": 2953,
      "father": 2954,
      "number": 2955,
      "Wonderstone": 2956,
      "school": 2957,
      "Kon": 2958,
      "QShortcut": 2959,
      "RA": 2960,
      "With": 2961,
      "det": 2962,
      "ier": 2963,
      "yn": 2964,
      "ఉప": 2965,
      "పైన": 2966,
      "రస్": 2967,
      "though": 2968,
      "era": 2969,
      "ane": 2970,
      "vest": 2971,
      "మిషన్": 2972,
      "shot": 2973,
      "టాబ్": 2974,
      "భాష": 2975,
      "ource": 2976,
      "దేశా": 2977,
      "gest": 2978,
      "direct": 2979,
      "press": 2980,
      "called": 2981,
      "walk": 2982,
      "వచనము": 2983,
      "తనిఖీ": 2984,
      "ELL": 2985,
      "System": 2986,
      "US": 2987,
      "UST": 2988,
      "UES": 2989,
      "ds": 2990,
      "damn": 2991,
      "wo": 2992,
      "అంది": 2993,
      "ఆన్": 2994,
      "ఒంట": 2995,
      "కండి": 2996,
      "ణము": 2997,
      "థింగ్": 2998,
      "సన్": 2999,
      "ర్స్": 3000,
      "ator": 3001,
      "ited": 3002,
      "ముందుకు": 3003,
      "డియా": 3004,
      "కాశం": 3005,
      "యుము": 3006,
      "మిగి": 3007,
      "తెర": 3008,
      "చూప": 3009,
      "ations": 3010,
      "iff": 3011,
      "ఫ్రెం": 3012,
      "హార్డ్": 3013,
      "YOUR": 3014,
      "display": 3015,
      "kids": 3016,
      "వుపయోగించుము": 3017,
      "phone": 3018,
      "కోవడానికి": 3019,
      "URL": 3020,
      "క్రియాశీల": 3021,
      "ధ్వ": 3022,
      "పడ్డారు": 3023,
      "సంతోష": 3024,
      "జాగ్రత్తగా": 3025,
      "At": 3026,
      "Cre": 3027,
      "Cur": 3028,
      "IO": 3029,
      "Mike": 3030,
      "Save": 3031,
      "eg": 3032,
      "four": 3033,
      "nu": 3034,
      "net": 3035,
      "pi": 3036,
      "sto": 3037,
      "uro": 3038,
      "అస": 3039,
      "అచే": 3040,
      "theme": 3041,
      "మారి": 3042,
      "త్వం": 3043,
      "లోపల": 3044,
      "ప్రణా": 3045,
      "ించుటకు": 3046,
      "హిట్": 3047,
      "aster": 3048,
      "doesn": 3049,
      "వినడానికి": 3050,
      "figuration": 3051,
      "Color": 3052,
      "క్లిక్": 3053,
      "Tell": 3054,
      "డ్యూల్": 3055,
      "ప్రణాళ": 3056,
      "HA": 3057,
      "HO": 3058,
      "Sc": 3059,
      "ele": 3060,
      "size": 3061,
      "అనే": 3062,
      "కాపీ": 3063,
      "కారణం": 3064,
      "seen": 3065,
      "చిరు": 3066,
      "గ్గు": 3067,
      "వచ్చిన": 3068,
      "ago": 3069,
      "అనుమతి": 3070,
      "ified": 3071,
      "వెళ్ళడానికి": 3072,
      "program": 3073,
      "చెప్పటానికి": 3074,
      "సమయంలో": 3075,
      "స్నేహితులు": 3076,
      "కొనుగో": 3077,
      "ముఖం": 3078,
      "AU": 3079,
      "Bag": 3080,
      "VER": 3081,
      "five": 3082,
      "mer": 3083,
      "pri": 3084,
      "ంచి": 3085,
      "ఆధా": 3086,
      "మద్ద": 3087,
      "షే": 3088,
      "డిఈ": 3089,
      "చేసే": 3090,
      "కొంత": 3091,
      "olut": 3092,
      "తీసివే": 3093,
      "స్థల": 3094,
      "emp": 3095,
      "వీడియో": 3096,
      "టెర్": 3097,
      "పట్టణం": 3098,
      "cial": 3099,
      "Blue": 3100,
      "Keep": 3101,
      "మర్చిపోతే": 3102,
      "minutes": 3103,
      "Niles": 3104,
      "OP": 3105,
      "Ros": 3106,
      "fre": 3107,
      "ped": 3108,
      "గది": 3109,
      "నకు": 3110,
      "పూ": 3111,
      "ఫింగ్": 3112,
      "బిం": 3113,
      "ino": 3114,
      "invest": 3115,
      "ర్ట్": 3116,
      "లేడీ": 3117,
      "వివా": 3118,
      "alone": 3119,
      "న్నీ": 3120,
      "పాయిం": 3121,
      "చూసింది": 3122,
      "సారా": 3123,
      "irt": 3124,
      "manager": 3125,
      "follow": 3126,
      "RES": 3127,
      "ంచుము": 3128,
      "తెలియని": 3129,
      "tonight": 3130,
      "లేకపోతే": 3131,
      "spec": 3132,
      "లైన్": 3133,
      "president": 3134,
      "Maybe": 3135,
      "SPEA": 3136,
      "Error": 3137,
      "\".": 3138,
      "1color": 3139,
      "MA": 3140,
      "Of": 3141,
      "font": 3142,
      "mb": 3143,
      "sound": 3144,
      "ues": 3145,
      "కౌ": 3146,
      "దన": 3147,
      "షె": 3148,
      "రులు": 3149,
      "orrow": 3150,
      "కాలి": 3151,
      "యిల్": 3152,
      "బాయ్": 3153,
      "మార్చు": 3154,
      "చేస్తున్నారు": 3155,
      "Information": 3156,
      "clean": 3157,
      "కుటుంబం": 3158,
      "possible": 3159,
      "కొనుగోలు": 3160,
      "La": 3161,
      "Type": 3162,
      "pick": 3163,
      "woman": 3164,
      "ఆహ్": 3165,
      "ఆపడానికి": 3166,
      "గతం": 3167,
      "జన్": 3168,
      "నకలు": 3169,
      "బడుతుంది": 3170,
      "మను": 3171,
      "reat": 3172,
      "విని": 3173,
      "beaut": 3174,
      "లాస్": 3175,
      "లాఫింగ్": 3176,
      "డ్డ": 3177,
      "టిన్": 3178,
      "hair": 3179,
      "door": 3180,
      "వెంట": 3181,
      "క్షి": 3182,
      "ించబడింది": 3183,
      "tem": 3184,
      "grow": 3185,
      "abled": 3186,
      "Start": 3187,
      "crazy": 3188,
      "=\\\\\\\\{@}": 3189,
      "sessive": 3190,
      "ఒక్కరూ": 3191,
      "Listen": 3192,
      "million": 3193,
      "2color": 3194,
      "3color": 3195,
      "Very": 3196,
      "burn": 3197,
      "dad": 3198,
      "music": 3199,
      "ఆశ్": 3200,
      "కదు": 3201,
      "చట్ట": 3202,
      "పచ్చ": 3203,
      "హ్యా": 3204,
      "eral": 3205,
      "నిల": 3206,
      "ley": 3207,
      "డిచి": 3208,
      "ల్లు": 3209,
      "heard": 3210,
      "గ్లీ": 3211,
      "మెన్": 3212,
      "wasn": 3213,
      "worry": 3214,
      "ప్రతిబిం": 3215,
      "screen": 3216,
      "క్రింది": 3217,
      "started": 3218,
      "నిమిషా": 3219,
      "dress": 3220,
      "అరుపులతో": 3221,
      "అప్రమేయ": 3222,
      "Dad": 3223,
      "EX": 3224,
      "FF": 3225,
      "HERE": 3226,
      "Light": 3227,
      "Run": 3228,
      "Two": 3229,
      "UT": 3230,
      "cou": 3231,
      "mit": 3232,
      "mom": 3233,
      "రని": 3234,
      "వో": 3235,
      "ero": 3236,
      "నామా": 3237,
      "ట్ల": 3238,
      "ens": 3239,
      "చేందుకు": 3240,
      "ices": 3241,
      "డాటా": 3242,
      "డ్రో": 3243,
      "having": 3244,
      "బ్రి": 3245,
      "వేగ": 3246,
      "using": 3247,
      "పిన": 3248,
      "జాయే": 3249,
      "que": 3250,
      "build": 3251,
      "వెళ్ళిపో": 3252,
      "కూల": 3253,
      "Configure": 3254,
      "శీర్": 3255,
      "నెల": 3256,
      "Because": 3257,
      "keys": 3258,
      "జెక్": 3259,
      "నైల్స్": 3260,
      "NAME": 3261,
      "message": 3262,
      "అందుబాటు": 3263,
      "అద్భుతమైన": 3264,
      "దొరకలేదు": 3265,
      "14": 3266,
      "?\"": 3267,
      "Ge": 3268,
      "GUN": 3269,
      "cook": 3270,
      "land": 3271,
      "later": 3272,
      "ys": 3273,
      "అర": 3274,
      "అల్": 3275,
      "కథ": 3276,
      "గమని": 3277,
      "నొక్క": 3278,
      "రహ": 3279,
      "స్ప్": 3280,
      "చేతి": 3281,
      "గాలి": 3282,
      "లోడ్": 3283,
      "తెరు": 3284,
      "NamePos": 3285,
      "సాధ్య": 3286,
      "plain": 3287,
      "cept": 3288,
      "team": 3289,
      "అవుతుంది": 3290,
      "పెన్": 3291,
      "White": 3292,
      "fold": 3293,
      "comple": 3294,
      "Change": 3295,
      "ches": 3296,
      "ప్రయత్నిం": 3297,
      "ప్రోగ్రా": 3298,
      "ailable": 3299,
      "NamePossessive": 3300,
      "17": 3301,
      "4color": 3302,
      "Euro": 3303,
      "Gu": 3304,
      "JUST": 3305,
      "cus": 3306,
      "cub": 3307,
      "ib": 3308,
      "since": 3309,
      "wide": 3310,
      "xy": 3311,
      "ఆందో": 3312,
      "ఎప్పటికీ": 3313,
      "జట్టు": 3314,
      "ళన": 3315,
      "స్కీ": 3316,
      "angu": 3317,
      "క్రా": 3318,
      "atic": 3319,
      "రియ": 3320,
      "lemen": 3321,
      "ene": 3322,
      "లేము": 3323,
      "సంకే": 3324,
      "వేర్": 3325,
      "ందని": 3326,
      "wants": 3327,
      "exist": 3328,
      "క్రితం": 3329,
      "కూడ": 3330,
      "చేయుటకు": 3331,
      "actor": 3332,
      "కనుక": 3333,
      "wouldn": 3334,
      "ఆటగా": 3335,
      "drink": 3336,
      "భావిస్తున్నారా": 3337,
      "దస్త్ర": 3338,
      "LAUGHING": 3339,
      "package": 3340,
      "భాగస్వా": 3341,
      "person": 3342,
      "పాఠశాల": 3343,
      "వ్యవస్థ": 3344,
      "Rosie": 3345,
      "వెంటనే": 3346,
      "ప్రతిబింబ": 3347,
      "శీర్షి": 3348,
      "ఆందోళన": 3349,
      "National": 3350,
      "Wor": 3351,
      "band": 3352,
      "cli": 3353,
      "fix": 3354,
      "hurt": 3355,
      "tic": 3356,
      "అమలు": 3357,
      "ఆపు": 3358,
      "భద్ర": 3359,
      "షూ": 3360,
      "thank": 3361,
      "onto": 3362,
      "క్ల": 3363,
      "ats": 3364,
      "లువు": 3365,
      "కాన్": 3366,
      "ఒకసారి": 3367,
      "యిన్": 3368,
      "యానికి": 3369,
      "తెల": 3370,
      "roans": 3371,
      "పొయాను": 3372,
      "అనుకొను": 3373,
      "ift": 3374,
      "iful": 3375,
      "అవకాశం": 3376,
      "జిన్": 3377,
      "బెల్": 3378,
      "కెడిఈ": 3379,
      "కర్త": 3380,
      "పదము": 3381,
      "learn": 3382,
      "iddle": 3383,
      "Media": 3384,
      "ప్రణాళిక": 3385,
      "BB": 3386,
      "Fa": 3387,
      "GI": 3388,
      "GL": 3389,
      "Hen": 3390,
      "LIN": 3391,
      "Max": 3392,
      "TIN": 3393,
      "dpi": 3394,
      "ml": 3395,
      "ఆహా": 3396,
      "ఒప్ప": 3397,
      "కన": 3398,
      "చల్ల": 3399,
      "బడు": 3400,
      "న్రీ": 3401,
      "క్యా": 3402,
      "ital": 3403,
      "యుద్ధ": 3404,
      "iger": 3405,
      "గ్ని": 3406,
      "వెల్": 3407,
      "ఫ్ట్": 3408,
      "వలసి": 3409,
      "illy": 3410,
      "కలిసే": 3411,
      "బిల్లీ": 3412,
      "ించాడు": 3413,
      "BEE": 3414,
      "హెన్రీ": 3415,
      "గేమ్": 3416,
      "రక్షణ": 3417,
      "host": 3418,
      "చేయాలని": 3419,
      "కనిపిస్తుంది": 3420,
      "స్వయం": 3421,
      "GASPS": 3422,
      "hours": 3423,
      "నిజానికి": 3424,
      "ఉద్దేశ్యం": 3425,
      "Europe": 3426,
      "300": 3427,
      "360": 3428,
      "AP": 3429,
      "Close": 3430,
      "Mac": 3431,
      "Rem": 3432,
      "dictionary": 3433,
      "lcome": 3434,
      "ward": 3435,
      "అతి": 3436,
      "అహ్": 3437,
      "గన్": 3438,
      "బల": 3439,
      "శై": 3440,
      "style": 3441,
      "sec": 3442,
      "ంటో": 3443,
      "లేఖ": 3444,
      "విన్న": 3445,
      "ప్రొ": 3446,
      "ప్రత్": 3447,
      "ప్రయా": 3448,
      "పాత్ర": 3449,
      "రేపు": 3450,
      "ification": 3451,
      "భాగం": 3452,
      "command": 3453,
      "quer": 3454,
      "దీని": 3455,
      "ఆఫ్రికా": 3456,
      "లెట్స్": 3457,
      "పదం": 3458,
      "కొనసాగుతుంది": 3459,
      "course": 3460,
      "supposed": 3461,
      "AH": 3462,
      "ID": 3463,
      "Rance": 3464,
      "bank": 3465,
      "ding": 3466,
      "each": 3467,
      "easy": 3468,
      "gli": 3469,
      "gone": 3470,
      "wid": 3471,
      "ya": 3472,
      "అవ్": 3473,
      "ఆడియో": 3474,
      "టల్": 3475,
      "టరీ": 3476,
      "పరీ": 3477,
      "వసి": 3478,
      "కున్నాడు": 3479,
      "కావచ్చు": 3480,
      "సందర్": 3481,
      "మిస్": 3482,
      "దానం": 3483,
      "ween": 3484,
      "myself": 3485,
      "పోరా": 3486,
      "ANN": 3487,
      "కీలు": 3488,
      "ility": 3489,
      "సేవ": 3490,
      "prom": 3491,
      "cover": 3492,
      "యెం": 3493,
      "ఫిక్": 3494,
      "బేబీ": 3495,
      "భావించడం": 3496,
      "నెట్వర్": 3497,
      "స్థానంలో": 3498,
      "మనస్సు": 3499,
      "కూర్చు": 3500,
      "చనిపోయిన": 3501,
      "వెళుతున్న": 3502,
      "ఒంటరిగా": 3503,
      "శైలి": 3504,
      "queror": 3505,
      "720": 3506,
      "Afr": 3507,
      "Ctr": 3508,
      "Miss": 3509,
      "Pau": 3510,
      "Sup": 3511,
      "luck": 3512,
      "matter": 3513,
      "oh": 3514,
      "uk": 3515,
      "vid": 3516,
      "reet": 3517,
      "కారణ": 3518,
      "తుందో": 3519,
      "సంస్థ": 3520,
      "చ్చు": 3521,
      "oose": 3522,
      "తాడు": 3523,
      "log": 3524,
      "పొందా": 3525,
      "ష్టి": 3526,
      "trick": 3527,
      "both": 3528,
      "REN": 3529,
      "Chr": 3530,
      "మోగ్లీ": 3531,
      "ఫార్": 3532,
      "బయట": 3533,
      "control": 3534,
      "సంగీతం": 3535,
      "Anton": 3536,
      "తెలపండి": 3537,
      "13": 3538,
      "Mow": 3539,
      "Sp": 3540,
      "Uh": 3541,
      "Will": 3542,
      "far": 3543,
      "pie": 3544,
      "sum": 3545,
      "ఆస": 3546,
      "టై": 3547,
      "వల్": 3548,
      "atab": 3549,
      "step": 3550,
      "ల్యూ": 3551,
      "మాడ్యూల్": 3552,
      "విఫ": 3553,
      "తిన": 3554,
      "తిట్టు": 3555,
      "చాడు": 3556,
      "cho": 3557,
      "వేడి": 3558,
      "ANS": 3559,
      "మార్గ": 3560,
      "soon": 3561,
      "idea": 3562,
      "making": 3563,
      "ava": 3564,
      "స్థానము": 3565,
      "ట్టిన": 3566,
      "తెలియజే": 3567,
      "BELL": 3568,
      "bitch": 3569,
      "రకము": 3570,
      "bably": 3571,
      "కోల్పో": 3572,
      "స్టీవ్": 3573,
      "పాడించి": 3574,
      "CONTIN": 3575,
      "beautiful": 3576,
      "డ్రోన్": 3577,
      "Henry": 3578,
      "యెంపిక": 3579,
      "Ctrl": 3580,
      "Mowgli": 3581,
      "atabase": 3582,
      "Dr": 3583,
      "Ear": 3584,
      "RAN": 3585,
      "Tool": 3586,
      "UH": 3587,
      "book": 3588,
      "nor": 3589,
      "rad": 3590,
      "tab": 3591,
      "అగ్ని": 3592,
      "చొ": 3593,
      "ధృ": 3594,
      "బటన్": 3595,
      "మంది": 3596,
      "రమ": 3597,
      "సహ": 3598,
      "దిగు": 3599,
      "నేనుమీరు": 3600,
      "దుర్": 3601,
      "ities": 3602,
      "కాక": 3603,
      "చేసు": 3604,
      "విడ్": 3605,
      "లాగ్": 3606,
      "మెంట్": 3607,
      "default": 3608,
      "మైంది": 3609,
      "Nothing": 3610,
      "చేయడం": 3611,
      "See": 3612,
      "happy": 3613,
      "అందంగా": 3614,
      "activ": 3615,
      "టేక్": 3616,
      "ట్రాక్": 3617,
      "జరుగుతుందో": 3618,
      "aught": 3619,
      "Network": 3620,
      "చిరునామా": 3621,
      "స్ప్రింగ్": 3622,
      "\"?": 3623,
      "DON": 3624,
      "Dav": 3625,
      "Hmm": 3626,
      "Inter": 3627,
      "Mag": 3628,
      "SS": 3629,
      "Spring": 3630,
      "WO": 3631,
      "hu": 3632,
      "high": 3633,
      "sof": 3634,
      "sim": 3635,
      "wall": 3636,
      "ఎరుపు": 3637,
      "దె": 3638,
      "once": 3639,
      "నిష్": 3640,
      "lly": 3641,
      "leg": 3642,
      "లేరు": 3643,
      "త్రీ": 3644,
      "esus": 3645,
      "ship": 3646,
      "mode": 3647,
      "రోడ్": 3648,
      "cannot": 3649,
      "true": 3650,
      "apt": 3651,
      "స్తాడు": 3652,
      "code": 3653,
      "పట్టించు": 3654,
      "జెంటి": 3655,
      "settings": 3656,
      "రకమైన": 3657,
      "brea": 3658,
      "సంవత్సరం": 3659,
      "Description": 3660,
      "Coptic": 3661,
      "మాట్లాడుతూ": 3662,
      "minute": 3663,
      "birth": 3664,
      "స్పష్టంగా": 3665,
      "Baghe": 3666,
      "Africa": 3667,
      "ఆసక్తి": 3668,
      "Cam": 3669,
      "Ethi": 3670,
      "Got": 3671,
      "Mmm": 3672,
      "NE": 3673,
      "Sha": 3674,
      "Scrip": 3675,
      "ience": 3676,
      "ng": 3677,
      "page": 3678,
      "ride": 3679,
      "ఏడు": 3680,
      "కనీ": 3681,
      "టన": 3682,
      "రద్దు": 3683,
      "్ర": 3684,
      "న్యూ": 3685,
      "క్రీ": 3686,
      "met": 3687,
      "ari": 3688,
      "beh": 3689,
      "erest": 3690,
      "వుంది": 3691,
      "కోడ్": 3692,
      "haven": 3693,
      "పాల్": 3694,
      "మ్ము": 3695,
      "aren": 3696,
      "ased": 3697,
      "available": 3698,
      "coll": 3699,
      "సమాధానం": 3700,
      "ఎల్లెన్": 3701,
      "asked": 3702,
      "tomorrow": 3703,
      "maybe": 3704,
      "girls": 3705,
      "country": 3706,
      "అమర్పు": 3707,
      "Player": 3708,
      "త్రాన్ని": 3709,
      "గుర్తుంచుకోవాలి": 3710,
      "వీక్షణం": 3711,
      "పరికరము": 3712,
      "సురక్షిత": 3713,
      "version": 3714,
      "జెక్టు": 3715,
      "Ethiop": 3716,
      "18": 3717,
      "500": 3718,
      "LT": 3719,
      "Lu": 3720,
      "Last": 3721,
      "Mon": 3722,
      "Men": 3723,
      "Red": 3724,
      "TV": 3725,
      "Tet": 3726,
      "Time": 3727,
      "Win": 3728,
      "Whether": 3729,
      "effect": 3730,
      "fight": 3731,
      "kde": 3732,
      "pant": 3733,
      "sk": 3734,
      "ted": 3735,
      "tried": 3736,
      "vi": 3737,
      "ఆల": 3738,
      "ఆరు": 3739,
      "ఐస్": 3740,
      "ఐరొ": 3741,
      "ఘ్ర": 3742,
      "దల": 3743,
      "భర్": 3744,
      "ouch": 3745,
      "రియన్": 3746,
      "ముగి": 3747,
      "వానికి": 3748,
      "లియా": 3749,
      "రాన్": 3750,
      "otect": 3751,
      "విన్": 3752,
      "igg": 3753,
      "అనుమ": 3754,
      "ఉందా": 3755,
      "ఆమెన్": 3756,
      "appe": 3757,
      "జుట్టు": 3758,
      "scared": 3759,
      "ఉండడానికి": 3760,
      "చేసినప్పుడు": 3761,
      "says": 3762,
      "శీఘ్ర": 3763,
      "ఫైళ్ళ": 3764,
      "ADIO": 3765,
      "ప్రేమి": 3766,
      "windows": 3767,
      "పూర్తిగా": 3768,
      "Lock": 3769,
      "until": 3770,
      "ప్రపంచంలో": 3771,
      "పరిమాణము": 3772,
      "గుండె": 3773,
      "Konqueror": 3774,
      "మద్దతు": 3775,
      "పరీక్ష": 3776,
      "ఐరొపా": 3777,
      "Fe": 3778,
      "Sure": 3779,
      "Wow": 3780,
      "light": 3781,
      "కత్తి": 3782,
      "ౌర": 3783,
      "thor": 3784,
      "నుంచి": 3785,
      "నియా": 3786,
      "నివేది": 3787,
      "ani": 3788,
      "medi": 3789,
      "stro": 3790,
      "కారం": 3791,
      "త్మ": 3792,
      "ైన": 3793,
      "చున్న": 3794,
      "కిల్": 3795,
      "కోర్": 3796,
      "రేడియో": 3797,
      "exact": 3798,
      "Shit": 3799,
      "మూల్": 3800,
      "Install": 3801,
      "answer": 3802,
      "పయోగి": 3803,
      "tware": 3804,
      "ddamn": 3805,
      "వెళ్తున్నారు": 3806,
      "Black": 3807,
      "SOBB": 3808,
      "నొక్కు": 3809,
      "అక్షర": 3810,
      "session": 3811,
      "మిగిలిన": 3812,
      "SOBBING": 3813,
      "Cor": 3814,
      "Car": 3815,
      "Ell": 3816,
      "Jesus": 3817,
      "Tab": 3818,
      "gave": 3819,
      "jun": 3820,
      "nie": 3821,
      "ran": 3822,
      "sent": 3823,
      "అడి": 3824,
      "అమూల్": 3825,
      "టొ": 3826,
      "డౌ": 3827,
      "తదు": 3828,
      "శక్తి": 3829,
      "క్సీ": 3830,
      "ప్స్": 3831,
      "కుక్క": 3832,
      "engine": 3833,
      "seem": 3834,
      "ల్ని": 3835,
      "చేసా": 3836,
      "చున్నారా": 3837,
      "add": 3838,
      "దాడి": 3839,
      "document": 3840,
      "వెబ్": 3841,
      "చూపించు": 3842,
      "shut": 3843,
      "These": 3844,
      "usband": 3845,
      "ries": 3846,
      "fell": 3847,
      "test": 3848,
      "ments": 3849,
      "quick": 3850,
      "fuckin": 3851,
      "జీవ": 3852,
      "thinking": 3853,
      "CHING": 3854,
      "protect": 3855,
      "స్థానిక": 3856,
      "Default": 3857,
      "server": 3858,
      "ENG": 3859,
      "కనుగొన": 3860,
      "నిమిషం": 3861,
      "COME": 3862,
      "నలుపు": 3863,
      "ఎంపికచేసిన": 3864,
      "OFF": 3865,
      "shoot": 3866,
      "Settings": 3867,
      "ఆకృతీకరిం": 3868,
      "వ్రాయ": 3869,
      "changed": 3870,
      "న్యాయవా": 3871,
      "మారింది": 3872,
      "వివాహం": 3873,
      "ప్రోగ్రామ్": 3874,
      "కూడదు": 3875,
      "CONTINUES": 3876,
      "Bagheera": 3877,
      "Ellen": 3878,
      "అమూల్యమైన": 3879,
      "తదుపరి": 3880,
      "Dial": 3881,
      "RADIO": 3882,
      "UAD": 3883,
      "ness": 3884,
      "sy": 3885,
      "sub": 3886,
      "vious": 3887,
      "నప్పుడు": 3888,
      "బొ": 3889,
      "మౌస్": 3890,
      "నులు": 3891,
      "క్త": 3892,
      "క్సె": 3893,
      "ప్టి": 3894,
      "lete": 3895,
      "story": 3896,
      "కాగి": 3897,
      "ల్మెన్": 3898,
      "velo": 3899,
      "గాడ్డా": 3900,
      "రాక్": 3901,
      "escription": 3902,
      "సంబంధ": 3903,
      "చూసు": 3904,
      "arent": 3905,
      "బాధ": 3906,
      "బాక్స్": 3907,
      "వేశం": 3908,
      "ఉంచ": 3909,
      "umb": 3910,
      "తేదీ": 3911,
      "అతనితో": 3912,
      "actually": 3913,
      "service": 3914,
      "ప్రారంభం": 3915,
      "WHO": 3916,
      "ప్రోజెక్టు": 3917,
      "unts": 3918,
      "Result": 3919,
      "అనువర్తనము": 3920,
      "బ్రేక్": 3921,
      "రంగస్థల": 3922,
      "reason": 3923,
      "Ethiopian": 3924,
      "UADescription": 3925,
      "గాడ్డామ్": 3926,
      ").": 3927,
      "CAM": 3928,
      "HIM": 3929,
      "Lou": 3930,
      "Min": 3931,
      "Nor": 3932,
      "PANT": 3933,
      "Ron": 3934,
      "Sub": 3935,
      "Scre": 3936,
      "bal": 3937,
      "eat": 3938,
      "husband": 3939,
      "ush": 3940,
      "అన": 3941,
      "అరె": 3942,
      "అత్య": 3943,
      "ఎలి": 3944,
      "ఏర్": 3945,
      "ఛా": 3946,
      "ream": 3947,
      "ప్లా": 3948,
      "level": 3949,
      "ట్‌": 3950,
      "ముంద": 3951,
      "కాల": 3952,
      "వావ్": 3953,
      "డాలని": 3954,
      "కోబ్రా": 3955,
      "చార్": 3956,
      "దారు": 3957,
      "యాల": 3958,
      "గిన్": 3959,
      "బ్రైస్": 3960,
      "moving": 3961,
      "oper": 3962,
      "స్థలం": 3963,
      "probably": 3964,
      "అక్కడే": 3965,
      "ORS": 3966,
      "serious": 3967,
      "పట్టింది": 3968,
      "crash": 3969,
      "యేసు": 3970,
      "Brice": 3971,
      "మాట్లాడే": 3972,
      "వెళ్ల": 3973,
      "తీసుకున్న": 3974,
      "controll": 3975,
      "నోరు": 3976,
      "Trans": 3977,
      "motherfucking": 3978,
      "Fran": 3979,
      "mission": 3980,
      "నొప్పి": 3981,
      "Sorry": 3982,
      "చేస్తాను": 3983,
      "LAUGHS": 3984,
      "Print": 3985,
      "ఆకృతీకరణ": 3986,
      "వంతమైన": 3987,
      "TIRES": 3988,
      "బ్యాక్‌": 3989,
      "ప్రత్యే": 3990,
      "భర్త": 3991,
      "Dialog": 3992,
      "కాగితం": 3993,
      "24": 3994,
      "Alp": 3995,
      "CP": 3996,
      "Damn": 3997,
      "Make": 3998,
      "Nep": 3999,
      "SQ": 4000,
      "SING": 4001,
      "WI": 4002,
      "cord": 4003,
      "rup": 4004,
      "కమాం": 4005,
      "పది": 4006,
      "least": 4007,
      "ముక్క": 4008,
      "state": 4009,
      "కావా": 4010,
      "గారు": 4011,
      "acter": 4012,
      "ప్రచు": 4013,
      "డామన్": 4014,
      "యంగా": 4015,
      "working": 4016,
      "THING": 4017,
      "పేజీ": 4018,
      "umn": 4019,
      "పరిశీల": 4020,
      "నిర్ణ": 4021,
      "Device": 4022,
      "వైట్": 4023,
      "interest": 4024,
      "ఎంబి": 4025,
      "listbox": 4026,
      "ఫైల్": 4027,
      "ference": 4028,
      "భూమి": 4029,
      "Thanks": 4030,
      "పరిమాణం": 4031,
      "ప్రమాద": 4032,
      "ద్దామని": 4033,
      "శోధన": 4034,
      "ఉంటాం": 4035,
      "ధ్వని": 4036,
      "empty": 4037,
      "శీర్షిక": 4038,
      "',": 4039,
      "FRAN": 4040,
      "fav": 4041,
      "hook": 4042,
      "ler": 4043,
      "paper": 4044,
      "vices": 4045,
      "అంటో": 4046,
      "కస్": 4047,
      "గని": 4048,
      "తించ": 4049,
      "దగ్గు": 4050,
      "వస్తు": 4051,
      "మీతో": 4052,
      "ర్ధ": 4053,
      "enny": 4054,
      "ster": 4055,
      "చికి": 4056,
      "also": 4057,
      "ades": 4058,
      "చూస్తారు": 4059,
      "చెక్": 4060,
      "knows": 4061,
      "ents": 4062,
      "front": 4063,
      "anyone": 4064,
      "ATE": 4065,
      "ఉండే": 4066,
      "ized": 4067,
      "NOT": 4068,
      "బర్న్": 4069,
      "మ్మల్ని": 4070,
      "puter": 4071,
      "curity": 4072,
      "between": 4073,
      "వెళ్లి": 4074,
      "ణాలు": 4075,
      "WELL": 4076,
      "local": 4077,
      "TRANS": 4078,
      "painting": 4079,
      "LATORS": 4080,
      "శబ్ద": 4081,
      "ఆశ్చర్": 4082,
      "ఒప్పందం": 4083,
      "ENGINE": 4084,
      "PANTING": 4085,
      "అంటోన్": 4086,
      "చికిత్స": 4087,
      "TRANSLATORS": 4088,
      "Cause": 4089,
      "IA": 4090,
      "Lord": 4091,
      "Per": 4092,
      "Sm": 4093,
      "cal": 4094,
      "low": 4095,
      "yet": 4096,
      "గణ": 4097,
      "భయం": 4098,
      "మ్యా": 4099,
      "inv": 4100,
      "డిని": 4101,
      "చేస్తారు": 4102,
      "లేత": 4103,
      "become": 4104,
      "గ్రీ": 4105,
      "చాల": 4106,
      "ross": 4107,
      "ample": 4108,
      "మెయిల్": 4109,
      "యంత్రం": 4110,
      "బాగు": 4111,
      "cons": 4112,
      "పొందవచ్చు": 4113,
      "scav": 4114,
      "పనిము": 4115,
      "స్థాపించు": 4116,
      "రోజుల": 4117,
      "joy": 4118,
      "అమెరి": 4119,
      "feeling": 4120,
      "hope": 4121,
      "దోషం": 4122,
      "tomatic": 4123,
      "Preview": 4124,
      "క్రియాహీ": 4125,
      "Application": 4126,
      "SCREAMING": 4127,
      "పురుషులు": 4128,
      "anguage": 4129,
      "Remote": 4130,
      "behind": 4131,
      "ప్రత్యేక": 4132,
      "74": 4133,
      "Det": 4134,
      "FLIN": 4135,
      "Java": 4136,
      "Lad": 4137,
      "ML": 4138,
      "dist": 4139,
      "fall": 4140,
      "ither": 4141,
      "ls": 4142,
      "mine": 4143,
      "ume": 4144,
      "ఆడ": 4145,
      "ఇంటర్": 4146,
      "చిం": 4147,
      "నథింగ్": 4148,
      "షణ": 4149,
      "thin": 4150,
      "స్పే": 4151,
      "స్పీ": 4152,
      "క్రిం": 4153,
      "reg": 4154,
      "lling": 4155,
      "లుగు": 4156,
      "ముదురు": 4157,
      "aring": 4158,
      "seat": 4159,
      "hey": 4160,
      "వాగ్": 4161,
      "alive": 4162,
      "omuk": 4163,
      "IND": 4164,
      "తెరి": 4165,
      "పాస్": 4166,
      "OUN": 4167,
      "THIS": 4168,
      "foot": 4169,
      "project": 4170,
      "sche": 4171,
      "itting": 4172,
      "buy": 4173,
      "pray": 4174,
      "ఫోల్": 4175,
      "బోర్": 4176,
      "ఆలోచ": 4177,
      "అంగ": 4178,
      "కలవారు": 4179,
      "ROY": 4180,
      "చేయాలి": 4181,
      "స్వాగతం": 4182,
      "question": 4183,
      "గంటల": 4184,
      "మాంత్రి": 4185,
      "augh": 4186,
      "కోరుకుంటున్నారు": 4187,
      "విభజ": 4188,
      "వాస్తవానికి": 4189,
      "సులభంగా": 4190,
      "Current": 4191,
      "HALES": 4192,
      "SPEAKING": 4193,
      "mbol": 4194,
      "Launch": 4195,
      "రోడ్బ్లాక్": 4196,
      "Franck": 4197,
      "Nepomuk": 4198,
      "కమాండర్": 4199,
      "అమెరికన్": 4200,
      "FLINT": 4201,
      "వాగ్దానం": 4202,
      "By": 4203,
      "Cer": 4204,
      "Nice": 4205,
      "Out": 4206,
      "bin": 4207,
      "ez": 4208,
      "six": 4209,
      "అరి": 4210,
      "ఎన్": 4211,
      "ఐచ్చి": 4212,
      "గూ": 4213,
      "నంద": 4214,
      "రండి": 4215,
      "షీ": 4216,
      "సవ": 4217,
      "నిలి": 4218,
      "request": 4219,
      "ములను": 4220,
      "లేవు": 4221,
      "alf": 4222,
      "లార్డ్": 4223,
      "allow": 4224,
      "దాపు": 4225,
      "వెతు": 4226,
      "చూడు": 4227,
      "సాదా": 4228,
      "ctor": 4229,
      "ung": 4230,
      "రెక్": 4231,
      "జావా": 4232,
      "భారీ": 4233,
      "worth": 4234,
      "పెరుగు": 4235,
      "యోగ": 4236,
      "ield": 4237,
      "process": 4238,
      "సెషన్": 4239,
      "లేకపో": 4240,
      "General": 4241,
      "అభ్య": 4242,
      "సరిపో": 4243,
      "waiting": 4244,
      "జేన్": 4245,
      "drive": 4246,
      "దులుగా": 4247,
      "నడుస్తున్న": 4248,
      "తీవ్రమైన": 4249,
      "నిర్వాహ": 4250,
      "ప్రశ్న": 4251,
      "drop": 4252,
      "ఫ్రెంచ్": 4253,
      "couple": 4254,
      "అందుబాటులో": 4255,
      "Ad": 4256,
      "Day": 4257,
      "Find": 4258,
      "Free": 4259,
      "GU": 4260,
      "Kore": 4261,
      "Mer": 4262,
      "Ooh": 4263,
      "SA": 4264,
      "WM": 4265,
      "bt": 4266,
      "ced": 4267,
      "ccess": 4268,
      "gie": 4269,
      "iB": 4270,
      "rich": 4271,
      "అవి": 4272,
      "అదన": 4273,
      "ఎటువంటి": 4274,
      "కవర్": 4275,
      "ఖర్చు": 4276,
      "టలో": 4277,
      "ధం": 4278,
      "ఫే": 4279,
      "సము": 4280,
      "ిన": 4281,
      "నియ": 4282,
      "స్వీ": 4283,
      "రిక": 4284,
      "దుస్తు": 4285,
      "icy": 4286,
      "ఒకే": 4287,
      "సంత": 4288,
      "డార్": 4289,
      "దాదాపు": 4290,
      "cks": 4291,
      "unknown": 4292,
      "ify": 4293,
      "తెలుపు": 4294,
      "జాన్": 4295,
      "Whoo": 4296,
      "mail": 4297,
      "జిక్": 4298,
      "సేవ్": 4299,
      "తీసుకోవాలని": 4300,
      "class": 4301,
      "పైన": 4302,
      "టెం": 4303,
      "ఫోన్స్": 4304,
      "memory": 4305,
      "ROW": 4306,
      "దృష్టి": 4307,
      "జీవితంలో": 4308,
      "దస్త్రం": 4309,
      "failed": 4310,
      "జిమ్మీ": 4311,
      "పెట్టుబడి": 4312,
      "మరణి": 4313,
      "magician": 4314,
      "పరిష్కరించ": 4315,
      "gentlemen": 4316,
      "వొక": 4317,
      "ప్రయత్నించారు": 4318,
      "చల్లని": 4319,
      "ఆకృతీకరించుము": 4320,
      "చూసుకొని": 4321,
      "Screen": 4322,
      "controller": 4323,
      "Em": 4324,
      "Enter": 4325,
      "Hang": 4326,
      "OD": 4327,
      "ecut": 4328,
      "fet": 4329,
      "lin": 4330,
      "rid": 4331,
      "wish": 4332,
      "ంచిన": 4333,
      "ఉపయోగి": 4334,
      "గౌర": 4335,
      "థి": 4336,
      "inal": 4337,
      "inue": 4338,
      "రుకు": 4339,
      "anim": 4340,
      "ress": 4341,
      "remove": 4342,
      "means": 4343,
      "lead": 4344,
      "గాలు": 4345,
      "విజ": 4346,
      "address": 4347,
      "మినల్": 4348,
      "దాచు": 4349,
      "yours": 4350,
      "చెయ్యా": 4351,
      "సాలీ": 4352,
      "బాబ్": 4353,
      "అనుస": 4354,
      "ties": 4355,
      "సమూ": 4356,
      "ప్రాం": 4357,
      "రైడ్": 4358,
      "ఫాంట్": 4359,
      "SHO": 4360,
      "చర్చ": 4361,
      "అంగీ": 4362,
      "American": 4363,
      "సమాచారము": 4364,
      "దొం": 4365,
      "స్క్రీ": 4366,
      "given": 4367,
      "position": 4368,
      "BLOCK": 4369,
      "సాధ్యం": 4370,
      "World": 4371,
      "జెంటిల్మెన్": 4372,
      "Script": 4373,
      "వెతుకు": 4374,
      "1200": 4375,
      "KNOW": 4376,
      "Rep": 4377,
      "VI": 4378,
      "Yo": 4379,
      "bot": 4380,
      "site": 4381,
      "vo": 4382,
      "అమ్మ": 4383,
      "ఈజ్": 4384,
      "ఎనిమి": 4385,
      "కపై": 4386,
      "మల": 4387,
      "వస్తుంది": 4388,
      "సమీ": 4389,
      "రుగా": 4390,
      "ర్ఘ": 4391,
      "ర్రె": 4392,
      "మాది": 4393,
      "మామా": 4394,
      "చిత": 4395,
      "icon": 4396,
      "సంప్ర": 4397,
      "వెల్స్": 4398,
      "ntu": 4399,
      "చూస్తున్నా": 4400,
      "dec": 4401,
      "అనుసం": 4402,
      "దేని": 4403,
      "Comp": 4404,
      "హిక": 4405,
      "ధానము": 4406,
      "anymore": 4407,
      "అనుకుంటున్నారు": 4408,
      "బడలేదు": 4409,
      "looks": 4410,
      "bull": 4411,
      "buntu": 4412,
      "ఉండకూడదు": 4413,
      "Module": 4414,
      "news": 4415,
      "boys": 4416,
      "speak": 4417,
      "ఫిన్": 4418,
      "పట్టుకో": 4419,
      "location": 4420,
      "SCREE": 4421,
      "ఫైన్": 4422,
      "ఆలోచిస్తూ": 4423,
      "ఇచ్చింది": 4424,
      "password": 4425,
      "దగ్గరగా": 4426,
      "డ్రాప్": 4427,
      "సంతోషంగా": 4428,
      "nuclear": 4429,
      "యుద్ధం": 4430,
      "అవ్ట్": 4431,
      "Christ": 4432,
      "విఫల": 4433,
      "birthday": 4434,
      "కనీసం": 4435,
      "Menu": 4436,
      "CAMER": 4437,
      "25": 4438,
      "HT": 4439,
      "Num": 4440,
      "Our": 4441,
      "Sk": 4442,
      "Tiger": 4443,
      "Vict": 4444,
      "ape": 4445,
      "fast": 4446,
      "send": 4447,
      "tar": 4448,
      "uation": 4449,
      "ఆప": 4450,
      "బడ్డా": 4451,
      "రపు": 4452,
      "శత్": 4453,
      "సై": 4454,
      "స్టు": 4455,
      "ised": 4456,
      "tool": 4457,
      "వాన్": 4458,
      "చేతులు": 4459,
      "మానం": 4460,
      "యువ": 4461,
      "alog": 4462,
      "ప్రె": 4463,
      "మ్మి": 4464,
      "unk": 4465,
      "పొంది": 4466,
      "trouble": 4467,
      "till": 4468,
      "bud": 4469,
      "cret": 4470,
      "Unknown": 4471,
      "writ": 4472,
      "minal": 4473,
      "Manager": 4474,
      "hands": 4475,
      "Disc": 4476,
      "From": 4477,
      "కార్యక్రమం": 4478,
      "అంతర్": 4479,
      "సంగీత": 4480,
      "ఆనంది": 4481,
      "Image": 4482,
      "VICTORIA": 4483,
      "Create": 4484,
      "లేడీస్": 4485,
      "అనుకొనుచున్నారా": 4486,
      "exactly": 4487,
      "Victor": 4488,
      "77": 4489,
      "IL": 4490,
      "User": 4491,
      "kick": 4492,
      "lar": 4493,
      "table": 4494,
      "udd": 4495,
      "అణు": 4496,
      "ఆశి": 4497,
      "గలి": 4498,
      "పత్రం": 4499,
      "ఫన్నీ": 4500,
      "శ్య": 4501,
      "ిన్న": 4502,
      "inde": 4503,
      "నియన్": 4504,
      "స్Name": 4505,
      "కుమార్": 4506,
      "young": 4507,
      "కాని": 4508,
      "పుట్టిన": 4509,
      "డ్‌": 4510,
      "సిఫిక్": 4511,
      "కొల": 4512,
      "తాను": 4513,
      "ribut": 4514,
      "టార్": 4515,
      "రోనీ": 4516,
      "గొర్రె": 4517,
      "cell": 4518,
      "boss": 4519,
      "మార్క్": 4520,
      "మార్చుము": 4521,
      "స్తాను": 4522,
      "Wells": 4523,
      "ధాలు": 4524,
      "fucker": 4525,
      "Socket": 4526,
      "పొందుతారు": 4527,
      "వైన": 4528,
      "playing": 4529,
      "బ్యాం": 4530,
      "హోమ్": 4531,
      "ROAD": 4532,
      "సూచి": 4533,
      "Joh": 4534,
      "స్టార్": 4535,
      "భయపడ్డా": 4536,
      "అడవి": 4537,
      "sweet": 4538,
      "video": 4539,
      "వేగంగా": 4540,
      "తినడానికి": 4541,
      "software": 4542,
      "Ronnie": 4543,
      "మాంత్రికుడు": 4544,
      "అదనపు": 4545,
      "SCREECHING": 4546,
      "IF": 4547,
      "ISH": 4548,
      "Jay": 4549,
      "Ten": 4550,
      "ahead": 4551,
      "cap": 4552,
      "gative": 4553,
      "pur": 4554,
      "ring": 4555,
      "అండ్": 4556,
      "ఊహ": 4557,
      "యింగ్": 4558,
      "సమ్": 4559,
      "నిం": 4560,
      "స్మ": 4561,
      "స్పె": 4562,
      "ముగా": 4563,
      "owser": 4564,
      "పుట్": 4565,
      "వివిధ": 4566,
      "acc": 4567,
      "తిని": 4568,
      "టివ్": 4569,
      "తెలీ": 4570,
      "weap": 4571,
      "చెప్పు": 4572,
      "import": 4573,
      "కేం": 4574,
      "ucker": 4575,
      "configuration": 4576,
      "వెళ్ళు": 4577,
      "grand": 4578,
      "ఎవరో": 4579,
      "els": 4580,
      "scr": 4581,
      "aving": 4582,
      "దీర్ఘ": 4583,
      "prof": 4584,
      "club": 4585,
      "SHOUT": 4586,
      "Ang": 4587,
      "value": 4588,
      "కొనసాగ": 4589,
      "క్షమించాలి": 4590,
      "లైబ్ర": 4591,
      "small": 4592,
      "stead": 4593,
      "changes": 4594,
      "ormal": 4595,
      "olution": 4596,
      "irtual": 4597,
      "స్వయంచాల": 4598,
      "దిగుమతి": 4599,
      "human": 4600,
      "jungle": 4601,
      "Louis": 4602,
      "WITH": 4603,
      "శత్రువు": 4604,
      "Af": 4605,
      "Database": 4606,
      "FT": 4607,
      "Mic": 4608,
      "Mouse": 4609,
      "NU": 4610,
      "TA": 4611,
      "Tit": 4612,
      "Yep": 4613,
      "gn": 4614,
      "jack": 4615,
      "link": 4616,
      "match": 4617,
      "ral": 4618,
      "sort": 4619,
      "అత్యం": 4620,
      "ఆయు": 4621,
      "ఆదేశ": 4622,
      "ఓవర్": 4623,
      "కరి": 4624,
      "జంట": 4625,
      "డల్": 4626,
      "థా": 4627,
      "దలి": 4628,
      "మీదే": 4629,
      "stri": 4630,
      "లేనని": 4631,
      "assho": 4632,
      "డాన్": 4633,
      "ider": 4634,
      "ford": 4635,
      "forgot": 4636,
      "oogle": 4637,
      "chick": 4638,
      "oment": 4639,
      "వచ్చే": 4640,
      "Web": 4641,
      "iron": 4642,
      "పోతుంది": 4643,
      "device": 4644,
      "ఉంచు": 4645,
      "రీఫ్": 4646,
      "ERING": 4647,
      "పరిగణ": 4648,
      "డెస్క్": 4649,
      "య్యి": 4650,
      "Stay": 4651,
      "calling": 4652,
      "Never": 4653,
      "resp": 4654,
      "కలుసుకు": 4655,
      "గ్రహ": 4656,
      "గ్రౌండ్": 4657,
      "words": 4658,
      "అయిన": 4659,
      "broken": 4660,
      "SOME": 4661,
      "loaded": 4662,
      "ఆల్ఫోన్స్": 4663,
      "Only": 4664,
      "Holly": 4665,
      "అధిక": 4666,
      "Click": 4667,
      "ప్రియమైన": 4668,
      "fully": 4669,
      "honse": 4670,
      "Harley": 4671,
      "దేశాన్ని": 4672,
      "EXHALES": 4673,
      "సంకేత": 4674,
      "Mission": 4675,
      "piece": 4676,
      "ఫైళ్ళను": 4677,
      "Alphonse": 4678,
      "స్పీకర్": 4679,
      "క్రింద": 4680,
      "చెయ్యాలి": 4681,
      "కుమార్తె": 4682,
      "ROADBLOCK": 4683,
      "John": 4684,
      "90": 4685,
      "Dark": 4686,
      "Fold": 4687,
      "Green": 4688,
      "Kh": 4689,
      "Qt": 4690,
      "Sy": 4691,
      "Und": 4692,
      "Would": 4693,
      "gy": 4694,
      "rate": 4695,
      "source": 4696,
      "touch": 4697,
      "win": 4698,
      "water": 4699,
      "ండర్": 4700,
      "అల": 4701,
      "ఉచిత": 4702,
      "ఓపెన్": 4703,
      "చయం": 4704,
      "పసు": 4705,
      "ఫన్": 4706,
      "వస్తున్న": 4707,
      "ina": 4708,
      "దించ": 4709,
      "ర్క్": 4710,
      "ature": 4711,
      "వాలు": 4712,
      "చేసుకు": 4713,
      "చిత్రం": 4714,
      "విక్": 4715,
      "bell": 4716,
      "chance": 4717,
      "aby": 4718,
      "బ్లూ": 4719,
      "సాం": 4720,
      "సాధ": 4721,
      "సాఫ్ట్": 4722,
      "బాస్": 4723,
      "హాం": 4724,
      "conne": 4725,
      "ounds": 4726,
      "aste": 4727,
      "makes": 4728,
      "scrip": 4729,
      "కంప్": 4730,
      "Reg": 4731,
      "ఫాంటు": 4732,
      "ముందుగా": 4733,
      "కెన్": 4734,
      "కరించు": 4735,
      "ired": 4736,
      "write": 4737,
      "కొనుము": 4738,
      "Gray": 4739,
      "గుంపు": 4740,
      "hearts": 4741,
      "Access": 4742,
      "MOM": 4743,
      "శుభ్రం": 4744,
      "అమరిక": 4745,
      "టెర్మినల్": 4746,
      "షూట్": 4747,
      "WOMAN": 4748,
      "ఆలస్": 4749,
      "పసుపు": 4750,
      "Amen": 4751,
      "Abra": 4752,
      "BUR": 4753,
      "Billy": 4754,
      "Baby": 4755,
      "D9": 4756,
      "Ha": 4757,
      "House": 4758,
      "High": 4759,
      "Happ": 4760,
      "Na": 4761,
      "Sar": 4762,
      "Size": 4763,
      "Ter": 4764,
      "YEA": 4765,
      "bes": 4766,
      "cuse": 4767,
      "cool": 4768,
      "dig": 4769,
      "food": 4770,
      "gh": 4771,
      "ging": 4772,
      "moment": 4773,
      "nce": 4774,
      "path": 4775,
      "sun": 4776,
      "squ": 4777,
      "అబ": 4778,
      "అరు": 4779,
      "ఉమ్": 4780,
      "ఉహ్": 4781,
      "చో": 4782,
      "చ్యు": 4783,
      "నర్": 4784,
      "పట్టి": 4785,
      "ఫు": 4786,
      "మరణం": 4787,
      "రత": 4788,
      "rece": 4789,
      "డికి": 4790,
      "ston": 4791,
      "చేద్దామని": 4792,
      "ali": 4793,
      "డాడీ": 4794,
      "వుతుంది": 4795,
      "ద్వే": 4796,
      "ading": 4797,
      "రంలో": 4798,
      "death": 4799,
      "రించిన": 4800,
      "బిచ్": 4801,
      "computer": 4802,
      "needs": 4803,
      "Button": 4804,
      "Does": 4805,
      "ించాలని": 4806,
      "ched": 4807,
      "works": 4808,
      "లేకపొయాను": 4809,
      "contact": 4810,
      "black": 4811,
      "బీట్": 4812,
      "Enable": 4813,
      "Level": 4814,
      "కోవడం": 4815,
      "ఉత్తర": 4816,
      "Windows": 4817,
      "DIST": 4818,
      "ANTON": 4819,
      "attack": 4820,
      "Everything": 4821,
      "టైగర్": 4822,
      "seconds": 4823,
      "హార్లే": 4824,
      "అదృష్ట": 4825,
      "తరలించడానికి": 4826,
      "itional": 4827,
      "జ్ఞా": 4828,
      "లనుకుంటున్నారా": 4829,
      "following": 4830,
      "హ్యాపీ": 4831,
      "నిమిషాల": 4832,
      "Daddy": 4833,
      "complete": 4834,
      "wide74": 4835,
      "secure": 4836,
      "కాకముందు": 4837,
      "పట్టించుకో": 4838,
      "అంగస్": 4839,
      "స్క్రీన్": 4840,
      "Worldwide74": 4841,
      "udding": 4842,
      "ఆశిస్తున్నాము": 4843,
      "Jaye": 4844,
      "తెలీదు": 4845,
      "అత్యంత": 4846,
      "YEAH": 4847,
      "Worldwide7477": 4848,
      "'?": 4849,
      "Ban": 4850,
      "Bro": 4851,
      "Clear": 4852,
      "DM": 4853,
      "Huh": 4854,
      "KS": 4855,
      "Lyn": 4856,
      "Pac": 4857,
      "Pass": 4858,
      "Say": 4859,
      "Ye": 4860,
      "bum": 4861,
      "cm": 4862,
      "hor": 4863,
      "nal": 4864,
      "pop": 4865,
      "కై": 4866,
      "ఫొ": 4867,
      "బగ్": 4868,
      "బంగా": 4869,
      "బదులుగా": 4870,
      "భ్య": 4871,
      "వటం": 4872,
      "నిక్": 4873,
      "స్త్రీ": 4874,
      "ories": 4875,
      "ట్రే": 4876,
      "కాంగ్": 4877,
      "చేర": 4878,
      "విస్త": 4879,
      "ached": 4880,
      "కొరియా": 4881,
      "మెర్": 4882,
      "చూపు": 4883,
      "చూస్తున్న": 4884,
      "రించండి": 4885,
      "పిరి": 4886,
      "పొడ": 4887,
      "క్షణ": 4888,
      "fee": 4889,
      "ఫ్రీ": 4890,
      "Three": 4891,
      "పెసిఫిక్": 4892,
      "తెలివి": 4893,
      "తేనె": 4894,
      "శ్రీ": 4895,
      "needed": 4896,
      "brary": 4897,
      "దర్శి": 4898,
      "against": 4899,
      "weeks": 4900,
      "applications": 4901,
      "అమర్చు": 4902,
      "Audio": 4903,
      "వలెను": 4904,
      "తప్పక": 4905,
      "glish": 4906,
      "ప్లగ్": 4907,
      "నిర్వాహిక": 4908,
      "About": 4909,
      "folder": 4910,
      "ibility": 4911,
      "ప్రతిబింబము": 4912,
      "ఏర్పాటు": 4913,
      "FRANCK": 4914,
      "Angus": 4915,
      "Pacific": 4916,
      "180": 4917,
      "App": 4918,
      "Call": 4919,
      "DU": 4920,
      "HER": 4921,
      "LOR": 4922,
      "Lenny": 4923,
      "Other": 4924,
      "Vi": 4925,
      "WIND": 4926,
      "YELL": 4927,
      "da": 4928,
      "den": 4929,
      "daught": 4930,
      "field": 4931,
      "groans": 4932,
      "hy": 4933,
      "hang": 4934,
      "middle": 4935,
      "ned": 4936,
      "nes": 4937,
      "rac": 4938,
      "such": 4939,
      "ఎదుర్": 4940,
      "కఠ": 4941,
      "చదు": 4942,
      "జెట్": 4943,
      "డింగ్": 4944,
      "లంటే": 4945,
      "షో": 4946,
      "సజీవ": 4947,
      "oud": 4948,
      "స్నా": 4949,
      "remain": 4950,
      "రిపో": 4951,
      "నాయ": 4952,
      "heh": 4953,
      "పుట": 4954,
      "మారు": 4955,
      "గాట్": 4956,
      "విడిచి": 4957,
      "యుడు": 4958,
      "లోడు": 4959,
      "మేజిక్": 4960,
      "మిమ్మల్ని": 4961,
      "గిల": 4962,
      "పివేయ": 4963,
      "defin": 4964,
      "destro": 4965,
      "goes": 4966,
      "gover": 4967,
      "entire": 4968,
      "ఉన్నాము": 4969,
      "మార్ట్": 4970,
      "చూడటం": 4971,
      "expect": 4972,
      "ప్రతికూల": 4973,
      "REA": 4974,
      "ౌన్సర్": 4975,
      "comes": 4976,
      "చెప్పడం": 4977,
      "కార్యాల": 4978,
      "office": 4979,
      "Stand": 4980,
      "తీసుకొని": 4981,
      "anger": 4982,
      "ART": 4983,
      "సమావేశం": 4984,
      "telling": 4985,
      "everyone": 4986,
      "సీటు": 4987,
      "keyboard": 4988,
      "ప్రయత్నిస్తున్న": 4989,
      "తీసుకురా": 4990,
      "తొమ్మి": 4991,
      "Keith": 4992,
      "వలసినవే": 4993,
      "loading": 4994,
      "అమ్మాయిలు": 4995,
      "బ్రౌ": 4996,
      "questions": 4997,
      "లూయిస్": 4998,
      "వాసన": 4999,
      "డ్యూక్": 5000,
      "లింకు": 5001,
      "అడగండి": 5002,
      "success": 5003,
      "supported": 5004,
      "జరగవలసినవే": 5005,
      "police": 5006,
      "children": 5007,
      "married": 5008,
      "సందర్భ": 5009,
      "న్యాయవాది": 5010,
      "దుస్తులు": 5011,
      "ఎనిమిది": 5012,
      "CAMERON": 5013,
      "buddy": 5014,
      "పుట్టినరోజు": 5015,
      "భయపడ్డాను": 5016,
      "కంప్యూ": 5017,
      "destroy": 5018,
      "Bet": 5019,
      "DING": 5020,
      "Fo": 5021,
      "Kill": 5022,
      "MP": 5023,
      "Mc": 5024,
      "Pe": 5025,
      "SON": 5026,
      "South": 5027,
      "bare": 5028,
      "cam": 5029,
      "eight": 5030,
      "fil": 5031,
      "ks": 5032,
      "lay": 5033,
      "lation": 5034,
      "past": 5035,
      "tific": 5036,
      "yo": 5037,
      "ఓడ": 5038,
      "ధు": 5039,
      "పత్రి": 5040,
      "మౌ": 5041,
      "మళ్": 5042,
      "రల్": 5043,
      "వయ": 5044,
      "సౌ": 5045,
      "నిలువు": 5046,
      "రిత్ర": 5047,
      "నేరుగా": 5048,
      "ల్‌": 5049,
      "heav": 5050,
      "న్నాము": 5051,
      "begin": 5052,
      "along": 5053,
      "గ్గా": 5054,
      "choose": 5055,
      "వెడల్": 5056,
      "amon": 5057,
      "Theme": 5058,
      "whis": 5059,
      "క్షే": 5060,
      "ఫ్లా": 5061,
      "ఉంచేందుకు": 5062,
      "హాలు": 5063,
      "వ్యక్": 5064,
      "వర్చ్యు": 5065,
      "ధాన": 5066,
      "శ్ర": 5067,
      "ulti": 5068,
      "విండొ": 5069,
      "బర్నింగ్": 5070,
      "launch": 5071,
      "join": 5072,
      "బోయే": 5073,
      "starting": 5074,
      "selves": 5075,
      "description": 5076,
      "ప్రోక్సీ": 5077,
      "కృత": 5078,
      "Display": 5079,
      "అలారం": 5080,
      "199": 5081,
      "స్టేషన్": 5082,
      "త్వరగా": 5083,
      "ఎక్కడా": 5084,
      "స్క్రిప్ట్": 5085,
      "సెర్వర్": 5086,
      "అన్వే": 5087,
      "అనేక": 5088,
      "దెబ్బ": 5089,
      "సాదారణ": 5090,
      "లైబ్రరీ": 5091,
      "శ్రీమతి": 5092,
      "వర్చ్యువల్": 5093,
      "0l": 5094,
      "AB": 5095,
      "ARE": 5096,
      "Bax": 5097,
      "Cy": 5098,
      "ELE": 5099,
      "FU": 5100,
      "Hank": 5101,
      "Mat": 5102,
      "Next": 5103,
      "Test": 5104,
      "WA": 5105,
      "WANT": 5106,
      "Year": 5107,
      "ather": 5108,
      "aking": 5109,
      "honey": 5110,
      "ips": 5111,
      "pict": 5112,
      "ఎర్": 5113,
      "కిం": 5114,
      "కట్": 5115,
      "థన్": 5116,
      "ళం": 5117,
      "వత్తు": 5118,
      "సిం": 5119,
      "tho": 5120,
      "నిశ్": 5121,
      "aning": 5122,
      "anne": 5123,
      "నాథన్": 5124,
      "నేట్": 5125,
      "లుName": 5126,
      "ison": 5127,
      "ished": 5128,
      "seven": 5129,
      "security": 5130,
      "విరా": 5131,
      "beep": 5132,
      "als": 5133,
      "కిచ": 5134,
      "గుస": 5135,
      "INCT": 5136,
      "కోలేదు": 5137,
      "doll": 5138,
      "బ్స్": 5139,
      "బ్లా": 5140,
      "బ్రో": 5141,
      "lip": 5142,
      "liz": 5143,
      "ags": 5144,
      "వేరే": 5145,
      "పొడి": 5146,
      "ష్టా": 5147,
      "వలన": 5148,
      "somewhere": 5149,
      "మంచం": 5150,
      "మార్నింగ్": 5151,
      "తెలుసుకోవడానికి": 5152,
      "వెళ్ళడం": 5153,
      "istory": 5154,
      "ended": 5155,
      "Shift": 5156,
      "grab": 5157,
      "పొందలేము": 5158,
      "column": 5159,
      "dialog": 5160,
      "diamon": 5161,
      "Read": 5162,
      "ఫోర్": 5163,
      "లెన్ని": 5164,
      "respect": 5165,
      "WHY": 5166,
      "THEN": 5167,
      "వెళ్లా": 5168,
      "partner": 5169,
      "స్నేహితుని": 5170,
      "gress": 5171,
      "drones": 5172,
      "కలలు": 5173,
      "blood": 5174,
      "months": 5175,
      "Disable": 5176,
      "గ్రాండ్": 5177,
      "Bob": 5178,
      "డైరెక్": 5179,
      "వంతంగా": 5180,
      "occur": 5181,
      "మానిటర్": 5182,
      "object": 5183,
      "surv": 5184,
      "lawy": 5185,
      "భవనం": 5186,
      "OKAY": 5187,
      "element": 5188,
      "AUDI": 5189,
      "వెళ్ళిపోతున్నాను": 5190,
      "డ్రోన్లు": 5191,
      "radio": 5192,
      "బాధించింది": 5193,
      "అనౌన్సర్": 5194,
      "ినమైన": 5195,
      "Miche": 5196,
      "BURT": 5197,
      "Nathan": 5198,
      "DISTINCT": 5199,
      "Lynne": 5200,
      "daughter": 5201,
      "కఠినమైన": 5202,
      "Baxford": 5203,
      "35": 5204,
      "Fire": 5205,
      "Home": 5206,
      "Pol": 5207,
      "URI": 5208,
      "fing": 5209,
      "kcm": 5210,
      "pix": 5211,
      "parent": 5212,
      "rust": 5213,
      "vin": 5214,
      "wise": 5215,
      "ఆగండి": 5216,
      "ఆటిన్": 5217,
      "ఉత్": 5218,
      "కష్టం": 5219,
      "చద": 5220,
      "తను": 5221,
      "బై": 5222,
      "యలు": 5223,
      "‌కు": 5224,
      "atr": 5225,
      "నామ": 5226,
      "lex": 5227,
      "ముల": 5228,
      "ంటె": 5229,
      "చేస్తాయి": 5230,
      "access": 5231,
      "లాంటి": 5232,
      "గ్రి": 5233,
      "డ్స్": 5234,
      "html": 5235,
      "సార్": 5236,
      "Welcome": 5237,
      "imize": 5238,
      "ird": 5239,
      "goddamn": 5240,
      "రెగ్": 5241,
      "taken": 5242,
      "aph": 5243,
      "మార్చి": 5244,
      "audio": 5245,
      "proxy": 5246,
      "grunts": 5247,
      "perience": 5248,
      "పనిచేస్తుంది": 5249,
      "ORN": 5250,
      "sheep": 5251,
      "Negative": 5252,
      "లెస్": 5253,
      "locked": 5254,
      "ఇవ్వ": 5255,
      "మార్గంలో": 5256,
      "Key": 5257,
      "Loc": 5258,
      "weekday": 5259,
      "విశ్వస": 5260,
      "driver": 5261,
      "తొలగించు": 5262,
      "చ్ఛిక": 5263,
      "closed": 5264,
      "స్టిక్": 5265,
      "building": 5266,
      "APP": 5267,
      "Paul": 5268,
      "తెలియజేయ": 5269,
      "North": 5270,
      "SINGING": 5271,
      "DayName": 5272,
      "బడ్డాయి": 5273,
      "Bye": 5274,
      "CLA": 5275,
      "Data": 5276,
      "FI": 5277,
      "HON": 5278,
      "Je": 5279,
      "Off": 5280,
      "PA": 5281,
      "Page": 5282,
      "Sna": 5283,
      "Str": 5284,
      "TAY": 5285,
      "Tower": 5286,
      "Was": 5287,
      "YY": 5288,
      "based": 5289,
      "event": 5290,
      "flo": 5291,
      "hmm": 5292,
      "laugh": 5293,
      "mouth": 5294,
      "pan": 5295,
      "ping": 5296,
      "tick": 5297,
      "task": 5298,
      "x600": 5299,
      "కట్టు": 5300,
      "టవర్": 5301,
      "డైనా": 5302,
      "తమా": 5303,
      "తప్పి": 5304,
      "పదాన్ని": 5305,
      "మదర్": 5306,
      "రన్": 5307,
      "సవి": 5308,
      "​​": 5309,
      "eriff": 5310,
      "నిన్ను": 5311,
      "క్రె": 5312,
      "itor": 5313,
      "station": 5314,
      "కాలను": 5315,
      "పుడు": 5316,
      "పుస్త": 5317,
      "చిహ్": 5318,
      "icul": 5319,
      "లిటి": 5320,
      "రాన్ని": 5321,
      "లోప": 5322,
      "almost": 5323,
      "ets": 5324,
      "తిరే": 5325,
      "యాస్": 5326,
      "web": 5327,
      "మెనూ": 5328,
      "necess": 5329,
      "చెయ": 5330,
      "వేసవి": 5331,
      "ఇక్కడే": 5332,
      "ucks": 5333,
      "nobody": 5334,
      "వ్యతిరే": 5335,
      "THERE": 5336,
      "emon": 5337,
      "ief": 5338,
      "స్టన్": 5339,
      "comm": 5340,
      "ప్రతిమ": 5341,
      "save": 5342,
      "కొన్నిసార్లు": 5343,
      "brought": 5344,
      "డెల్": 5345,
      "కార్డ్": 5346,
      "విషయ": 5347,
      "Storm": 5348,
      "Delete": 5349,
      "పైకి": 5350,
      "వారాల": 5351,
      "టెన్": 5352,
      "లెక్క": 5353,
      "Bring": 5354,
      "THEY": 5355,
      "పంపు": 5356,
      "షాట్": 5357,
      "విధమైన": 5358,
      "English": 5359,
      "చెయ్యవచ్చు": 5360,
      "LOOK": 5361,
      "కోల్పోయింది": 5362,
      "missing": 5363,
      "నైస్": 5364,
      "packages": 5365,
      "RINGING": 5366,
      "భాగంగా": 5367,
      "మానవ": 5368,
      "clicks": 5369,
      "ప్లగిన్": 5370,
      "Cobra": 5371,
      "Steve": 5372,
      "ఇష్టపడ్డారు": 5373,
      "character": 5374,
      "promise": 5375,
      "breathing": 5376,
      "వస్తువు": 5377,
      "ఆశ్చర్యానికి": 5378,
      "accident": 5379,
      "Happy": 5380,
      "Sarah": 5381,
      "సజీవంగా": 5382,
      "కంప్యూటర్": 5383,
      "TAYLOR": 5384,
      "తమాషా": 5385,
      "02": 5386,
      "Alt": 5387,
      "Bar": 5388,
      "Bus": 5389,
      "Cr": 5390,
      "Cap": 5391,
      "Four": 5392,
      "FOR": 5393,
      "Great": 5394,
      "HORN": 5395,
      "Link": 5396,
      "Mess": 5397,
      "Put": 5398,
      "Wall": 5399,
      "fm": 5400,
      "nine": 5401,
      "sal": 5402,
      "song": 5403,
      "vil": 5404,
      "vari": 5405,
      "ంశ": 5406,
      "ఆసు": 5407,
      "ఊపిరి": 5408,
      "ఎగు": 5409,
      "చరిత్ర": 5410,
      "పరు": 5411,
      "మరీ": 5412,
      "సింగ్": 5413,
      "స్కే": 5414,
      "నాన్ని": 5415,
      "లిక్": 5416,
      "రాబోయే": 5417,
      "విధానం": 5418,
      "asero": 5419,
      "ache": 5420,
      "bear": 5421,
      "సంబం": 5422,
      "టికి": 5423,
      "INDISTINCT": 5424,
      "కోవచ్చు": 5425,
      "amaz": 5426,
      "రించే": 5427,
      "బాక్": 5428,
      "బాధి": 5429,
      "uring": 5430,
      "white": 5431,
      "debug": 5432,
      "రోల్": 5433,
      "somebody": 5434,
      "nother": 5435,
      "author": 5436,
      "prove": 5437,
      "quit": 5438,
      "Document": 5439,
      "డెడ్": 5440,
      "print": 5441,
      "couldn": 5442,
      "ప్రారంభించు": 5443,
      "everybody": 5444,
      "ective": 5445,
      "spades": 5446,
      "cursor": 5447,
      "పిల్లల": 5448,
      "అంతా": 5449,
      "forever": 5450,
      "జరిగే": 5451,
      "అందరూ": 5452,
      "సరిగ్గా": 5453,
      "stru": 5454,
      "Joe": 5455,
      "Left": 5456,
      "Tech": 5457,
      "బడినవి": 5458,
      "funny": 5459,
      "జరుగుతుంది": 5460,
      "జతచేయుము": 5461,
      "suit": 5462,
      "Server": 5463,
      "LongNamePossessive": 5464,
      "గుర్తింపు": 5465,
      "అదృష్టం": 5466,
      "ట్రిక్": 5467,
      "భావించారు": 5468,
      "ఆలోచిస్తాడు": 5469,
      "స్థాపించ": 5470,
      "SCREAMS": 5471,
      "switch": 5472,
      "జంతు": 5473,
      "directory": 5474,
      "అచేతనం": 5475,
      "HOW": 5476,
      "fresh": 5477,
      "వినియోగ": 5478,
      "చట్టం": 5479,
      "అరవటం": 5480,
      "లేఖనం": 5481,
      "simple": 5482,
      "బాగుంది": 5483,
      "స్పేడ్": 5484,
      "target": 5485,
      "SHOUTING": 5486,
      "After": 5487,
      "తొమ్మిది": 5488,
      "వెడల్పు": 5489,
      "\",": 5490,
      "BY": 5491,
      "Date": 5492,
      "DER": 5493,
      "EH": 5494,
      "EP": 5495,
      "FA": 5496,
      "Fed": 5497,
      "HIS": 5498,
      "Jan": 5499,
      "Over": 5500,
      "QFont": 5501,
      "Try": 5502,
      "ai": 5503,
      "afr": 5504,
      "bor": 5505,
      "fill": 5506,
      "ient": 5507,
      "language": 5508,
      "paid": 5509,
      "sen": 5510,
      "tri": 5511,
      "uth": 5512,
      "ware": 5513,
      "ze": 5514,
      "ఆకర్": 5515,
      "ఎప్పు": 5516,
      "ఎత్తు": 5517,
      "ఔట్ట": 5518,
      "గట్టి": 5519,
      "టూ": 5520,
      "డవి": 5521,
      "దక్షి": 5522,
      "నటి": 5523,
      "బరు": 5524,
      "వన": 5525,
      "హత": 5526,
      "instead": 5527,
      "రుణ": 5528,
      "స్మార్ట్": 5529,
      "rend": 5530,
      "reck": 5531,
      "రికి": 5532,
      "కుని": 5533,
      "కుంటారు": 5534,
      "leaving": 5535,
      "enjoy": 5536,
      "stup": 5537,
      "stick": 5538,
      "street": 5539,
      "తుడు": 5540,
      "వాతా": 5541,
      "వాడిని": 5542,
      "త్రో": 5543,
      "ics": 5544,
      "asma": 5545,
      "ality": 5546,
      "యిక్కడ": 5547,
      "లాగ": 5548,
      "తిరుగు": 5549,
      "సంరక్షణ": 5550,
      "hate": 5551,
      "డ్జ్": 5552,
      "వుంచుము": 5553,
      "సిక": 5554,
      "చాలి": 5555,
      "abrac": 5556,
      "outta": 5557,
      "బాల్": 5558,
      "images": 5559,
      "రెస్": 5560,
      "feet": 5561,
      "ఉండాలని": 5562,
      "ద్దం": 5563,
      "ంటుంది": 5564,
      "confirm": 5565,
      "example": 5566,
      "proper": 5567,
      "సెస్": 5568,
      "brain": 5569,
      "avo": 5570,
      "ఉండటం": 5571,
      "clatter": 5572,
      "టెడ్": 5573,
      "బెత్": 5574,
      "ousand": 5575,
      "ప్రారంభించారు": 5576,
      "killing": 5577,
      "కర్సర్": 5578,
      "బోతు": 5579,
      "spend": 5580,
      "చెప్పాడు": 5581,
      "boyfriend": 5582,
      "ఇంజిన్": 5583,
      "ciate": 5584,
      "Option": 5585,
      "ShortNamePossessive": 5586,
      "kidding": 5587,
      "evening": 5588,
      "handle": 5589,
      "జేబు": 5590,
      "డిస్కును": 5591,
      "options": 5592,
      "పడిపోయింది": 5593,
      "walking": 5594,
      "airs": 5595,
      "వివరణ": 5596,
      "watching": 5597,
      "BOY": 5598,
      "మైంది": 5599,
      "PETER": 5600,
      "అమరికలు": 5601,
      "Ahh": 5602,
      "గెట్స్": 5603,
      "డ్రైవ్": 5604,
      "Commander": 5605,
      "నిర్ధారించు": 5606,
      "కదుపుము": 5607,
      "ANNING": 5608,
      "కూర్చుని": 5609,
      "Davide": 5610,
      "అనుమత": 5611,
      "rupt": 5612,
      "ఫోల్డర్": 5613,
      "receive": 5614,
      "ద్వేషం": 5615,
      "Keithie": 5616,
      "tificate": 5617,
      "diamonds": 5618,
      "QFontDatabase": 5619,
      "afraid": 5620,
      "ఎప్పుడైనా": 5621,
      "డవిడే": 5622,
      "దక్షిణ": 5623,
      "వాతావ": 5624,
      "Base": 5625,
      "Block": 5626,
      "Eyes": 5627,
      "Li": 5628,
      "PO": 5629,
      "Pri": 5630,
      "SV": 5631,
      "Tucker": 5632,
      "Vide": 5633,
      "Watch": 5634,
      "WAY": 5635,
      "Zart": 5636,
      "cry": 5637,
      "ked": 5638,
      "mas": 5639,
      "mach": 5640,
      "non": 5641,
      "sus": 5642,
      "viron": 5643,
      "ఎఫ్": 5644,
      "ఫర్": 5645,
      "ాడు": 5646,
      "ెం": 5647,
      "రిత": 5648,
      "రికార్డు": 5649,
      "కుంటే": 5650,
      "ister": 5651,
      "tol": 5652,
      "ింప": 5653,
      "ట్రం": 5654,
      "పులు": 5655,
      "త్తా": 5656,
      "offee": 5657,
      "విస్": 5658,
      "beg": 5659,
      "ప్రధాన": 5660,
      "గులా": 5661,
      "యాName": 5662,
      "abad": 5663,
      "ndar": 5664,
      "పాప్": 5665,
      "వచ్చా": 5666,
      "నీస్": 5667,
      "నీటి": 5668,
      "జార్": 5669,
      "ately": 5670,
      "ours": 5671,
      "వర్షన్": 5672,
      "సెంట్": 5673,
      "agement": 5674,
      "CHE": 5675,
      "Gold": 5676,
      "assist": 5677,
      "pped": 5678,
      "player": 5679,
      "crack": 5680,
      "create": 5681,
      "Looks": 5682,
      "రములు": 5683,
      "2000": 5684,
      "happens": 5685,
      "సంవత్సరాలు": 5686,
      "careful": 5687,
      "సూచన": 5688,
      "Box": 5689,
      "క్లియర్": 5690,
      "alendar": 5691,
      "Everybody": 5692,
      "smart": 5693,
      "అధికా": 5694,
      "LongName": 5695,
      "copy": 5696,
      "శోధ": 5697,
      "gener": 5698,
      "థీమ్‌ను": 5699,
      "plugin": 5700,
      "నగరం": 5701,
      "భద్రతా": 5702,
      "నెట్వర్క్": 5703,
      "నివేదిక": 5704,
      "symbol": 5705,
      "సంబంధం": 5706,
      "ఆకృతీకరించుముName": 5707,
      "Number": 5708,
      "index": 5709,
      "బ్లూస్": 5710,
      "Snake": 5711,
      "Zartan": 5712,
      "vironment": 5713,
      "Bapt": 5714,
      "CAN": 5715,
      "CLI": 5716,
      "Du": 5717,
      "Dri": 5718,
      "El": 5719,
      "FREN": 5720,
      "GP": 5721,
      "GON": 5722,
      "IE": 5723,
      "IP": 5724,
      "Oi": 5725,
      "Pan": 5726,
      "TAL": 5727,
      "TELL": 5728,
      "WING": 5729,
      "Yor": 5730,
      "bian": 5731,
      "cat": 5732,
      "dah": 5733,
      "eye": 5734,
      "fly": 5735,
      "iot": 5736,
      "miles": 5737,
      "power": 5738,
      "ండు": 5739,
      "ంతు": 5740,
      "ఇటీ": 5741,
      "ఐటి": 5742,
      "గ్యా": 5743,
      "జై": 5744,
      "పణ": 5745,
      "పక్ష": 5746,
      "మందు": 5747,
      "మయ్య": 5748,
      "సల": 5749,
      "సభ్య": 5750,
      "నిరా": 5751,
      "క్లా": 5752,
      "rela": 5753,
      "replace": 5754,
      "iste": 5755,
      "కాశ": 5756,
      "కాప్స్": 5757,
      "sell": 5758,
      "పుష్": 5759,
      "మాండ్": 5760,
      "గాడ్": 5761,
      "విక్టర్": 5762,
      "ప్రవర్": 5763,
      "ప్రభు": 5764,
      "సంపా": 5765,
      "సందేశాన్ని": 5766,
      "డ్డీ": 5767,
      "స్తుంటారు": 5768,
      "చాను": 5769,
      "బాస్టర్": 5770,
      "బాప్టి": 5771,
      "immedi": 5772,
      "Heh": 5773,
      "పోయా": 5774,
      "ించబడ": 5775,
      "plit": 5776,
      "జాడ": 5777,
      "మండ్": 5778,
      "చేయలేదు": 5779,
      "execut": 5780,
      "Shut": 5781,
      "Should": 5782,
      "saved": 5783,
      "వీధి": 5784,
      "Invalid": 5785,
      "Remember": 5786,
      "berus": 5787,
      "Configuration": 5788,
      "Most": 5789,
      "Mother": 5790,
      "STE": 5791,
      "disabled": 5792,
      "బెరస్": 5793,
      "format": 5794,
      "credi": 5795,
      "2002": 5796,
      "continue": 5797,
      "speed": 5798,
      "situation": 5799,
      "టోపీ": 5800,
      "యింట్": 5801,
      "పట్టుకోండి": 5802,
      "ఫెయి": 5803,
      "విశ్వసి": 5804,
      "పడిన": 5805,
      "Spelling": 5806,
      "currently": 5807,
      "డైమండ్": 5808,
      "అడుగుల": 5809,
      "slow": 5810,
      "company": 5811,
      "Service": 5812,
      "Activ": 5813,
      "తరలించు": 5814,
      "wondering": 5815,
      "COUGHING": 5816,
      "చిత్రలేఖనం": 5817,
      "ఆనందం": 5818,
      "Import": 5819,
      "missed": 5820,
      "గ్రేట్": 5821,
      "మార్చడానికి": 5822,
      "సెర్బెరస్": 5823,
      "installed": 5824,
      "క్రియాశీలము": 5825,
      "specified": 5826,
      "తెరువ": 5827,
      "స్కీమా": 5828,
      "enemy": 5829,
      "భాగస్వామి": 5830,
      "నొక్కుము": 5831,
      "ముందస్తు": 5832,
      "operation": 5833,
      "ప్రమాదంలో": 5834,
      "favor": 5835,
      "scheme": 5836,
      "Cerberus": 5837,
      "పరిష్కరించడానికి": 5838,
      "గొర్రెలు": 5839,
      "కేంద్": 5840,
      "scratch": 5841,
      "asshole": 5842,
      "పొడవు": 5843,
      "వెళ్లాలని": 5844,
      "AUDIEN": 5845,
      "Baptiste": 5846,
      "FRENCH": 5847,
      "GONNA": 5848,
      "జైలు": 5849,
      "relax": 5850,
      "బాప్టిస్ట్": 5851,
      "Files": 5852,
      "GNO": 5853,
      "Oper": 5854,
      "RM": 5855,
      "Wid": 5856,
      "cup": 5857,
      "coffee": 5858,
      "din": 5859,
      "round": 5860,
      "sn": 5861,
      "sick": 5862,
      "vill": 5863,
      "ఆశ": 5864,
      "ఆకలి": 5865,
      "ఆపై": 5866,
      "ఆగారు": 5867,
      "ఎయి": 5868,
      "డై": 5869,
      "పంద": 5870,
      "బన్": 5871,
      "మద్య": 5872,
      "లజాబితా": 5873,
      "సెట్": 5874,
      "హొ": 5875,
      "నివసి": 5876,
      "requ": 5877,
      "reach": 5878,
      "return": 5879,
      "కునే": 5880,
      "కున్నారు": 5881,
      "istol": 5882,
      "tocol": 5883,
      "డిగ్రీ": 5884,
      "stage": 5885,
      "కాఫీ": 5886,
      "ల్వ": 5887,
      "వాలి": 5888,
      "చేస్తోంది": 5889,
      "గాస్": 5890,
      "రాజ": 5891,
      "విధానము": 5892,
      "acing": 5893,
      "యుటకు": 5894,
      "ander": 5895,
      "చుకున్న": 5896,
      "వుంటుంది": 5897,
      "యాన్ని": 5898,
      "abo": 5899,
      "havi": 5900,
      "dog": 5901,
      "పాడు": 5902,
      "మ్స్": 5903,
      "మెమొ": 5904,
      "ney": 5905,
      "వేగం": 5906,
      "imum": 5907,
      "lobal": 5908,
      "ించబడుతుంది": 5909,
      "అన్నిటి": 5910,
      "tra": 5911,
      "సెరో": 5912,
      "సెన్స్": 5913,
      "త్రము": 5914,
      "CKS": 5915,
      "శ్చి": 5916,
      "cost": 5917,
      "వ్యక్తిగత": 5918,
      "ర్థిక": 5919,
      "ప్రారంభించ": 5920,
      "అంశ": 5921,
      "బీచ్": 5922,
      "బహుళ": 5923,
      "బేస్": 5924,
      "బ్రౌన్": 5925,
      "పైకి": 5926,
      "CELL": 5927,
      "సాధారణంగా": 5928,
      "పలక": 5929,
      "కోరుకుంటున్నారో": 5930,
      "tainer": 5931,
      "listening": 5932,
      "correct": 5933,
      "సెల్ఫ్": 5934,
      "మరయూ": 5935,
      "మూలకర్త": 5936,
      "లక్ష్యం": 5937,
      "సులభం": 5938,
      "నిర్వాహకి": 5939,
      "ఉపయోగిస్తారు": 5940,
      "Christmas": 5941,
      "HTML": 5942,
      "ఆనందించండి": 5943,
      "clubs": 5944,
      "Folder": 5945,
      "కింద": 5946,
      "thod": 5947,
      "GNOME": 5948,
      "-(": 5949,
      "45": 5950,
      "64": 5951,
      "72": 5952,
      "BU": 5953,
      "Bur": 5954,
      "Eliz": 5955,
      "FE": 5956,
      "Fin": 5957,
      "Hot": 5958,
      "KILL": 5959,
      "Mama": 5960,
      "Ow": 5961,
      "RY": 5962,
      "SAR": 5963,
      "Turn": 5964,
      "Wal": 5965,
      "WILL": 5966,
      "_S": 5967,
      "aight": 5968,
      "bs": 5969,
      "city": 5970,
      "clock": 5971,
      "cash": 5972,
      "danger": 5973,
      "hi": 5974,
      "kno": 5975,
      "lor": 5976,
      "mur": 5977,
      "sme": 5978,
      "vict": 5979,
      "అంటారు": 5980,
      "ఆమో": 5981,
      "ఇతరు": 5982,
      "ఇకపై": 5983,
      "గరి": 5984,
      "గరోజు": 5985,
      "గడియా": 5986,
      "జబెత్": 5987,
      "తము": 5988,
      "దశ": 5989,
      "నవీ": 5990,
      "ert": 5991,
      "ering": 5992,
      "remind": 5993,
      "కుకీ": 5994,
      "నేల": 5995,
      "డిటెక్": 5996,
      "owe": 5997,
      "తుఫా": 5998,
      "వాకింగ్": 5999,
      "పుల్": 6000,
      "icons": 6001,
      "రాష్": 6002,
      "ఒకరు": 6003,
      "విమాన": 6004,
      "asking": 6005,
      "beat": 6006,
      "ional": 6007,
      "గ్గి": 6008,
      "ides": 6009,
      "డ్రై": 6010,
      "దాచ": 6011,
      "దాయ": 6012,
      "root": 6013,
      "road": 6014,
      "పానీ": 6015,
      "సార": 6016,
      "సాయంత్రం": 6017,
      "నీకు": 6018,
      "uss": 6019,
      "రేషన్": 6020,
      "ఫ్లిం": 6021,
      "Whatever": 6022,
      "తీపి": 6023,
      "apy": 6024,
      "OUR": 6025,
      "వ్యవహ": 6026,
      "దేశీ": 6027,
      "named": 6028,
      "Allow": 6029,
      "చెప్పడానికి": 6030,
      "బడటానికి": 6031,
      "క్రిస్మ": 6032,
      "sert": 6033,
      "disk": 6034,
      "disappe": 6035,
      "LIKE": 6036,
      "WHIR": 6037,
      "బడినది": 6038,
      "స్నేక్": 6039,
      "విచారణ": 6040,
      "పిల్లవాడిని": 6041,
      "United": 6042,
      "ంటాడు": 6043,
      "bitches": 6044,
      "Plug": 6045,
      "యెగరోజు": 6046,
      "belong": 6047,
      "లైన": 6048,
      "కోవాలంటే": 6049,
      "ails": 6050,
      "Engine": 6051,
      "ordin": 6052,
      "ShortName": 6053,
      "motherfucker": 6054,
      "ప్యాంటు": 6055,
      "single": 6056,
      "CHUCKLING": 6057,
      "DID": 6058,
      "చెల్లించడానికి": 6059,
      "Additional": 6060,
      "పట్టుకొని": 6061,
      "భయపడ్డారు": 6062,
      "విశ్రాం": 6063,
      "Host": 6064,
      "పాటలజాబితా": 6065,
      "మధ్యలో": 6066,
      "మాట్లాడుతున్నారు": 6067,
      "సురక్షితంగా": 6068,
      "అర్హత": 6069,
      "Flint": 6070,
      "గెలి": 6071,
      "మార్పులు": 6072,
      "Point": 6073,
      "abeth": 6074,
      "ఆధార": 6075,
      "నెలల": 6076,
      "ఆటగాడు": 6077,
      "width": 6078,
      "యెంపికచేయుము": 6079,
      "pants": 6080,
      "చున్నది": 6081,
      "ఎలిజబెత్": 6082,
      "వెళ్లరు": 6083,
      "ప్రచురణ": 6084,
      "చింతించ": 6085,
      "అనుసరించండి": 6086,
      "Banning": 6087,
      "MP3": 6088,
      "కృతజ్ఞ": 6089,
      "beeps": 6090,
      "డైరెక్టరీ": 6091,
      "floor": 6092,
      "stupid": 6093,
      "Options": 6094,
      "గులాబి": 6095,
      "abadbra": 6096,
      "AUDIENCE": 6097,
      "above": 6098,
      "Elizabeth": 6099,
      "డిటెక్టివ్": 6100,
      "తుఫాను": 6101,
      "ఫ్లింట్": 6102,
      "70": 6103,
      "Another": 6104,
      "CER": 6105,
      "Ext": 6106,
      "Sa": 6107,
      "Sam": 6108,
      "Veg": 6109,
      "bing": 6110,
      "cri": 6111,
      "either": 6112,
      "mouse": 6113,
      "va": 6114,
      "ఎదురు": 6115,
      "ఎలుగు": 6116,
      "ఏది": 6117,
      "కప్": 6118,
      "గతి": 6119,
      "బంటి": 6120,
      "మమ్": 6121,
      "రదృ": 6122,
      "వదలి": 6123,
      "శరీ": 6124,
      "హిం": 6125,
      "onent": 6126,
      "స్కా": 6127,
      "ana": 6128,
      "కుల": 6129,
      "thes": 6130,
      "నేర్చు": 6131,
      "iting": 6132,
      "ముసి": 6133,
      "secret": 6134,
      "వాయిస్": 6135,
      "మాలు": 6136,
      "విలి": 6137,
      "igation": 6138,
      "మిక": 6139,
      "సును": 6140,
      "మెమరీ": 6141,
      "తాలు": 6142,
      "area": 6143,
      "చెబు": 6144,
      "rible": 6145,
      "గొంతు": 6146,
      "whatever": 6147,
      "ల్లర్": 6148,
      "context": 6149,
      "ERS": 6150,
      "బిగ్గ": 6151,
      "స్టల్": 6152,
      "కుంటుంది": 6153,
      "ilit": 6154,
      "పరిస్థితి": 6155,
      "మూలం": 6156,
      "CHO": 6157,
      "Street": 6158,
      "యూజర్": 6159,
      "Conne": 6160,
      "Mode": 6161,
      "నెమ్మ": 6162,
      "పెద్దది": 6163,
      "green": 6164,
      "hoto": 6165,
      "longer": 6166,
      "దస్త్రాలు": 6167,
      "వ్యాఖ్య": 6168,
      "చెల్లని": 6169,
      "కనిప": 6170,
      "ఫైలును": 6171,
      "పరికరం": 6172,
      "Class": 6173,
      "GASPING": 6174,
      "సృష్టించుము": 6175,
      "కళావరు": 6176,
      "policy": 6177,
      "జనవరి": 6178,
      "తెరువుము": 6179,
      "అనుమతిస్తుంది": 6180,
      "పాయింట్": 6181,
      "రియల్": 6182,
      "Earth": 6183,
      "భయంకరమైన": 6184,
      "JavaScript": 6185,
      "Report": 6186,
      "important": 6187,
      "సాఫ్ట్‍": 6188,
      "Yellow": 6189,
      "కార్యాలయం": 6190,
      "People": 6191,
      "ultiple": 6192,
      "విరామం": 6193,
      "వ్యతిరేకంగా": 6194,
      "ప్రవర్తన": 6195,
      "క్రిస్మస్": 6196,
      "Vegas": 6197,
      "ఎలుగుబంటి": 6198,
      "):": 6199,
      ",%": 6200,
      "26": 6201,
      "28": 6202,
      "250": 6203,
      "38": 6204,
      "400": 6205,
      "ACK": 6206,
      "BANNING": 6207,
      "Cog": 6208,
      "Center": 6209,
      "Dom": 6210,
      "Dire": 6211,
      "Even": 6212,
      "Easy": 6213,
      "Full": 6214,
      "HI": 6215,
      "MIN": 6216,
      "Nico": 6217,
      "RAM": 6218,
      "Wr": 6219,
      "Word": 6220,
      "ege": 6221,
      "fund": 6222,
      "ium": 6223,
      "nment": 6224,
      "pat": 6225,
      "solut": 6226,
      "trip": 6227,
      "wood": 6228,
      "ఆఫీ": 6229,
      "ఇత్": 6230,
      "కప్పు": 6231,
      "ఖో": 6232,
      "డబ్": 6233,
      "పవి": 6234,
      "పడే": 6235,
      "యత": 6236,
      "రవా": 6237,
      "వింగ్": 6238,
      "సరై": 6239,
      "thousand": 6240,
      "init": 6241,
      "స్మై": 6242,
      "క్లో": 6243,
      "కుర్": 6244,
      "tore": 6245,
      "arrest": 6246,
      "మాస్టర్": 6247,
      "చివరకు": 6248,
      "చిత్రాలు": 6249,
      "క్కి": 6250,
      "aly": 6251,
      "లాగండి": 6252,
      "ప్రభా": 6253,
      "డ్డి": 6254,
      "సిబ్బంది": 6255,
      "మితి": 6256,
      "చాలని": 6257,
      "omen": 6258,
      "యామ్": 6259,
      "welcome": 6260,
      "rock": 6261,
      "roaning": 6262,
      "పాలని": 6263,
      "తాజా": 6264,
      "చెంది": 6265,
      "సాధన": 6266,
      "క్షణం": 6267,
      "రెల్": 6268,
      "Those": 6269,
      "tech": 6270,
      "terminal": 6271,
      "nothin": 6272,
      "worried": 6273,
      "మార్కెట్": 6274,
      "THER": 6275,
      "వర్ణ": 6276,
      "కుంటున్నారో": 6277,
      "exp": 6278,
      "provide": 6279,
      "query": 6280,
      "వీటో": 6281,
      "ప్రార్థ": 6282,
      "looked": 6283,
      "యూని": 6284,
      "worked": 6285,
      "బెడ్": 6286,
      "Note": 6287,
      "estate": 6288,
      "Brown": 6289,
      "loved": 6290,
      "హోలీ": 6291,
      "అభీ": 6292,
      "కోరుకున్నాడు": 6293,
      "Whoa": 6294,
      "కనుగొంటారు": 6295,
      "అనుకుంటే": 6296,
      "సూచ": 6297,
      "దస్త్రాన్ని": 6298,
      "Program": 6299,
      "GOT": 6300,
      "Press": 6301,
      "Art": 6302,
      "RINGS": 6303,
      "గుర్తుంచుకో": 6304,
      "వీక్షణ": 6305,
      "ఒక్కరి": 6306,
      "పెట్టుము": 6307,
      "బ్రాసెరో": 6308,
      "కోరుకుంటున్నాము": 6309,
      "glad": 6310,
      "చనిపో": 6311,
      "BACK": 6312,
      "తీయటానికి": 6313,
      "thias": 6314,
      "ముఖ్యంగా": 6315,
      "నగదు": 6316,
      "పరచ": 6317,
      "డ్రైవర్": 6318,
      "ladies": 6319,
      "stole": 6320,
      "UTF": 6321,
      "Gee": 6322,
      "custom": 6323,
      "GIVE": 6324,
      "ప్రయాణ": 6325,
      "ANNOUN": 6326,
      "ముగిసింది": 6327,
      "ప్రేమిస్తున్నాను": 6328,
      "కోర్సు": 6329,
      "Ladies": 6330,
      "సముద్ర": 6331,
      "దొంగిల": 6332,
      "కలుసుకున్నారు": 6333,
      "హాంక్": 6334,
      "జ్ఞాప": 6335,
      "పట్టించుకోను": 6336,
      "Password": 6337,
      "Vito": 6338,
      "Matthias": 6339,
      "lawyer": 6340,
      "necessities": 6341,
      "సభ్యుడు": 6342,
      "credible": 6343,
      "సెర్బెరస్ను": 6344,
      "పందెం": 6345,
      "SARAH": 6346,
      "విశ్రాంతి": 6347,
      "చింతించకండి": 6348,
      "విలియం": 6349,
      "నెమ్మదిగా": 6350,
      "సాఫ్ట్‍వేర్": 6351,
      "Cogl": 6352,
      "\"}": 6353,
      ",\"": 6354,
      ".%": 6355,
      "37": 6356,
      "Alex": 6357,
      "BL": 6358,
      "Bug": 6359,
      "CA": 6360,
      "Count": 6361,
      "Calendar": 6362,
      "DAN": 6363,
      "Effect": 6364,
      "Five": 6365,
      "Fine": 6366,
      "Groans": 6367,
      "His": 6368,
      "Hard": 6369,
      "Las": 6370,
      "Music": 6371,
      "NT": 6372,
      "Sort": 6373,
      "Sche": 6374,
      "VO": 6375,
      "_B": 6376,
      "bast": 6377,
      "doo": 6378,
      "pes": 6379,
      "uary": 6380,
      "vs": 6381,
      "vac": 6382,
      "zer": 6383,
      "అంటా": 6384,
      "ఆర్థిక": 6385,
      "ఇండి": 6386,
      "ఒప్పు": 6387,
      "కన్నా": 6388,
      "కమాండ్": 6389,
      "వంట": 6390,
      "హనీ": 6391,
      "oul": 6392,
      "రును": 6393,
      "recent": 6394,
      "లుComment": 6395,
      "ింగు": 6396,
      "enger": 6397,
      "డియ": 6398,
      "stairs": 6399,
      "కామె": 6400,
      "వాసం": 6401,
      "asp": 6402,
      "asso": 6403,
      "aces": 6404,
      "లోతు": 6405,
      "డాల్": 6406,
      "యాక్సె": 6407,
      "సారు": 6408,
      "login": 6409,
      "urch": 6410,
      "irst": 6411,
      "పివే": 6412,
      "entry": 6413,
      "రేట్": 6414,
      "రేటు": 6415,
      "Nobody": 6416,
      "మంచు": 6417,
      "ల్లె": 6418,
      "కీబోర్": 6419,
      "శాం": 6420,
      "శాస్": 6421,
      "డంలో": 6422,
      "రిగిన": 6423,
      "CKING": 6424,
      "scape": 6425,
      "ATOR": 6426,
      "కూల్": 6427,
      "More": 6428,
      "హెడ్": 6429,
      "played": 6430,
      "చెప్పిన": 6431,
      "Mrs": 6432,
      "Bristol": 6433,
      "జీవితా": 6434,
      "below": 6435,
      "ప్రోత్స": 6436,
      "cially": 6437,
      "చేయాలో": 6438,
      "బేర్": 6439,
      "straight": 6440,
      "OpenGL": 6441,
      "pressed": 6442,
      "Arch": 6443,
      "Everyone": 6444,
      "తొలగించుము": 6445,
      "పడలేదు": 6446,
      "ప్రమాణ": 6447,
      "anced": 6448,
      "rench": 6449,
      "అడగ": 6450,
      "ఎంచుకొనుము": 6451,
      "burning": 6452,
      "Download": 6453,
      "BOTH": 6454,
      "స్టియన్": 6455,
      "దగ్గర": 6456,
      "రించడానికి": 6457,
      "సరైన": 6458,
      "OPEN": 6459,
      "బ్రిస్టల్": 6460,
      "రహస్య": 6461,
      "చేసుకో": 6462,
      "నిష్క్రమ": 6463,
      "SQL": 6464,
      "పనిముట్ల": 6465,
      "నందలి": 6466,
      "సమూహం": 6467,
      "విఫలమైంది": 6468,
      "weapon": 6469,
      "స్వయంచాలక": 6470,
      "Title": 6471,
      "వయస్సు": 6472,
      "heavily": 6473,
      "లిటిల్": 6474,
      "havior": 6475,
      "బిగ్గరగా": 6476,
      "150": 6477,
      "21": 6478,
      "48": 6479,
      "BAN": 6480,
      "BIT": 6481,
      "Babe": 6482,
      "CI": 6483,
      "Cha": 6484,
      "DCP": 6485,
      "EISH": 6486,
      "Hy": 6487,
      "Int": 6488,
      "IGHT": 6489,
      "JAY": 6490,
      "Lic": 6491,
      "Mark": 6492,
      "Old": 6493,
      "Ret": 6494,
      "Su": 6495,
      "Sw": 6496,
      "Son": 6497,
      "Six": 6498,
      "Top": 6499,
      "ZZ": 6500,
      "bag": 6501,
      "cino": 6502,
      "fool": 6503,
      "ged": 6504,
      "ges": 6505,
      "hill": 6506,
      "half": 6507,
      "ki": 6508,
      "mad": 6509,
      "ris": 6510,
      "vous": 6511,
      "whe": 6512,
      "women": 6513,
      "ఆయ": 6514,
      "ఆరో": 6515,
      "ఇట్": 6516,
      "ఎక్": 6517,
      "కళ": 6518,
      "గై": 6519,
      "జనం": 6520,
      "టప్పుడు": 6521,
      "దండ్": 6522,
      "దగిన": 6523,
      "నంది": 6524,
      "నలోకి": 6525,
      "నడిచి": 6526,
      "పదా": 6527,
      "పడం": 6528,
      "మరో": 6529,
      "రౌండ్": 6530,
      "రక్త": 6531,
      "thy": 6532,
      "thudding": 6533,
      "invalid": 6534,
      "eron": 6535,
      "న్సీ": 6536,
      "నిరో": 6537,
      "నిల్వ": 6538,
      "స్వే": 6539,
      "anch": 6540,
      "release": 6541,
      "record": 6542,
      "method": 6543,
      "ites": 6544,
      "కాదని": 6545,
      "కావలెను": 6546,
      "తుందని": 6547,
      "వాతి": 6548,
      "ైర్": 6549,
      "విడు": 6550,
      "ays": 6551,
      "aced": 6552,
      "igger": 6553,
      "మేల్": 6554,
      "మరియుమీరు": 6555,
      "adv": 6556,
      "adow": 6557,
      "సులువు": 6558,
      "యాల్": 6559,
      "rob": 6560,
      "doctor": 6561,
      "vert": 6562,
      "వెయి": 6563,
      "సాస్": 6564,
      "బాధ్య": 6565,
      "ళ్ల": 6566,
      "పిక్": 6567,
      "gold": 6568,
      "అనుకూల": 6569,
      "ించలేదు": 6570,
      "modif": 6571,
      "జారి": 6572,
      "boot": 6573,
      "తెలుసుకోవాలి": 6574,
      "automatic": 6575,
      "చేస్తున్నా": 6576,
      "చూడలేదు": 6577,
      "sold": 6578,
      "Which": 6579,
      "himself": 6580,
      "బిజీ": 6581,
      "erson": 6582,
      "సెకన్": 6583,
      "saving": 6584,
      "మొరెల్": 6585,
      "fuckers": 6586,
      "REV": 6587,
      "ATTER": 6588,
      "అవసరాలు": 6589,
      "స్ట్రీ": 6590,
      "చెప్పలేదు": 6591,
      "bye": 6592,
      "LET": 6593,
      "bert": 6594,
      "Morel": 6595,
      "కనుగొన్న": 6596,
      "మోన్": 6597,
      "వైద్య": 6598,
      "ARD": 6599,
      "సైని": 6600,
      "selection": 6601,
      "shouldn": 6602,
      "starts": 6603,
      "Brasero": 6604,
      "గ్రహం": 6605,
      "ISO": 6606,
      "హోటల్": 6607,
      "special": 6608,
      "Form": 6609,
      "Track": 6610,
      "Excuse": 6611,
      "Experience": 6612,
      "బేబ్": 6613,
      "string": 6614,
      "చెయ్యగలరు": 6615,
      "Leave": 6616,
      "Proper": 6617,
      "కోవటానికి": 6618,
      "throw": 6619,
      "అభినంది": 6620,
      "పునరా": 6621,
      "మహిళలు": 6622,
      "cards": 6623,
      "తల్లిదండ్": 6624,
      "Speak": 6625,
      "TRY": 6626,
      "meeting": 6627,
      "ancy": 6628,
      "క్రమము": 6629,
      "ప్రియుడు": 6630,
      "swear": 6631,
      "‍స్‌": 6632,
      "MBER": 6633,
      "తీవ్రత": 6634,
      "స్టేట్": 6635,
      "guns": 6636,
      "ఇచ్చిన": 6637,
      "Harper": 6638,
      "ruin": 6639,
      "వృద్": 6640,
      "lady": 6641,
      "సంతోషించిన": 6642,
      "షెరీఫ్": 6643,
      "నిలబడటానికి": 6644,
      "client": 6645,
      "Faith": 6646,
      "ప్రయాణం": 6647,
      "ల్యూక్": 6648,
      "Earl": 6649,
      "Toolbar": 6650,
      "Internet": 6651,
      "college": 6652,
      "Luke": 6653,
      "SQU": 6654,
      "consider": 6655,
      "క్రియాహీన": 6656,
      "భారీగా": 6657,
      "Korea": 6658,
      "మరణిస్తారు": 6659,
      "చూస్తున్నానని": 6660,
      "స్టార్మ్": 6661,
      "పరిగణనలోకి": 6662,
      "YELLING": 6663,
      "government": 6664,
      "సందర్భంలో": 6665,
      "FUEISH": 6666,
      "ఎర్ల్": 6667,
      "parents": 6668,
      "Location": 6669,
      "లోపలి": 6670,
      "abracabadbra": 6671,
      "clatters": 6672,
      "Video": 6673,
      "సలహా": 6674,
      "ఫెయిత్": 6675,
      "విశ్వసిస్తే": 6676,
      "మమ్మీ": 6677,
      "solute": 6678,
      "ఇత్సెల్ఫ్": 6679,
      "ANNOUNCER": 6680,
      "శాంతి": 6681,
      "DCPD": 6682,
      "JAYE": 6683,
      "FUEISHA": 6684,
      "ALA": 6685,
      "Book": 6686,
      "BLA": 6687,
      "Card": 6688,
      "First": 6689,
      "Ker": 6690,
      "Kang": 6691,
      "KWin": 6692,
      "Ma": 6693,
      "Met": 6694,
      "Normal": 6695,
      "Par": 6696,
      "Swe": 6697,
      "_R": 6698,
      "ba": 6699,
      "bun": 6700,
      "hom": 6701,
      "history": 6702,
      "mot": 6703,
      "none": 6704,
      "por": 6705,
      "ply": 6706,
      "sense": 6707,
      "tle": 6708,
      "vol": 6709,
      "wind": 6710,
      "ఆస్ట్": 6711,
      "ఎన్న": 6712,
      "ఏమై": 6713,
      "ఐఎస్": 6714,
      "గడ": 6715,
      "గింగ్": 6716,
      "జింగ్": 6717,
      "నృ": 6718,
      "వర": 6719,
      "ాలు": 6720,
      "ైంది": 6721,
      "‍డ్": 6722,
      "inlistbox": 6723,
      "నిమే": 6724,
      "ority": 6725,
      "చేతనము": 6726,
      "గాని": 6727,
      "గానం": 6728,
      "త్కాలి": 6729,
      "రాజు": 6730,
      "విచ్": 6731,
      "asure": 6732,
      "accept": 6733,
      "యిప్పుడు": 6734,
      "andy": 6735,
      "omb": 6736,
      "యాలను": 6737,
      "బ్‌": 6738,
      "lied": 6739,
      "మెద": 6740,
      "తాత్కాలి": 6741,
      "రించేందుకు": 6742,
      "వేసి": 6743,
      "ందే": 6744,
      "takes": 6745,
      "uckles": 6746,
      "worse": 6747,
      "వెళ్ళా": 6748,
      "వర్డ్": 6749,
      "సమర్ధ": 6750,
      "పేర్": 6751,
      "ends": 6752,
      "graph": 6753,
      "ప్రతిస్థాపించు": 6754,
      "anybody": 6755,
      "CHATTER": 6756,
      "States": 6757,
      "ization": 6758,
      "anging": 6759,
      "ధిక": 6760,
      "హెచ్": 6761,
      "crap": 6762,
      "పూర్ణ": 6763,
      "టీసు": 6764,
      "లేకపోయింది": 6765,
      "deser": 6766,
      "బంతి": 6767,
      "అంశా": 6768,
      "షాడో": 6769,
      "యెంచు": 6770,
      "bling": 6771,
      "కనుగొను": 6772,
      "డిస్క్": 6773,
      "సమస్యలు": 6774,
      "diff": 6775,
      "Auto": 6776,
      "Automatic": 6777,
      "తక్కువదని": 6778,
      "market": 6779,
      "బూడిద": 6780,
      "నిర్వహణ": 6781,
      "certificate": 6782,
      "అసలు": 6783,
      "అచేతన": 6784,
      "HOME": 6785,
      "Scroll": 6786,
      "ఆహ్వా": 6787,
      "నకలుతీ": 6788,
      "నిమిషాలు": 6789,
      "నొక్కి": 6790,
      "BEEPS": 6791,
      "కారణంగా": 6792,
      "త్మక": 6793,
      "ఐచ్చిక": 6794,
      "SHOT": 6795,
      "అంతర్గత": 6796,
      "script": 6797,
      "తెలివితక్కువదని": 6798,
      "నిశ్శబ్ద": 6799,
      "వాతావరణం": 6800,
      "assistant": 6801,
      "knock": 6802,
      "కళావరుల": 6803,
      "License": 6804,
      "ALARM": 6805,
      "ఏమైనా": 6806,
      "\"#": 6807,
      "120": 6808,
      "800": 6809,
      "850": 6810,
      "Aust": 6811,
      "BLE": 6812,
      "Cal": 6813,
      "Far": 6814,
      "GNU": 6815,
      "Kwon": 6816,
      "Match": 6817,
      "NTRY": 6818,
      "ORE": 6819,
      "Pal": 6820,
      "Sum": 6821,
      "Tur": 6822,
      "Vers": 6823,
      "_A": 6824,
      "_C": 6825,
      "bill": 6826,
      "bath": 6827,
      "cast": 6828,
      "fact": 6829,
      "iet": 6830,
      "iam": 6831,
      "kne": 6832,
      "mut": 6833,
      "ners": 6834,
      "py": 6835,
      "sque": 6836,
      "wed": 6837,
      "wake": 6838,
      "ఈల": 6839,
      "ఏమైన": 6840,
      "ఓడి": 6841,
      "కది": 6842,
      "ణిక": 6843,
      "ద్యా": 6844,
      "పగు": 6845,
      "బల్": 6846,
      "భం": 6847,
      "వస్తోంది": 6848,
      "షవర్": 6849,
      "సగం": 6850,
      "క్లాస్": 6851,
      "క్వాన్": 6852,
      "reco": 6853,
      "meant": 6854,
      "leston": 6855,
      "మాజీ": 6856,
      "గాన్ని": 6857,
      "క్కడికి": 6858,
      "విల్": 6859,
      "విమానం": 6860,
      "యునై": 6861,
      "became": 6862,
      "కిడ్": 6863,
      "ప్రక": 6864,
      "తిక": 6865,
      "తిరస్": 6866,
      "సంభాష": 6867,
      "సంసార": 6868,
      "వుండ": 6869,
      "సిక్": 6870,
      "సిసి": 6871,
      "కొట్ట": 6872,
      "outside": 6873,
      "library": 6874,
      "తాగిన": 6875,
      "చూడా": 6876,
      "చూసారు": 6877,
      "agree": 6878,
      "సామ": 6879,
      "సాల్": 6880,
      "బాం": 6881,
      "వేల": 6882,
      "పిలు": 6883,
      "పోర్ట్": 6884,
      "dep": 6885,
      "develo": 6886,
      "peace": 6887,
      "అనువా": 6888,
      "antic": 6889,
      "ife": 6890,
      "fear": 6891,
      "tract": 6892,
      "iley": 6893,
      "ateg": 6894,
      "atell": 6895,
      "apart": 6896,
      "తెలుసుకోవాలంటే": 6897,
      "conf": 6898,
      "చూడవచ్చు": 6899,
      "చూడగలరు": 6900,
      "దేవ": 6901,
      "పరిచయం": 6902,
      "grade": 6903,
      "saver": 6904,
      "బుంటు": 6905,
      "anyway": 6906,
      "scream": 6907,
      "seeing": 6908,
      "CHI": 6909,
      "జిబి": 6910,
      "Init": 6911,
      "itten": 6912,
      "Really": 6913,
      "డెన్": 6914,
      "Seven": 6915,
      "Second": 6916,
      "సేవర్": 6917,
      "SIREN": 6918,
      "టర్లు": 6919,
      "గోడ": 6920,
      "గోన్": 6921,
      "లెస్టన్": 6922,
      "మొదల": 6923,
      "యన్Name": 6924,
      "others": 6925,
      "crew": 6926,
      "credit": 6927,
      "Beatr": 6928,
      "పంప": 6929,
      "పంపిన": 6930,
      "useful": 6931,
      "drug": 6932,
      "drunk": 6933,
      "ROCK": 6934,
      "Charleston": 6935,
      "shower": 6936,
      "Enough": 6937,
      "ఖాన్": 6938,
      "తరువాతి": 6939,
      "హంక్": 6940,
      "Judah": 6941,
      "వారితో": 6942,
      "stopped": 6943,
      "కోల్పోయిన": 6944,
      "Previous": 6945,
      "busy": 6946,
      "Team": 6947,
      "చెల్లింపు": 6948,
      "భయపడి": 6949,
      "SEE": 6950,
      "HELL": 6951,
      "smile": 6952,
      "Background": 6953,
      "Jimmy": 6954,
      "ఎక్స్క్యూ": 6955,
      "ఎంచుకోండి": 6956,
      "హార్పర్": 6957,
      "భావించాను": 6958,
      "CARS": 6959,
      "Anyway": 6960,
      "COUNTRY": 6961,
      "ప్రశ్నలు": 6962,
      "మైన్": 6963,
      "శుభ్రంగా": 6964,
      "విభజన": 6965,
      "hotel": 6966,
      "షేర్": 6967,
      "Runner": 6968,
      "ఆహార": 6969,
      "దీనిని": 6970,
      "నెట్వర్‍క్": 6971,
      "lucky": 6972,
      "William": 6973,
      "summer": 6974,
      "రియన్స్": 6975,
      "seems": 6976,
      "చార్లెస్టన్": 6977,
      "బ్యాక్‌గ్రౌండ్": 6978,
      "CPU": 6979,
      "నిర్ణయ": 6980,
      "distribut": 6981,
      "అభ్యర్": 6982,
      "lines": 6983,
      "గౌరవం": 6984,
      "strike": 6985,
      "connect": 6986,
      "ఆలస్యంగా": 6987,
      "బీట్రైస్": 6988,
      "చదువు": 6989,
      "మళ్లీ": 6990,
      "శ్రద్ధ": 6991,
      "ఆకర్ష": 6992,
      "నిర్ధారించుకోండి": 6993,
      "favorite": 6994,
      "Plugin": 6995,
      "శరీరం": 6996,
      "పవిత్ర": 6997,
      "ప్రార్థన": 6998,
      "ఆయన": 6999,
      "బిజీగా": 7000,
      "తల్లిదండ్రులు": 7001,
      "SQUEA": 7002,
      "solutely": 7003,
      "ఎన్నడూ": 7004,
      "Version": 7005,
      "ఏమైనప్పటికీ": 7006,
      "యునైటెడ్": 7007,
      "Beatrice": 7008,
      "ఎక్స్క్యూజ్": 7009,
      ",.": 7010,
      "AC": 7011,
      "Bump": 7012,
      "DA": 7013,
      "Fil": 7014,
      "Id": 7015,
      "LOU": 7016,
      "Mal": 7017,
      "Main": 7018,
      "MOAN": 7019,
      "Native": 7020,
      "Power": 7021,
      "QX": 7022,
      "Sol": 7023,
      "Sta": 7024,
      "Sep": 7025,
      "Sally": 7026,
      "Source": 7027,
      "Tre": 7028,
      "Tot": 7029,
      "Tom": 7030,
      "Val": 7031,
      "Virtual": 7032,
      "cir": 7033,
      "cgi": 7034,
      "jump": 7035,
      "pis": 7036,
      "pen": 7037,
      "sad": 7038,
      "tun": 7039,
      "ఇస్తుంది": 7040,
      "ఇంగ్": 7041,
      "ఉధృ": 7042,
      "గజిబి": 7043,
      "జరుపు": 7044,
      "ధ్యా": 7045,
      "నై": 7046,
      "నట్లు": 7047,
      "బస్": 7048,
      "బమ్": 7049,
      "యము": 7050,
      "వడానికి": 7051,
      "ౌండు": 7052,
      "రుగ": 7053,
      "రుచి": 7054,
      "ond": 7055,
      "స్పా": 7056,
      "ర్తి": 7057,
      "meat": 7058,
      "mend": 7059,
      "ences": 7060,
      "కావలసి": 7061,
      "section": 7062,
      "hes": 7063,
      "చేరుకు": 7064,
      "మాయా": 7065,
      "assed": 7066,
      "యుక్త": 7067,
      "లాగా": 7068,
      "ప్రక్క": 7069,
      "ప్రదేశం": 7070,
      "సంభ": 7071,
      "idge": 7072,
      "కోణం": 7073,
      "likes": 7074,
      "చెం": 7075,
      "notification": 7076,
      "upon": 7077,
      "upper": 7078,
      "urry": 7079,
      "పోస్ట్": 7080,
      "deep": 7081,
      "ants": 7082,
      "within": 7083,
      "ఫ్లో": 7084,
      "trave": 7085,
      "nore": 7086,
      "డంప్": 7087,
      "స్టె": 7088,
      "gue": 7089,
      "explain": 7090,
      "మూలా": 7091,
      "perform": 7092,
      "వంటిది": 7093,
      "offic": 7094,
      "Confirm": 7095,
      "టెలి": 7096,
      "serve": 7097,
      "డౌన్‌": 7098,
      "హెచ్చ": 7099,
      "Need": 7100,
      "resolution": 7101,
      "చెప్తున్నా": 7102,
      "బోతోంది": 7103,
      "చర్చి": 7104,
      "అంశం": 7105,
      "grees": 7106,
      "draw": 7107,
      "blow": 7108,
      "తప్పుగా": 7109,
      "ESS": 7110,
      "Tray": 7111,
      "రంగులు": 7112,
      "ఎక్కువగా": 7113,
      "స్తున్నాయి": 7114,
      "వారిని": 7115,
      "php": 7116,
      "keeping": 7117,
      "ఆల్బమ్": 7118,
      "స్టాప్": 7119,
      "అభివృద్": 7120,
      "క్రియాశీ": 7121,
      "Something": 7122,
      "చివరిలో": 7123,
      "పెట్టండి": 7124,
      "shortcut": 7125,
      "డొమైన్": 7126,
      "సియాన్": 7127,
      "rather": 7128,
      "నడుపు": 7129,
      "ఫైర్": 7130,
      "చర్యలు": 7131,
      "ద్దాం": 7132,
      "దించిన": 7133,
      "స్క్రిప్టు": 7134,
      "Marvel": 7135,
      "జనరల్": 7136,
      "తున్నాయి": 7137,
      "చూపించడానికి": 7138,
      "GUNSHOT": 7139,
      "భాగస్వామ": 7140,
      "Failed": 7141,
      "Support": 7142,
      "టైపు": 7143,
      "activate": 7144,
      "David": 7145,
      "ఆసక్తికరమైన": 7146,
      "శీఘ్రమార్గ": 7147,
      "అత్యధిక": 7148,
      "ఉండేది": 7149,
      "scavs": 7150,
      "తెరిచి": 7151,
      "నిలిపివేయ": 7152,
      "విజయం": 7153,
      "FTP": 7154,
      "respons": 7155,
      "పట్టిక": 7156,
      "చేరడానికి": 7157,
      "రిపోర్": 7158,
      "రెగ్గీ": 7159,
      "variant": 7160,
      "CHEERING": 7161,
      "ఆకలితో": 7162,
      "ప్రోత్సహి": 7163,
      "నృత్యం": 7164,
      "Bumpty": 7165,
      "QXml": 7166,
      "గజిబిజి": 7167,
      "చెప్తున్నావు": 7168,
      "75": 7169,
      "700": 7170,
      "89": 7171,
      "Ama": 7172,
      "BC": 7173,
      "BREA": 7174,
      "CALL": 7175,
      "CLO": 7176,
      "CLAT": 7177,
      "DAY": 7178,
      "EAR": 7179,
      "Her": 7180,
      "Hor": 7181,
      "HUH": 7182,
      "Jane": 7183,
      "Mem": 7184,
      "Mary": 7185,
      "MATE": 7186,
      "NOR": 7187,
      "OVER": 7188,
      "Pet": 7189,
      "Pack": 7190,
      "Sic": 7191,
      "Tay": 7192,
      "Vic": 7193,
      "WAN": 7194,
      "_D": 7195,
      "babe": 7196,
      "dou": 7197,
      "dar": 7198,
      "dance": 7199,
      "during": 7200,
      "fail": 7201,
      "farm": 7202,
      "hun": 7203,
      "jail": 7204,
      "kin": 7205,
      "map": 7206,
      "pa": 7207,
      "snow": 7208,
      "slot": 7209,
      "spring": 7210,
      "tough": 7211,
      "treat": 7212,
      "ఇడియ": 7213,
      "ఎస్టేట్": 7214,
      "గిం": 7215,
      "ధరించి": 7216,
      "పసిక": 7217,
      "బృ": 7218,
      "బట్": 7219,
      "భో": 7220,
      "లౌ": 7221,
      "వసంత": 7222,
      "హై": 7223,
      "హై": 7224,
      "ుడి": 7225,
      "inx": 7226,
      "నివస": 7227,
      "ancial": 7228,
      "దివా": 7229,
      "దించుము": 7230,
      "మీడియా": 7231,
      "regu": 7232,
      "నాట": 7233,
      "నాణ": 7234,
      "ట్Name": 7235,
      "ముగ": 7236,
      "enabled": 7237,
      "star": 7238,
      "owers": 7239,
      "sex": 7240,
      "sey": 7241,
      "ల్యు": 7242,
      "వాయు": 7243,
      "గాడు": 7244,
      "విక": 7245,
      "విచ్ఛ": 7246,
      "across": 7247,
      "లాగు": 7248,
      "ప్రత్య": 7249,
      "ప్రభావ": 7250,
      "సంయుక్త": 7251,
      "డాలర్": 7252,
      "igi": 7253,
      "మేరీ": 7254,
      "advice": 7255,
      "force": 7256,
      "ute": 7257,
      "రంగం": 7258,
      "రంధ్": 7259,
      "abama": 7260,
      "బ్లో": 7261,
      "neigh": 7262,
      "రింగింగ్": 7263,
      "los": 7264,
      "debt": 7265,
      "ention": 7266,
      "టాస్": 7267,
      "టాకింగ్": 7268,
      "వ్వండి": 7269,
      "ఫ్లై": 7270,
      "trace": 7271,
      "worries": 7272,
      "bother": 7273,
      "OULD": 7274,
      "కలిగ": 7275,
      "వెళ్ళింది": 7276,
      "స్తాము": 7277,
      "కీఫే": 7278,
      "ists": 7279,
      "sole": 7280,
      "స్టై": 7281,
      "పరిహా": 7282,
      "సెక్స్": 7283,
      "రెంట్": 7284,
      "ession": 7285,
      "perfect": 7286,
      "preciate": 7287,
      "జిప్": 7288,
      "pleasure": 7289,
      "సర్దు": 7290,
      "hero": 7291,
      "ppy": 7292,
      "పేరును": 7293,
      "మోసం": 7294,
      "KDED": 7295,
      "లెర్": 7296,
      "ఉన్నప్పటికీ": 7297,
      "WHI": 7298,
      "ublic": 7299,
      "created": 7300,
      "పీరియన్స్": 7301,
      "spital": 7302,
      "cute": 7303,
      "setting": 7304,
      "drone": 7305,
      "రక్షించడానికి": 7306,
      "తప్పులు": 7307,
      "గలరా": 7308,
      "ఖాతా": 7309,
      "చిన్నది": 7310,
      "items": 7311,
      "గ్రాంట్": 7312,
      "Boom": 7313,
      "leaves": 7314,
      "Colts": 7315,
      "కోల్ట్స్": 7316,
      "క్లిష్ట": 7317,
      "flight": 7318,
      "Address": 7319,
      "ఉపయోగించే": 7320,
      "అభినంద": 7321,
      "Alabama": 7322,
      "present": 7323,
      "problems": 7324,
      "స్వంత": 7325,
      "కార్యదర్శి": 7326,
      "భావన": 7327,
      "టేలర్": 7328,
      "త్రాలను": 7329,
      "ఫీలింగ్": 7330,
      "IMP": 7331,
      "ప్రమాదం": 7332,
      "warm": 7333,
      "ఎక్స్పీరియన్స్": 7334,
      "తలుపును": 7335,
      "చీఫ్": 7336,
      "cops": 7337,
      "8080": 7338,
      "wonderful": 7339,
      "license": 7340,
      "య్యారు": 7341,
      "కళాశాల": 7342,
      "certain": 7343,
      "swing": 7344,
      "వృధా": 7345,
      "సరదా": 7346,
      "ధ్వనులు": 7347,
      "investment": 7348,
      "నొక్కండి": 7349,
      "folders": 7350,
      "క్రాస్": 7351,
      "drinking": 7352,
      "fixed": 7353,
      "అతిపెద్ద": 7354,
      "బలమైన": 7355,
      "పాత్రదారి": 7356,
      "bankrupt": 7357,
      "పోరాడ": 7358,
      "tricks": 7359,
      "Cameron": 7360,
      "collect": 7361,
      "Cortell": 7362,
      "అత్యవస": 7363,
      "మ్యాచ్": 7364,
      "invol": 7365,
      "Detective": 7366,
      "ఆలోచించడం": 7367,
      "requested": 7368,
      "Merry": 7369,
      "fetch": 7370,
      "bullshit": 7371,
      "ిన్నం": 7372,
      "SocketEngine": 7373,
      "Tennes": 7374,
      "profile": 7375,
      "links": 7376,
      "ఉంచుతుంది": 7377,
      "సంకేతపదము": 7378,
      "Khan": 7379,
      "Reggie": 7380,
      "అరుస్తుంటారు": 7381,
      "Follow": 7382,
      "అన్వేష": 7383,
      "annel": 7384,
      "dollars": 7385,
      "occurred": 7386,
      "ఆటిన్ల్": 7387,
      "APPLAU": 7388,
      "HONKING": 7389,
      "క్రెడి": 7390,
      "02i": 7391,
      "ఆసుపత్రి": 7392,
      "amazing": 7393,
      "reckon": 7394,
      "బాస్టర్డ్": 7395,
      "murder": 7396,
      "smell": 7397,
      "గరిష్ట": 7398,
      "గడియారం": 7399,
      "పానీయం": 7400,
      "WHIRRING": 7401,
      "ilitary": 7402,
      "Scheme": 7403,
      "కామెరాన్": 7404,
      "తీవ్రతతో": 7405,
      "మెదడు": 7406,
      "recogn": 7407,
      "సిసిలీ": 7408,
      "ఉధృతిని": 7409,
      "కావలసినంత": 7410,
      "Marvelton": 7411,
      "Amaz": 7412,
      "CLATTER": 7413,
      "Sicily": 7414,
      "Taylor": 7415,
      "WANNA": 7416,
      "పసికందు": 7417,
      "విచ్ఛిన్నం": 7418,
      "అభినందనలు": 7419,
      "Tennessee": 7420,
      "95": 7421,
      "::": 7422,
      "BI": 7423,
      "Ben": 7424,
      "BROW": 7425,
      "Cut": 7426,
      "Care": 7427,
      "CROW": 7428,
      "End": 7429,
      "French": 7430,
      "Ger": 7431,
      "Google": 7432,
      "Imag": 7433,
      "Lat": 7434,
      "Lar": 7435,
      "MiB": 7436,
      "Py": 7437,
      "Pop": 7438,
      "PRO": 7439,
      "Send": 7440,
      "Tha": 7441,
      "Vis": 7442,
      "War": 7443,
      "Ze": 7444,
      "bout": 7445,
      "fu": 7446,
      "fan": 7447,
      "hone": 7448,
      "hood": 7449,
      "jud": 7450,
      "oe": 7451,
      "rig": 7452,
      "suff": 7453,
      "var": 7454,
      "vie": 7455,
      "whether": 7456,
      "waste": 7457,
      "ంచే": 7458,
      "అస్పష్ట": 7459,
      "ఆస్": 7460,
      "ఆపా": 7461,
      "ఆత్మ": 7462,
      "కదులు": 7463,
      "చక్": 7464,
      "తగ్గ": 7465,
      "దడి": 7466,
      "దత్తా": 7467,
      "నమ్ము": 7468,
      "రష": 7469,
      "హరణ": 7470,
      "హరించు": 7471,
      "ered": 7472,
      "నిఘ": 7473,
      "నిన్న": 7474,
      "anbe": 7475,
      "ref": 7476,
      "రిగ్": 7477,
      "yout": 7478,
      "ller": 7479,
      "environment": 7480,
      "arian": 7481,
      "కారి": 7482,
      "కారుడు": 7483,
      "చేతు": 7484,
      "పురా": 7485,
      "icated": 7486,
      "లియో": 7487,
      "విద్య": 7488,
      "యిడ్": 7489,
      "లాన్": 7490,
      "లాండ్": 7491,
      "ప్రశా": 7492,
      "తిస్తుంది": 7493,
      "సందేశ": 7494,
      "సందడి": 7495,
      "ames": 7496,
      "ids": 7497,
      "దాహరణ": 7498,
      "rod": 7499,
      "పాలు": 7500,
      "lier": 7501,
      "మెక్": 7502,
      "West": 7503,
      "note": 7504,
      "shown": 7505,
      "loy": 7506,
      "Head": 7507,
      "lying": 7508,
      "peat": 7509,
      "ANE": 7510,
      "ించబడిన": 7511,
      "module": 7512,
      "ceed": 7513,
      "trigger": 7514,
      "sometimes": 7515,
      "apo": 7516,
      "appro": 7517,
      "configure": 7518,
      "ains": 7519,
      "పేల్": 7520,
      "focus": 7521,
      "సెకను": 7522,
      "ప్రామా": 7523,
      "ultit": 7524,
      "అనిపిస్తుంది": 7525,
      "prise": 7526,
      "Stan": 7527,
      "మోటి": 7528,
      "ester": 7529,
      "నెంట్": 7530,
      "ఆటName": 7531,
      "జెంట్": 7532,
      "బ్యాగ్": 7533,
      "parts": 7534,
      "Plasma": 7535,
      "sets": 7536,
      "నోటీసు": 7537,
      "సరికూర్": 7538,
      "blue": 7539,
      "strong": 7540,
      "వ్యాప్": 7541,
      "Grant": 7542,
      "Provid": 7543,
      "ప్యాక్": 7544,
      "గ్గర్": 7545,
      "COM": 7546,
      "bugs": 7547,
      "finally": 7548,
      "finish": 7549,
      "financial": 7550,
      "ఉపయోగించు": 7551,
      "Someone": 7552,
      "axis": 7553,
      "భ్రమ": 7554,
      "Playlist": 7555,
      "పెట్టాడు": 7556,
      "Backend": 7557,
      "పడింది": 7558,
      "turned": 7559,
      "అనువర్తన": 7560,
      "Robert": 7561,
      "వేయడానికి": 7562,
      "సృష్టించు": 7563,
      "స్థాపించుము": 7564,
      "plugins": 7565,
      "వైపు": 7566,
      "ప్రవేశపెట్టుము": 7567,
      "store": 7568,
      "sounds": 7569,
      "exists": 7570,
      "thanks": 7571,
      "కనపడలేదు": 7572,
      "widget": 7573,
      "choice": 7574,
      "effective": 7575,
      "ముగిసిన": 7576,
      "అడిగిన": 7577,
      "ప్రోజెక్టును": 7578,
      "Output": 7579,
      "bottom": 7580,
      "స్పీకర్లు": 7581,
      "అమరికలను": 7582,
      "స్నానం": 7583,
      "successfully": 7584,
      "వ్యక్తులు": 7585,
      "Cyan": 7586,
      "సార్వ": 7587,
      "FIRE": 7588,
      "విస్మరి": 7589,
      "పక్షులు": 7590,
      "డైమండ్ల": 7591,
      "తముజ్": 7592,
      "డబ్ల్యు": 7593,
      "పేర్కొ": 7594,
      "Filter": 7595,
      "ప్రోత్సహిస్తున్నారు": 7596,
      "Memory": 7597,
      "సరదాగా": 7598,
      "BROWN": 7599,
      "CROWD": 7600,
      "ప్రశాంత": 7601,
      "సందడిగల": 7602,
      "%.": 7603,
      "22": 7604,
      "32": 7605,
      "350": 7606,
      "650": 7607,
      "750": 7608,
      "Bel": 7609,
      "BRA": 7610,
      "BUS": 7611,
      "CRA": 7612,
      "Doug": 7613,
      "Hoo": 7614,
      "HAN": 7615,
      "Icon": 7616,
      "Icons": 7617,
      "KA": 7618,
      "Lam": 7619,
      "LPH": 7620,
      "Master": 7621,
      "NATE": 7622,
      "OTHER": 7623,
      "Port": 7624,
      "QNative": 7625,
      "Ren": 7626,
      "Riddle": 7627,
      "Sl": 7628,
      "Sn": 7629,
      "Sat": 7630,
      "Shere": 7631,
      "SES": 7632,
      "TY": 7633,
      "Ubuntu": 7634,
      "bust": 7635,
      "bound": 7636,
      "ca": 7637,
      "dom": 7638,
      "efe": 7639,
      "eating": 7640,
      "fit": 7641,
      "gth": 7642,
      "gas": 7643,
      "gam": 7644,
      "hung": 7645,
      "mp": 7646,
      "photo": 7647,
      "sitting": 7648,
      "virtual": 7649,
      "అవా": 7650,
      "అడ్": 7651,
      "ఆకు": 7652,
      "ఆసి": 7653,
      "ఉందని": 7654,
      "ఉదాహరణ": 7655,
      "ఎడ్డీ": 7656,
      "చై": 7657,
      "జబ్బు": 7658,
      "జ్యూ": 7659,
      "డని": 7660,
      "తిం": 7661,
      "ధీ": 7662,
      "నస్": 7663,
      "నకి": 7664,
      "నమూ": 7665,
      "పౌ": 7666,
      "పవర్": 7667,
      "పత్ర": 7668,
      "పశ్చి": 7669,
      "బట్ట": 7670,
      "మక్": 7671,
      "యజ": 7672,
      "రక్": 7673,
      "రర్": 7674,
      "వదులు": 7675,
      "సకు": 7676,
      "హర్": 7677,
      "హద్దు": 7678,
      "thon": 7679,
      "inactive": 7680,
      "రుద్ధ": 7681,
      "నికోల్": 7682,
      "నిరూప": 7683,
      "reached": 7684,
      "నాదగ్గర": 7685,
      "మీరుఒక": 7686,
      "thent": 7687,
      "నేర్": 7688,
      "డిన": 7689,
      "army": 7690,
      "కానర్": 7691,
      "separ": 7692,
      "ల్టర్": 7693,
      "డుకు": 7694,
      "చేరు": 7695,
      "చేతన": 7696,
      "చేర్చు": 7697,
      "పులి": 7698,
      "లిసా": 7699,
      "క్కో": 7700,
      "రాబర్ట్": 7701,
      "్యత": 7702,
      "విదేశీ": 7703,
      "as_": 7704,
      "bey": 7705,
      "యితీ": 7706,
      "etc": 7707,
      "amen": 7708,
      "డాక్టర్": 7709,
      "iginal": 7710,
      "idiot": 7711,
      "వుడ్": 7712,
      "మేకింగ్": 7713,
      "సిలాస్": 7714,
      "INESS": 7715,
      "church": 7716,
      "దానికి": 7717,
      "యాం": 7718,
      "యాదృ": 7719,
      "haps": 7720,
      "dope": 7721,
      "doors": 7722,
      "పాజ్": 7723,
      "near": 7724,
      "వేరు": 7725,
      "వేకి": 7726,
      "sheriff": 7727,
      "ury": 7728,
      "deli": 7729,
      "అనుభ": 7730,
      "రేజ్": 7731,
      "ించని": 7732,
      "olks": 7733,
      "రెలియా": 7734,
      "moon": 7735,
      "రోజర్": 7736,
      "తెలుస్తోంది": 7737,
      "therapy": 7738,
      "00D9": 7739,
      "ఉంచాలని": 7740,
      "terrible": 7741,
      "ఉన్నావు": 7742,
      "tip": 7743,
      "తంలో": 7744,
      "appoint": 7745,
      "స్థలా": 7746,
      "ంటున్న": 7747,
      "aint": 7748,
      "చేయబడ్డాయి": 7749,
      "చూడని": 7750,
      "పేద": 7751,
      "fox": 7752,
      "exc": 7753,
      "provid": 7754,
      "సెల": 7755,
      "quite": 7756,
      "జీవిం": 7757,
      "scare": 7758,
      "bleating": 7759,
      "ulation": 7760,
      "DELPH": 7761,
      "ATING": 7762,
      "pocket": 7763,
      "Goddamn": 7764,
      "Inactive": 7765,
      "Recent": 7766,
      "LED": 7767,
      "రూప్": 7768,
      "దీనికి": 7769,
      "core": 7770,
      "cold": 7771,
      "clu": 7772,
      "Connor": 7773,
      "డోర్": 7774,
      "letters": 7775,
      "angle": 7776,
      "ించాయి": 7777,
      "STOP": 7778,
      "బెర్": 7779,
      "లెగ్": 7780,
      "సైనిక": 7781,
      "reading": 7782,
      "కర్ర": 7783,
      "పీల్": 7784,
      "బోధ": 7785,
      "కరించారు": 7786,
      "పూర్త": 7787,
      "పూర్వ": 7788,
      "SHIT": 7789,
      "Brow": 7790,
      "ught": 7791,
      "2001": 7792,
      "2004": 7793,
      "loves": 7794,
      "ALLY": 7795,
      "భావిస్తున్నారు": 7796,
      "MUFF": 7797,
      "hospital": 7798,
      "Trust": 7799,
      "ఎవరైతే": 7800,
      "broke": 7801,
      "Ask": 7802,
      "ించేందుకు": 7803,
      "అమ్మే": 7804,
      "Keefe": 7805,
      "సూపర్": 7806,
      "Loading": 7807,
      "Juli": 7808,
      "Group": 7809,
      "కొనసాగు": 7810,
      "కొనసాగి": 7811,
      "keeps": 7812,
      "కోవటం": 7813,
      "స్టాన్": 7814,
      "నమ్మలేకపో": 7815,
      "Once": 7816,
      "త్తిడి": 7817,
      "అమర్చుము": 7818,
      "విశ్వాసం": 7819,
      "Author": 7820,
      "మధ్యమ": 7821,
      "ట్రాష్": 7822,
      "Prof": 7823,
      "Spec": 7824,
      "ందాం": 7825,
      "pected": 7826,
      "JOB": 7827,
      "lives": 7828,
      "అనువర్తనం": 7829,
      "అర్ధ": 7830,
      "అందువలన": 7831,
      "Actions": 7832,
      "Rock": 7833,
      "BABY": 7834,
      "బూట్లు": 7835,
      "జరగబోతోంది": 7836,
      "మూసివేయి": 7837,
      "బ్రేవో": 7838,
      "జూలియా": 7839,
      "కళాకారు": 7840,
      "నిజాయితీ": 7841,
      "మార్చబడింది": 7842,
      "రూపము": 7843,
      "weren": 7844,
      "ముఖ్యమైన": 7845,
      "వాస్తవ": 7846,
      "dreams": 7847,
      "tracks": 7848,
      "కాంతి": 7849,
      "BLOWING": 7850,
      "MMS": 7851,
      "relation": 7852,
      "ట్రక్": 7853,
      "ట్రస్ట్": 7854,
      "లనుకుంటున్నాను": 7855,
      "ండింగ్": 7856,
      "detect": 7857,
      "gestures": 7858,
      "ఫ్రెండ్": 7859,
      "nuke": 7860,
      "అసలైన": 7861,
      "టెర్రీ": 7862,
      "కదుల్": 7863,
      "నిలపడానికి": 7864,
      "cookies": 7865,
      "రహదారి": 7866,
      "లోడ్‌": 7867,
      "personal": 7868,
      "పొందాను": 7869,
      "Drag": 7870,
      "SSL": 7871,
      "NEED": 7872,
      "నియాName": 7873,
      "fellas": 7874,
      "వ్రాయండి": 7875,
      "Translation": 7876,
      "కావాలి": 7877,
      "పేజీలు": 7878,
      "OUND": 7879,
      "అవివేకి": 7880,
      "డార్సీ": 7881,
      "పట్టుకోడానికి": 7882,
      "writable": 7883,
      "కొలపడానికి": 7884,
      "బ్యాంకు": 7885,
      "ralia": 7886,
      "D900D9": 7887,
      "బంగారపు": 7888,
      "మెర్రీ": 7889,
      "picture": 7890,
      "వత్తుము": 7891,
      "తప్పిన": 7892,
      "machine": 7893,
      "వచ్చాం": 7894,
      "మందులు": 7895,
      "క్లాసిక్": 7896,
      "ప్రభుత్వం": 7897,
      "Activate": 7898,
      "ఎయిర్": 7899,
      "నివసిస్తున్నారు": 7900,
      "required": 7901,
      "BUZZ": 7902,
      "కృతజ్ఞతలు": 7903,
      "వదలివేయడానికి": 7904,
      "Nicole": 7905,
      "అభీష్ట": 7906,
      "BLUES": 7907,
      "bastard": 7908,
      "మేల్కొలపడానికి": 7909,
      "బాధ్యత": 7910,
      "Properties": 7911,
      "ఆస్ట్రెలియా": 7912,
      "తాత్కాలిక": 7913,
      "Australia": 7914,
      "knees": 7915,
      "కదిలే": 7916,
      "సంభాషణ": 7917,
      "ategory": 7918,
      "Williams": 7919,
      "నిర్ణయించు": 7920,
      "దివాలా": 7921,
      "ultitran": 7922,
      "BUSINESS": 7923,
      "QNativeSocketEngine": 7924,
      "జబ్బుపడిన": 7925,
      "పశ్చిమ": 7926,
      "DELPHINE": 7927,
      "MUFFLED": 7928,
      "నమ్మలేకపోతున్నాను": 7929,
      "'-": 7930,
      ".)": 7931,
      "900": 7932,
      "A1": 7933,
      "Dan": 7934,
      "DOU": 7935,
      "Dictionary": 7936,
      "Hit": 7937,
      "IBase": 7938,
      "JK": 7939,
      "Lie": 7940,
      "Line": 7941,
      "Ob": 7942,
      "QIBase": 7943,
      "Slate": 7944,
      "WN": 7945,
      "XMMS": 7946,
      "Zero": 7947,
      "catch": 7948,
      "dark": 7949,
      "hop": 7950,
      "ili": 7951,
      "nut": 7952,
      "ption": 7953,
      "rat": 7954,
      "sand": 7955,
      "sigh": 7956,
      "ubuntu": 7957,
      "vate": 7958,
      "wast": 7959,
      "అంచు": 7960,
      "ఇల్లు": 7961,
      "ఉనికి": 7962,
      "ఏడ్": 7963,
      "ఐచ్ఛిక": 7964,
      "టలేదు": 7965,
      "తృ": 7966,
      "దము": 7967,
      "నమో": 7968,
      "ఫలి": 7969,
      "మథ": 7970,
      "ళి": 7971,
      "thumb": 7972,
      "instru": 7973,
      "ania": 7974,
      "దించు": 7975,
      "క్లై": 7976,
      "reference": 7977,
      "leep": 7978,
      "దురదృ": 7979,
      "ట్రోల్": 7980,
      "కాప్": 7981,
      "ంటీ": 7982,
      "చేత": 7983,
      "చేర్": 7984,
      "మానులు": 7985,
      "గాన్": 7986,
      "చికా": 7987,
      "చిత్రాన్ని": 7988,
      "aling": 7989,
      "ప్రయో": 7990,
      "వుం": 7991,
      "టిక్": 7992,
      "ద్వి": 7993,
      "సిగ్": 7994,
      "కోలు": 7995,
      "uten": 7996,
      "యానిమే": 7997,
      "output": 7998,
      "weight": 7999,
      "మెటా": 8000,
      "మెజె": 8001,
      "onel": 8002,
      "చెడ్డ": 8003,
      "బాస్టియన్": 8004,
      "rie": 8005,
      "enta": 8006,
      "రెన్": 8007,
      "trash": 8008,
      "లనుకుంటే": 8009,
      "ంటువు": 8010,
      "auto": 8011,
      "ives": 8012,
      "కీగన్": 8013,
      "సమర్థ": 8014,
      "పేర్లు": 8015,
      "ilt": 8016,
      "హిల్": 8017,
      "Shadow": 8018,
      "names": 8019,
      "ప్రాధ": 8020,
      "కంపె": 8021,
      "prefer": 8022,
      "preview": 8023,
      "browser": 8024,
      "బడతాయి": 8025,
      "నిజం": 8026,
      "pping": 8027,
      "టెక్స్": 8028,
      "ఫాస్ట్": 8029,
      "otherwise": 8030,
      "విండోలను": 8031,
      "వెళ్తాడు": 8032,
      "2005": 8033,
      "written": 8034,
      "contents": 8035,
      "helping": 8036,
      "hole": 8037,
      "సరికూర్చు": 8038,
      "heading": 8039,
      "Forget": 8040,
      "దూర": 8041,
      "హంగే": 8042,
      "చేయాలనుకుంటున్నారా": 8043,
      "చెయ్యండి": 8044,
      "జేమ్స్": 8045,
      "Project": 8046,
      "=\\\\\\\\{": 8047,
      "ICE": 8048,
      "రింగ్స్": 8049,
      "సమాచార": 8050,
      "opening": 8051,
      "fair": 8052,
      "Sometimes": 8053,
      "పర్య": 8054,
      "అక్షరము": 8055,
      "మైనది": 8056,
      "భ్ర": 8057,
      "పెట్టే": 8058,
      "డైలాగ్": 8059,
      "raised": 8060,
      "LongDayName": 8061,
      "భావించాడు": 8062,
      "Roy": 8063,
      "స్టేట్స్": 8064,
      "సమాచారంName": 8065,
      "entered": 8066,
      "Editor": 8067,
      "నీలంcolor": 8068,
      "వచనమును": 8069,
      "network": 8070,
      "ఆధారిత": 8071,
      "freed": 8072,
      "పాయింట్లు": 8073,
      "మార్చుటకు": 8074,
      "Guys": 8075,
      "360x": 8076,
      "ప్రొఫైల్": 8077,
      "కోల్పోతారు": 8078,
      "విడ్జ": 8079,
      "wallet": 8080,
      "Feel": 8081,
      "quickly": 8082,
      "interesting": 8083,
      "calm": 8084,
      "Lady": 8085,
      "అరిచే": 8086,
      "ODBC": 8087,
      "మలచు": 8088,
      "ఆదేశము": 8089,
      "Under": 8090,
      "ట్రేస్": 8091,
      "DUKE": 8092,
      "Better": 8093,
      "పొడిగింపు": 8094,
      "rustling": 8095,
      "ఉత్ప": 8096,
      "నామము": 8097,
      "గ్రిడ్": 8098,
      "Feder": 8099,
      "లోతుగా": 8100,
      "యాక్సెస్": 8101,
      "శాస్త్రం": 8102,
      "risk": 8103,
      "BLARING": 8104,
      "సమర్ధవంతంగా": 8105,
      "distribution": 8106,
      "Value": 8107,
      "రిపోర్టర్": 8108,
      "నిఘంటువు": 8109,
      "esterday": 8110,
      "నమూనా": 8111,
      "మెజెంటా": 8112,
      "),": 8113,
      "Air": 8114,
      "Bu": 8115,
      "Burn": 8116,
      "CLY": 8117,
      "CJK": 8118,
      "DAR": 8119,
      "DRI": 8120,
      "Fue": 8121,
      "Gas": 8122,
      "Gent": 8123,
      "Gigg": 8124,
      "Hung": 8125,
      "Low": 8126,
      "MI": 8127,
      "MS": 8128,
      "Mor": 8129,
      "March": 8130,
      "OI": 8131,
      "Pen": 8132,
      "Pull": 8133,
      "Phon": 8134,
      "QPrint": 8135,
      "Russ": 8136,
      "San": 8137,
      "SAY": 8138,
      "TON": 8139,
      "Us": 8140,
      "VEN": 8141,
      "VATOR": 8142,
      "aim": 8143,
      "bomb": 8144,
      "due": 8145,
      "dump": 8146,
      "database": 8147,
      "gden": 8148,
      "groaning": 8149,
      "hic": 8150,
      "je": 8151,
      "ju": 8152,
      "lunch": 8153,
      "military": 8154,
      "normal": 8155,
      "pad": 8156,
      "za": 8157,
      "zlo": 8158,
      "అడ్డ": 8159,
      "ఇంట్": 8160,
      "ఇక్కడికి": 8161,
      "ఎడి": 8162,
      "ఎన్ని": 8163,
      "కర": 8164,
      "గలు": 8165,
      "గడి": 8166,
      "ఘటన": 8167,
      "జల": 8168,
      "తరి": 8169,
      "తైన": 8170,
      "తక్షణ": 8171,
      "దళా": 8172,
      "నడి": 8173,
      "బస్సు": 8174,
      "మింగ్": 8175,
      "వన్": 8176,
      "వని": 8177,
      "వలి": 8178,
      "‍ట్": 8179,
      "ermo": 8180,
      "క్కా": 8181,
      "ati": 8182,
      "ators": 8183,
      "రిగింది": 8184,
      "ప్టెం": 8185,
      "నాన్న": 8186,
      "నేర": 8187,
      "నేనుఈ": 8188,
      "దుపు": 8189,
      "ముద్దు": 8190,
      "ముయ్యి": 8191,
      "aries": 8192,
      "మాల్": 8193,
      "గాయ": 8194,
      "లేదని": 8195,
      "edge": 8196,
      "చికెన్": 8197,
      "విన్నారా": 8198,
      "ashed": 8199,
      "asses": 8200,
      "acting": 8201,
      "account": 8202,
      "లోతైన": 8203,
      "andom": 8204,
      "లాడు": 8205,
      "చ్చింది": 8206,
      "వుల": 8207,
      "గుణ": 8208,
      "గుల్": 8209,
      "టినెంట్": 8210,
      "కోపం": 8211,
      "సుగు": 8212,
      "weak": 8213,
      "wearing": 8214,
      "role": 8215,
      "roof": 8216,
      "పారి": 8217,
      "పాలెర్": 8218,
      "వెం": 8219,
      "వెన": 8220,
      "nty": 8221,
      "neck": 8222,
      "తాము": 8223,
      "తాకే": 8224,
      "చూపే": 8225,
      "బాట": 8226,
      "బాన్": 8227,
      "నీయ": 8228,
      "ందన": 8229,
      "dear": 8230,
      "riage": 8231,
      "కేసు": 8232,
      "movie": 8233,
      "గొన్నా": 8234,
      "గొణు": 8235,
      "feed": 8236,
      "ఫ్టినెంట్": 8237,
      "జాగా": 8238,
      "teach": 8239,
      "troo": 8240,
      "మైనది": 8241,
      "taught": 8242,
      "apist": 8243,
      "పెరిగా": 8244,
      "THIN": 8245,
      "చూడడానికి": 8246,
      "istan": 8247,
      "frame": 8248,
      "ured": 8249,
      "exper": 8250,
      "produ": 8251,
      "సెప్టెం": 8252,
      "ఎవరి": 8253,
      "తెలివైన": 8254,
      "పొందే": 8255,
      "anywhere": 8256,
      "వింత": 8257,
      "విందు": 8258,
      "previous": 8259,
      "జిల్": 8260,
      "Chief": 8261,
      "అవసరమైన": 8262,
      "Replace": 8263,
      "రూత్": 8264,
      "codes": 8265,
      "cokes": 8266,
      "కాల్చి": 8267,
      "ప్పటికే": 8268,
      "గోయింగ్": 8269,
      "ర్థి": 8270,
      "Debug": 8271,
      "పైకప్పు": 8272,
      "మోర్": 8273,
      "మోకు": 8274,
      "బెటర్": 8275,
      "ఫోటో": 8276,
      "కెమె": 8277,
      "ఎండ": 8278,
      "లెఫ్టినెంట్": 8279,
      "ఉన్నట్లు": 8280,
      "పట్టింపు": 8281,
      "crim": 8282,
      "earlier": 8283,
      "యేషన్": 8284,
      "joking": 8285,
      "SHE": 8286,
      "Brit": 8287,
      "విచారంగా": 8288,
      "విండోస్": 8289,
      "Beck": 8290,
      "ఆటలో": 8291,
      "ఫైళ్ళు": 8292,
      "ప్రయత్నిస్తున్నారు": 8293,
      "వెళ్లిన": 8294,
      "గ్రౌండు": 8295,
      "పంచ్": 8296,
      "memories": 8297,
      "arkplug": 8298,
      "హోస్ట్": 8299,
      "feels": 8300,
      "happening": 8301,
      "lesworth": 8302,
      "దృశ్య": 8303,
      "shows": 8304,
      "దూష": 8305,
      "దూరం": 8306,
      "broker": 8307,
      "ordad": 8308,
      "ప్లేయర్": 8309,
      "చిన్నప్పుడు": 8310,
      "Desk": 8311,
      "Exp": 8312,
      "బహుమతి": 8313,
      "strange": 8314,
      "Log": 8315,
      "Mancino": 8316,
      "values": 8317,
      "Grunts": 8318,
      "stops": 8319,
      "ప్యానల్": 8320,
      "nervous": 8321,
      "ఫోన్లో": 8322,
      "GOOD": 8323,
      "వార్త": 8324,
      "opened": 8325,
      "final": 8326,
      "ఇంటిలో": 8327,
      "reports": 8328,
      "సైన్యం": 8329,
      "Somebody": 8330,
      "ఫెదర్": 8331,
      "shoes": 8332,
      "జాబితాను": 8333,
      "center": 8334,
      "Fucking": 8335,
      "PID": 8336,
      "games": 8337,
      "onsoff": 8338,
      "KEEP": 8339,
      "drill": 8340,
      "పడకండి": 8341,
      "numb": 8342,
      "పరికరాలు": 8343,
      "గర్వ": 8344,
      "మొదలుపెట్టు": 8345,
      "planet": 8346,
      "clicking": 8347,
      "తలుపులు": 8348,
      "చీక": 8349,
      "ప్లస్": 8350,
      "వచనం": 8351,
      "పోలీస్": 8352,
      "imeter": 8353,
      "అదృశ్య": 8354,
      "uds": 8355,
      "అవుట్పుట్": 8356,
      "Actually": 8357,
      "Netscape": 8358,
      "burps": 8359,
      "arms": 8360,
      "COULD": 8361,
      "birds": 8362,
      "మూసివేసి": 8363,
      "య్యాడు": 8364,
      "closing": 8365,
      "share": 8366,
      "నూతన": 8367,
      "mistake": 8368,
      "దించారు": 8369,
      "Medium": 8370,
      "మార్పులను": 8371,
      "కల్ప": 8372,
      "శబ్దం": 8373,
      "pulled": 8374,
      "HAVE": 8375,
      "తీసివేయి": 8376,
      "investigation": 8377,
      "burned": 8378,
      "daddy": 8379,
      "ల్లులు": 8380,
      "ension": 8381,
      "రహస్": 8382,
      "172": 8383,
      "సంకేతాలు": 8384,
      "BEEPING": 8385,
      "పోరాటం": 8386,
      "promised": 8387,
      "Sparkplug": 8388,
      "సహజ": 8389,
      "అరెస్టు": 8390,
      "కోబ్రాకమాండర్": 8391,
      "వెళ్లండి": 8392,
      "తీసుకున్నట్లు": 8393,
      "ముక్కలు": 8394,
      "Smart": 8395,
      "పనిముట్టు": 8396,
      "PreviewDialog": 8397,
      "ఇంటర్నెట్": 8398,
      "సవరణ": 8399,
      "అమ్మకం": 8400,
      "చూస్తున్నాయి": 8401,
      "large": 8402,
      "ఆయుధం": 8403,
      "SOMETHING": 8404,
      "అబద్దం": 8405,
      "Brogden": 8406,
      "DMZ": 8407,
      "ప్లగ్‌": 8408,
      "ఎదుర్కోవటానికి": 8409,
      "సౌలభ": 8410,
      "ఫ్లాష్": 8411,
      "ELEVATOR": 8412,
      "Ready": 8413,
      "Policy": 8414,
      "అచేతనంచేయి": 8415,
      "జేబులో": 8416,
      "Duke": 8417,
      "immediately": 8418,
      "పోయాయి": 8419,
      "victim": 8420,
      "రాష్ట్ర": 8421,
      "వ్యవహరించే": 8422,
      "ఆఫీసు": 8423,
      "చనిపోయే": 8424,
      "జ్ఞాపకాలను": 8425,
      "DANIL": 8426,
      "Laszlo": 8427,
      "REVS": 8428,
      "అభినందిస్తున్నాము": 8429,
      "Kerik": 8430,
      "bunker": 8431,
      "ైందిName": 8432,
      "Palermo": 8433,
      "పగుళ్లు": 8434,
      "బాంబు": 8435,
      "apartment": 8436,
      "మొదలవుతుంది": 8437,
      "SQUEALING": 8438,
      "Tremo": 8439,
      "doubt": 8440,
      "ఇడియట్": 8441,
      "భోజనం": 8442,
      "నాణ్యత": 8443,
      "Zeus": 8444,
      "apolog": 8445,
      "ప్రామాణిక": 8446,
      "Lamonsoff": 8447,
      "hungry": 8448,
      "జ్యూస్": 8449,
      "Lieuten": 8450,
      "కంపెనీ": 8451,
      "CLYDE": 8452,
      "Gentlemen": 8453,
      "Gigglesworth": 8454,
      "QPrintPreviewDialog": 8455,
      "ఇంట్లో": 8456,
      "పాలెర్మోకు": 8457,
      "Lieutenant": 8458,
      ".,": 8459,
      "36": 8460,
      "Ali": 8461,
      "Bre": 8462,
      "Best": 8463,
      "Cance": 8464,
      "Dar": 8465,
      "Del": 8466,
      "Foc": 8467,
      "Greg": 8468,
      "Hide": 8469,
      "JUN": 8470,
      "James": 8471,
      "KDM": 8472,
      "KRunner": 8473,
      "Lon": 8474,
      "Lis": 8475,
      "Little": 8476,
      "Language": 8477,
      "NG": 8478,
      "Pink": 8479,
      "Pick": 8480,
      "Paper": 8481,
      "QODBC": 8482,
      "Sit": 8483,
      "Sof": 8484,
      "Too": 8485,
      "Um": 8486,
      "Used": 8487,
      "XML": 8488,
      "ao": 8489,
      "bis": 8490,
      "bul": 8491,
      "ded": 8492,
      "hol": 8493,
      "kn": 8494,
      "ns": 8495,
      "passed": 8496,
      "ron": 8497,
      "rain": 8498,
      "range": 8499,
      "tes": 8500,
      "tree": 8501,
      "uz": 8502,
      "une": 8503,
      "vator": 8504,
      "అట్": 8505,
      "అచ్చు": 8506,
      "అస్పష్టంగా": 8507,
      "ఆదేశా": 8508,
      "ఇవి": 8509,
      "ఈమెయిల్": 8510,
      "ఎము": 8511,
      "ఎమోటి": 8512,
      "ఒత్తిడి": 8513,
      "కట్ట": 8514,
      "కపోతే": 8515,
      "టౌన్": 8516,
      "తయా": 8517,
      "నడ": 8518,
      "పద్ధ": 8519,
      "పించే": 8520,
      "యొ": 8521,
      "సూర్": 8522,
      "ుత్": 8523,
      "‍ట్‌": 8524,
      "inj": 8525,
      "కుంది": 8526,
      "orge": 8527,
      "మాట": 8528,
      "మాధ్య": 8529,
      "న్నాయి": 8530,
      "విరమ": 8531,
      "విద్యా": 8532,
      "లోని": 8533,
      "alt": 8534,
      "సంచయం": 8535,
      "డారు": 8536,
      "వుంచు": 8537,
      "టికీ": 8538,
      "ada": 8539,
      "forman": 8540,
      "forward": 8541,
      "కొం": 8542,
      "oute": 8543,
      "west": 8544,
      "పాప": 8545,
      "పాన్": 8546,
      "వెంట్": 8547,
      "amp": 8548,
      "మెత్త": 8549,
      "సాయ": 8550,
      "వేటర్": 8551,
      "imal": 8552,
      "shift": 8553,
      "uplic": 8554,
      "usually": 8555,
      "unity": 8556,
      "టాగ్": 8557,
      "కేటా": 8558,
      "రోమ్": 8559,
      "celer": 8560,
      "జాబ్": 8561,
      "జాయ్": 8562,
      "mention": 8563,
      "హాట్": 8564,
      "worst": 8565,
      "illa": 8566,
      "మార్గాలు": 8567,
      "authent": 8568,
      "చేయవద్దు": 8569,
      "Comple": 8570,
      "commend": 8571,
      "endor": 8572,
      "background": 8573,
      "progress": 8574,
      "protocol": 8575,
      "icky": 8576,
      "ప్రతిమలు": 8577,
      "బుక్": 8578,
      "అనిప": 8579,
      "Restart": 8580,
      "Reload": 8581,
      "pract": 8582,
      "Stream": 8583,
      "తీసుకె": 8584,
      "Modif": 8585,
      "Deep": 8586,
      "akes": 8587,
      "డీల్": 8588,
      "ధిత": 8589,
      "ఎంపి": 8590,
      "ఎంComment": 8591,
      "లెన్స్": 8592,
      "Notification": 8593,
      "shoulda": 8594,
      "పీటర్": 8595,
      "SHH": 8596,
      "Bravo": 8597,
      "గీత": 8598,
      "uggest": 8599,
      "జెర్": 8600,
      "moved": 8601,
      "ంటారా": 8602,
      "uses": 8603,
      "యెల్": 8604,
      "specially": 8605,
      "ఇంజ": 8606,
      "అయిపొ": 8607,
      "Character": 8608,
      "ignment": 8609,
      "Load": 8610,
      "Management": 8611,
      "చెయ్యడం": 8612,
      "realize": 8613,
      "Colors": 8614,
      "Franc": 8615,
      "COP": 8616,
      "టోకాల్": 8617,
      "పార్ట్": 8618,
      "biggest": 8619,
      "అభికర్త": 8620,
      "అభిమానులు": 8621,
      "Always": 8622,
      "ఫెర్": 8623,
      "ఎంపికైందిName": 8624,
      "స్పందన": 8625,
      "organ": 8626,
      "అడుగుజాడ": 8627,
      "Mommy": 8628,
      "holding": 8629,
      "Step": 8630,
      "dealing": 8631,
      "MORE": 8632,
      "Viewer": 8633,
      "idden": 8634,
      "క్రమంలో": 8635,
      "మిగిలి": 8636,
      "VERY": 8637,
      "తీసివేయుము": 8638,
      "ఆటగాడి": 8639,
      "పొందాలి": 8640,
      "ధృవీ": 8641,
      "క్రీమ్": 8642,
      "ఎలివేటర్": 8643,
      "statement": 8644,
      "సమాచారమును": 8645,
      "సంప్రది": 8646,
      "కొనసాగించు": 8647,
      "Symbol": 8648,
      "connection": 8649,
      "ఆలస్యం": 8650,
      "Terminal": 8651,
      "completely": 8652,
      "pixel": 8653,
      "laughs": 8654,
      "iculous": 8655,
      "వినియోగదారి": 8656,
      "SVN": 8657,
      "susp": 8658,
      "కేంద్రం": 8659,
      "Burning": 8660,
      "Write": 8661,
      "Return": 8662,
      "automatically": 8663,
      "LOUD": 8664,
      "ఇంగ్లీ": 8665,
      "క్రియాశీలం": 8666,
      "భాగస్వామ్యం": 8667,
      "పురాతన": 8668,
      "ప్రశాంతంగా": 8669,
      "nuts": 8670,
      "sighs": 8671,
      "దురదృష్ట": 8672,
      "ప్రాధమిక": 8673,
      "హంగేరియన్": 8674,
      "QODBCResult": 8675,
      "అచ్చుతప్పులు": 8676,
      "formance": 8677,
      "అడుగుజాడల్లో": 8678,
      "050": 8679,
      "240": 8680,
      "31": 8681,
      "42": 8682,
      "450": 8683,
      "550": 8684,
      "950": 8685,
      "Agh": 8686,
      "Ava": 8687,
      "BR": 8688,
      "Bans": 8689,
      "Cat": 8690,
      "CAU": 8691,
      "Dol": 8692,
      "DNA": 8693,
      "Double": 8694,
      "EY": 8695,
      "Es": 8696,
      "Especially": 8697,
      "Fle": 8698,
      "Girl": 8699,
      "Global": 8700,
      "Hup": 8701,
      "Honey": 8702,
      "HEA": 8703,
      "HAND": 8704,
      "HUP": 8705,
      "JACK": 8706,
      "KSHO": 8707,
      "LF": 8708,
      "Law": 8709,
      "Paste": 8710,
      "PCI": 8711,
      "QDialog": 8712,
      "RUN": 8713,
      "Rog": 8714,
      "Ruth": 8715,
      "Sal": 8716,
      "Sil": 8717,
      "Sound": 8718,
      "Split": 8719,
      "Session": 8720,
      "TS": 8721,
      "Tar": 8722,
      "WAT": 8723,
      "YA": 8724,
      "aa": 8725,
      "aur": 8726,
      "ban": 8727,
      "bid": 8728,
      "bright": 8729,
      "bail": 8730,
      "batt": 8731,
      "bucks": 8732,
      "fans": 8733,
      "folks": 8734,
      "google": 8735,
      "hide": 8736,
      "kiss": 8737,
      "multiple": 8738,
      "pill": 8739,
      "patter": 8740,
      "push": 8741,
      "ric": 8742,
      "rings": 8743,
      "sin": 8744,
      "sne": 8745,
      "sol": 8746,
      "suck": 8747,
      "sword": 8748,
      "tally": 8749,
      "tiger": 8750,
      "uc": 8751,
      "zone": 8752,
      "అధ్": 8753,
      "అసాధారణ": 8754,
      "ఆగా": 8755,
      "ఆగి": 8756,
      "ఆంగ్": 8757,
      "ఆకులు": 8758,
      "ఆధు": 8759,
      "ఆకట్టు": 8760,
      "ఇప్పు": 8761,
      "ఇటా": 8762,
      "ఇయర్": 8763,
      "ఎలు": 8764,
      "ఎన్ను": 8765,
      "కబ్": 8766,
      "కన్ను": 8767,
      "గడానికి": 8768,
      "గలను": 8769,
      "డలు": 8770,
      "తన్నాడు": 8771,
      "నచ్చ": 8772,
      "పదు": 8773,
      "పౌండ్": 8774,
      "ఫల్": 8775,
      "ఫండ్": 8776,
      "బక్స్": 8777,
      "బల్లి": 8778,
      "మృ": 8779,
      "మనో": 8780,
      "మయిన": 8781,
      "మ్యు": 8782,
      "రలో": 8783,
      "వచన": 8784,
      "సత్వ": 8785,
      "హ్య": 8786,
      "హంత": 8787,
      "‌షీ": 8788,
      "thuds": 8789,
      "inting": 8790,
      "onse": 8791,
      "onna": 8792,
      "onard": 8793,
      "స్లో": 8794,
      "స్లా": 8795,
      "స్వచ్": 8796,
      "దిశ": 8797,
      "దిద్దు": 8798,
      "క్యు": 8799,
      "క్Name": 8800,
      "rem": 8801,
      "rection": 8802,
      "కుందే": 8803,
      "నార్డ్": 8804,
      "lled": 8805,
      "totally": 8806,
      "itical": 8807,
      "మునకు": 8808,
      "తుల": 8809,
      "తున్నారా": 8810,
      "hee": 8811,
      "heat": 8812,
      "వార": 8813,
      "వాయ్": 8814,
      "...\"": 8815,
      "లేట్": 8816,
      "లేదో": 8817,
      "రాయి": 8818,
      "రానికి": 8819,
      "రాళ్ళు": 8820,
      "రాణి": 8821,
      "otation": 8822,
      "విడి": 8823,
      "విసి": 8824,
      "విస్కీ": 8825,
      "esome": 8826,
      "యిప్పటికే": 8827,
      "లాగిన్": 8828,
      "ప్రతీ": 8829,
      "గ్నొ": 8830,
      "idence": 8831,
      "డ్లీ": 8832,
      "వున్నాను": 8833,
      "omo": 8834,
      "గురు": 8835,
      "సిల్": 8836,
      "మరియునేను": 8837,
      "చారి": 8838,
      "సున్ని": 8839,
      "కొడుకు": 8840,
      "దాయుము": 8841,
      "యాడు": 8842,
      "యాలని": 8843,
      "యార్క్": 8844,
      "abort": 8845,
      "abbit": 8846,
      "గిటార్": 8847,
      "బ్లై": 8848,
      "living": 8849,
      "liked": 8850,
      "amount": 8851,
      "మెయిన్": 8852,
      "వచ్చారు": 8853,
      "చెవులు": 8854,
      "సాడ్": 8855,
      "సామర్": 8856,
      "Wein": 8857,
      "వేశా": 8858,
      "వేళ్లు": 8859,
      "వేగాస్": 8860,
      "shanbe": 8861,
      "urance": 8862,
      "పోలి": 8863,
      "పొరుగు": 8864,
      "decl": 8865,
      "peg": 8866,
      "ించటం": 8867,
      "కేప్": 8868,
      "Item": 8869,
      "గొట్ట": 8870,
      "తెలుప": 8871,
      "placed": 8872,
      "ception": 8873,
      "truck": 8874,
      "truth": 8875,
      "ఉన్నారా": 8876,
      "gotten": 8877,
      "వలను": 8878,
      "వలయాలు": 8879,
      "tains": 8880,
      "తీర్": 8881,
      "రీతి": 8882,
      "atest": 8883,
      "appreciate": 8884,
      "పెంచు": 8885,
      "చేయబడిన": 8886,
      "చేయగలి": 8887,
      "దేవా": 8888,
      "inking": 8889,
      "పేలుడు": 8890,
      "ending": 8891,
      "హిప్": 8892,
      "సెన్": 8893,
      "ధాని": 8894,
      "grat": 8895,
      "quiet": 8896,
      "షిస్తున్నాము": 8897,
      "ప్రాణాలు": 8898,
      "scroll": 8899,
      "Info": 8900,
      "plenty": 8901,
      "అనుకుంటున్నారో": 8902,
      "రూట్": 8903,
      "రూమ్": 8904,
      "నిర్మ": 8905,
      "ORT": 8906,
      "Sea": 8907,
      "Secret": 8908,
      "కార్లు": 8909,
      "సేకరించ": 8910,
      "proud": 8911,
      "prison": 8912,
      "coding": 8913,
      "Style": 8914,
      "యూదా": 8915,
      "తీసుకోవడం": 8916,
      "మాట్లాడారు": 8917,
      "చేయుట": 8918,
      "itely": 8919,
      "హెలి": 8920,
      "tood": 8921,
      "బయటికి": 8922,
      "LIT": 8923,
      "LIFE": 8924,
      "playlist": 8925,
      "WHIMP": 8926,
      "cream": 8927,
      "ITCH": 8928,
      "బోబో": 8929,
      "బోర్డ్": 8930,
      "స్నేహం": 8931,
      "శిక్షణ": 8932,
      "Browser": 8933,
      "ugly": 8934,
      "బంచ్": 8935,
      "చంపు": 8936,
      "ఇవ్వడం": 8937,
      "minis": 8938,
      "బ్యాకప్": 8939,
      "షార్": 8940,
      "Plus": 8941,
      "జీవిత": 8942,
      "విషయంలో": 8943,
      "హోల్లో": 8944,
      "belt": 8945,
      "Trash": 8946,
      "standard": 8947,
      "ShortDayName": 8948,
      "Blank": 8949,
      "Blanch": 8950,
      "Keeg": 8951,
      "News": 8952,
      "మొదటిసారి": 8953,
      "సూది": 8954,
      "searching": 8955,
      "చెయ్యబడింది": 8956,
      "talked": 8957,
      "WEE": 8958,
      "Disabled": 8959,
      "Lee": 8960,
      "Leonard": 8961,
      "దేవుడు": 8962,
      "Boy": 8963,
      "Bobo": 8964,
      "checking": 8965,
      "కొనసాగే": 8966,
      "dude": 8967,
      "COBRA": 8968,
      "దొరుకు": 8969,
      "స్టాక్": 8970,
      "ఉత్తమం": 8971,
      "lloway": 8972,
      "భయపడు": 8973,
      "cents": 8974,
      "విశ్లే": 8975,
      "Holloway": 8976,
      "HEAD": 8977,
      "త్రాగడానికి": 8978,
      "Restore": 8979,
      "IMS": 8980,
      "bedroom": 8981,
      "వలెనా": 8982,
      "జతచేయి": 8983,
      "ancing": 8984,
      "600x600": 8985,
      "paying": 8986,
      "planning": 8987,
      "giving": 8988,
      "సుకుని": 8989,
      "సంతోషిస్తున్నాము": 8990,
      "కూర్చొ": 8991,
      "గెలు": 8992,
      "ledge": 8993,
      "BAG": 8994,
      "బూమ్": 8995,
      "Anything": 8996,
      "COUGHS": 8997,
      "త్వరలో": 8998,
      "ఎక్కి": 8999,
      "హీన": 9000,
      "surprise": 9001,
      "suppose": 9002,
      "signal": 9003,
      "కల్నల్": 9004,
      "JOE2": 9005,
      "pulling": 9006,
      "వేదికపై": 9007,
      "details": 9008,
      "అందించిన": 9009,
      "Att": 9010,
      "elevator": 9011,
      "వచ్చినప్పుడు": 9012,
      "priest": 9013,
      "priority": 9014,
      "పూజారి": 9015,
      "SPEAK": 9016,
      "కాలిబాట": 9017,
      "picked": 9018,
      "tember": 9019,
      "tempor": 9020,
      "EXCLA": 9021,
      "1440": 9022,
      "lands": 9023,
      "గమనిక": 9024,
      "తెరువండి": 9025,
      "భద్రత": 9026,
      "learned": 9027,
      "ఆహారం": 9028,
      "pieces": 9029,
      "ల్యూషన్": 9030,
      "స్ప్రింగ్బ్రేక్": 9031,
      "Magenta": 9032,
      "media": 9033,
      "అడిగారు": 9034,
      "చేసారు": 9035,
      "చేసారో": 9036,
      "న్యాయవాదులు": 9037,
      "అరెరె": 9038,
      "దగ్గుకు": 9039,
      "Applications": 9040,
      "చింతి": 9041,
      "విభజించవచ్చు": 9042,
      "అరిచారు": 9043,
      "Korean": 9044,
      "స్వీట్": 9045,
      "డార్లింగ్": 9046,
      "ridiculous": 9047,
      "animals": 9048,
      "మాదిరి": 9049,
      "గలిగే": 9050,
      "నియన్Name": 9051,
      "మార్చుముComment": 9052,
      "సూచిక": 9053,
      "సమ్మె": 9054,
      "weapons": 9055,
      "NUMBER": 9056,
      "chicken": 9057,
      "సాధనం": 9058,
      "sunny": 9059,
      "ButtonBox": 9060,
      "ఎదుర్కొ": 9061,
      "బ్రౌజర్": 9062,
      "beginning": 9063,
      "1998": 9064,
      "ABOUT": 9065,
      "కిచకిచ": 9066,
      "బ్లాంచ": 9067,
      "survive": 9068,
      "surviv": 9069,
      "తెలియజేయవచ్చు": 9070,
      "ticket": 9071,
      "చిహ్నము": 9072,
      "డెల్ఫిన్": 9073,
      "INDISTINCTLY": 9074,
      "బాధితుడు": 9075,
      "గట్టిగా": 9076,
      "లాగడం": 9077,
      "తిరుగుబోతు": 9078,
      "అనుమతించుము": 9079,
      "ఇటీవల": 9080,
      "dinner": 9081,
      "sniff": 9082,
      "village": 9083,
      "dangerous": 9084,
      "కుకీలను": 9085,
      "డ్రైవ్": 9086,
      "ఆధారపడి": 9087,
      "crime": 9088,
      "సరైన": 9089,
      "initial": 9090,
      "స్మైల్": 9091,
      "చెందిన": 9092,
      "పనిముట్లపట్టీ": 9093,
      "స్వేచ్ఛ": 9094,
      "విడుదల": 9095,
      "సాస్పదం": 9096,
      "సెకన్లు": 9097,
      "వైద్యుడు": 9098,
      "ruined": 9099,
      "deserve": 9100,
      "squeak": 9101,
      "drugs": 9102,
      "September": 9103,
      "Total": 9104,
      "pissed": 9105,
      "నిలిపివేయబడింది": 9106,
      "CLOSES": 9107,
      "Package": 9108,
      "బృందం": 9109,
      "రంధ్రం": 9110,
      "పరిహాసాస్పదం": 9111,
      "పోరాడటానికి": 9112,
      "involved": 9113,
      "APPLAUDING": 9114,
      "Careful": 9115,
      "honest": 9116,
      "అస్పష్టమయిన": 9117,
      "లియోనార్డ్": 9118,
      "COMMAN": 9119,
      "సార్వత్రి": 9120,
      "ఆసిడ్": 9121,
      "యాదృచ్ఛిక": 9122,
      "BUZZING": 9123,
      "QIBaseResult": 9124,
      "మథయాస్": 9125,
      "criminal": 9126,
      "చీకటి": 9127,
      "Focus": 9128,
      "JUNKSHO": 9129,
      "సంప్రదించండి": 9130,
      "Banshee": 9131,
      "Dolph": 9132,
      "QDialogButtonBox": 9133,
      "Roger": 9134,
      "ఆగాగు": 9135,
      "ఆధునిక": 9136,
      "ఇప్పుడే": 9137,
      "WHIMPERING": 9138,
      "హోల్లోవాయ్": 9139,
      "Blanchard": 9140,
      "Keegan": 9141,
      "దొరుకుతుందని": 9142,
      "కూర్చొని": 9143,
      "EXCLAIMS": 9144,
      "JUNKSHOW": 9145,
      "62": 9146,
      "Ain": 9147,
      "Action": 9148,
      "Ble": 9149,
      "Big": 9150,
      "Bah": 9151,
      "Bally": 9152,
      "Bast": 9153,
      "Cas": 9154,
      "City": 9155,
      "Cover": 9156,
      "East": 9157,
      "Fix": 9158,
      "Fore": 9159,
      "GA": 9160,
      "GG": 9161,
      "Half": 9162,
      "IDE": 9163,
      "Jet": 9164,
      "JANE": 9165,
      "MOU": 9166,
      "Path": 9167,
      "Rome": 9168,
      "Syn": 9169,
      "TP": 9170,
      "Vir": 9171,
      "XX": 9172,
      "_P": 9173,
      "base": 9174,
      "border": 9175,
      "ell": 9176,
      "eas": 9177,
      "ky": 9178,
      "ms": 9179,
      "mount": 9180,
      "mama": 9181,
      "scan": 9182,
      "sna": 9183,
      "tan": 9184,
      "tight": 9185,
      "via": 9186,
      "ఉర్": 9187,
      "ఉరి": 9188,
      "ఎండ్": 9189,
      "ఎంటర్": 9190,
      "కరించిన": 9191,
      "కడ్డి": 9192,
      "జొ": 9193,
      "టమి": 9194,
      "నమ్": 9195,
      "పటి": 9196,
      "పదాలు": 9197,
      "బహి": 9198,
      "భిన్న": 9199,
      "మంటారా": 9200,
      "యింపు": 9201,
      "రవు": 9202,
      "రమైన": 9203,
      "వరీ": 9204,
      "‌నందు": 9205,
      "ounce": 9206,
      "inst": 9207,
      "inte": 9208,
      "input": 9209,
      "inny": 9210,
      "ontal": 9211,
      "reme": 9212,
      "నాలను": 9213,
      "llar": 9214,
      "isle": 9215,
      "ency": 9216,
      "enrod": 9217,
      "డిల్": 9218,
      "ల్ఫ్": 9219,
      "held": 9220,
      "వాసి": 9221,
      "పుణ": 9222,
      "మాక్స్": 9223,
      "గార్": 9224,
      "...?": 9225,
      "icult": 9226,
      "్యన్": 9227,
      "విక్ర": 9228,
      "asic": 9229,
      "acity": 9230,
      "యువల్": 9231,
      "చుటకు": 9232,
      "లాంగ్": 9233,
      "కిటికీ": 9234,
      "సిస్": 9235,
      "fortun": 9236,
      "oop": 9237,
      "చాక్": 9238,
      "తెచ్చు": 9239,
      "పారు": 9240,
      "వెస్ట్": 9241,
      "amma": 9242,
      "తాన్ని": 9243,
      "చెవి": 9244,
      "సాయి": 9245,
      "improve": 9246,
      "ships": 9247,
      "unny": 9248,
      "unless": 9249,
      "dev": 9250,
      "delete": 9251,
      "goin": 9252,
      "ante": 9253,
      "టాన్": 9254,
      "Ital": 9255,
      "ష్Name": 9256,
      "feat": 9257,
      "felt": 9258,
      "tele": 9259,
      "contain": 9260,
      "concer": 9261,
      "వెళ్ళే": 9262,
      "వ్యర్థ": 9263,
      "aure": 9264,
      "వర్త": 9265,
      "వర్తిస్తుంది": 9266,
      "except": 9267,
      "extra": 9268,
      "ender": 9269,
      "ధాన్": 9270,
      "మూవ్": 9271,
      "ప్రాధాన్": 9272,
      "bles": 9273,
      "colate": 9274,
      "DES": 9275,
      "permission": 9276,
      "Dollar": 9277,
      "poor": 9278,
      "Channel": 9279,
      "plement": 9280,
      "సర్వర్": 9281,
      "buff": 9282,
      "రూస్": 9283,
      "రూపం": 9284,
      "డెక్": 9285,
      "coordin": 9286,
      "కాల్పు": 9287,
      "రోజులు": 9288,
      "izontal": 9289,
      "whenever": 9290,
      "themselves": 9291,
      "STO": 9292,
      "START": 9293,
      "BEAT": 9294,
      "బర్త్": 9295,
      "layout": 9296,
      "ఫోకస్": 9297,
      "ఎంతో": 9298,
      "ప్రారంభించింది": 9299,
      "మ్మడి": 9300,
      "లెండర్": 9301,
      "ఉన్నత": 9302,
      "తరగతి": 9303,
      "spot": 9304,
      "రమును": 9305,
      "keyword": 9306,
      "న్స్టా": 9307,
      "2006": 9308,
      "పంక్": 9309,
      "ISP": 9310,
      "content": 9311,
      "నోర్": 9312,
      "నోట్": 9313,
      "హోవర్": 9314,
      "ఇంజన్": 9315,
      "సరిచూడు": 9316,
      "Forward": 9317,
      "ఫిభ్ర": 9318,
      "texture": 9319,
      "Design": 9320,
      "Execut": 9321,
      "igned": 9322,
      "Job": 9323,
      "వారికి": 9324,
      "checked": 9325,
      "Grand": 9326,
      "Grid": 9327,
      "Process": 9328,
      "Cannot": 9329,
      "Colonel": 9330,
      "missions": 9331,
      "ctional": 9332,
      "flag": 9333,
      "flash": 9334,
      "కొనిన": 9335,
      "ఉపయోగించి": 9336,
      "reported": 9337,
      "కనిపి": 9338,
      "Setup": 9339,
      "కార్యక్ర": 9340,
      "kinda": 9341,
      "Special": 9342,
      "అంతటా": 9343,
      "డొమి": 9344,
      "stein": 9345,
      "rength": 9346,
      "compat": 9347,
      "వ్యవసాయ": 9348,
      "Code": 9349,
      "Active": 9350,
      "కుటుంబ": 9351,
      "మరలా": 9352,
      "లక్ష్య": 9353,
      "charge": 9354,
      "సహాయము": 9355,
      "నిర్ధారిం": 9356,
      "specific": 9357,
      "గతంలో": 9358,
      "కదుపు": 9359,
      "క్రిందికి": 9360,
      "రియల్లీ": 9361,
      "ప్రతిబింబమును": 9362,
      "క్లబ్": 9363,
      "క్లయింట్": 9364,
      "క్యాచీ": 9365,
      "steps": 9366,
      "ధృవ": 9367,
      "activated": 9368,
      "shutdown": 9369,
      "velope": 9370,
      "Minimize": 9371,
      "ప్రచురించు": 9372,
      "falling": 9373,
      "పెరుగుదల": 9374,
      "నియమ": 9375,
      "అనుసంధానం": 9376,
      "అనుసంధానము": 9377,
      "Sky": 9378,
      "స్వయంచాలకంగా": 9379,
      "దిగుమతిచేయి": 9380,
      "చేసుకుంది": 9381,
      "ముందుగానే": 9382,
      "నాయకులు": 9383,
      "filter": 9384,
      "పరుచు": 9385,
      "జంతువులు": 9386,
      "January": 9387,
      "received": 9388,
      "Library": 9389,
      "crying": 9390,
      "అధికారిక": 9391,
      "York": 9392,
      "బన్‌షీ": 9393,
      "మెమొరి": 9394,
      "ఇతరులు": 9395,
      "నవీకరణ": 9396,
      "Direct": 9397,
      "Artist": 9398,
      "recently": 9399,
      "associ": 9400,
      "డాల్ఫిన్": 9401,
      "జీవితాలను": 9402,
      "Hyper": 9403,
      "స్ట్రీట్": 9404,
      "Speaker": 9405,
      "అచేతనమైన": 9406,
      "రష్యన్": 9407,
      "విద్యుత్": 9408,
      "యజమాని": 9409,
      "Profile": 9410,
      "Hungarian": 9411,
      "DeskJet": 9412,
      "ఇంగ్లీష్": 9413,
      "remote": 9414,
      "Virgin": 9415,
      "ఫిభ్రవరి": 9416,
      "+\\\\\\\\": 9417,
      ".\\\\": 9418,
      "764": 9419,
      "://": 9420,
      "Awal": 9421,
      "AKA": 9422,
      "Bot": 9423,
      "BILL": 9424,
      "Cot": 9425,
      "Cus": 9426,
      "Cord": 9427,
      "EM": 9428,
      "Gio": 9429,
      "Hand": 9430,
      "Had": 9431,
      "Higg": 9432,
      "IAN": 9433,
      "Jac": 9434,
      "Jinx": 9435,
      "Kl": 9436,
      "Lor": 9437,
      "Live": 9438,
      "Mis": 9439,
      "Must": 9440,
      "Pak": 9441,
      "Pale": 9442,
      "PUT": 9443,
      "Person": 9444,
      "Public": 9445,
      "Ra": 9446,
      "Riz": 9447,
      "RAY": 9448,
      "Sto": 9449,
      "Scare": 9450,
      "Sounds": 9451,
      "TEN": 9452,
      "Touch": 9453,
      "Tupper": 9454,
      "UM": 9455,
      "Vio": 9456,
      "WAS": 9457,
      "bat": 9458,
      "cab": 9459,
      "category": 9460,
      "dut": 9461,
      "duration": 9462,
      "dates": 9463,
      "dumb": 9464,
      "ease": 9465,
      "fut": 9466,
      "fur": 9467,
      "fugly": 9468,
      "gal": 9469,
      "gain": 9470,
      "hint": 9471,
      "hund": 9472,
      "iate": 9473,
      "ians": 9474,
      "jour": 9475,
      "mu": 9476,
      "mber": 9477,
      "nart": 9478,
      "nsel": 9479,
      "oot": 9480,
      "pal": 9481,
      "pup": 9482,
      "punch": 9483,
      "rank": 9484,
      "rabbit": 9485,
      "sis": 9486,
      "swi": 9487,
      "satell": 9488,
      "vable": 9489,
      "vanna": 9490,
      "x720": 9491,
      "zips": 9492,
      "అలె": 9493,
      "అవాల్": 9494,
      "ఆఖ": 9495,
      "ఆడు": 9496,
      "ఎక్సె": 9497,
      "ఏమను": 9498,
      "ఐవన్నా": 9499,
      "ఓల్డ్": 9500,
      "కౌన్": 9501,
      "గృ": 9502,
      "చక్క": 9503,
      "చడం": 9504,
      "టచ్": 9505,
      "ధైర్": 9506,
      "నడవ": 9507,
      "బలం": 9508,
      "భవిష": 9509,
      "మస": 9510,
      "మంద": 9511,
      "మచ్చ": 9512,
      "మవుతుంది": 9513,
      "యవంతమైన": 9514,
      "రయ్యారు": 9515,
      "లన": 9516,
      "లించు": 9517,
      "వడ": 9518,
      "వనె": 9519,
      "శై": 9520,
      "షల్": 9521,
      "సబ్‌": 9522,
      "ాల": 9523,
      "‌పుట్": 9524,
      "insert": 9525,
      "రుణాలు": 9526,
      "నిస్": 9527,
      "నివ్వండి": 9528,
      "స్ల": 9529,
      "స్లీ": 9530,
      "మీన్": 9531,
      "క్రే": 9532,
      "ర్యా": 9533,
      "ర్తన": 9534,
      "rec": 9535,
      "rep": 9536,
      "ret": 9537,
      "reposit": 9538,
      "ప్‌": 9539,
      "నారిం": 9540,
      "నాడీ": 9541,
      "మీరుఈ": 9542,
      "orf": 9543,
      "నేటి": 9544,
      "నేరం": 9545,
      "ism": 9546,
      "iser": 9547,
      "నేనుఒక": 9548,
      "itself": 9549,
      "itions": 9550,
      "ముగు": 9551,
      "ened": 9552,
      "ench": 9553,
      "enem": 9554,
      "sta": 9555,
      "sten": 9556,
      "strength": 9557,
      "కాస్ట్": 9558,
      "కావాలని": 9559,
      "కాళ్లు": 9560,
      "కాయలు": 9561,
      "sever": 9562,
      "ల్యా": 9563,
      "డుపు": 9564,
      "తులను": 9565,
      "వాన్ని": 9566,
      "వాన్న": 9567,
      "చేతనం": 9568,
      "మాయలు": 9569,
      "లేవనె": 9570,
      "త్రాల": 9571,
      "చివ్": 9572,
      "చిక్కు": 9573,
      "చిత్రీ": 9574,
      "icate": 9575,
      "లిక": 9576,
      "లిఫా": 9577,
      "రాయ్": 9578,
      "oticon": 9579,
      "్యత్తు": 9580,
      "విరిగిన": 9581,
      "విదూష": 9582,
      "acy": 9583,
      "acon": 9584,
      "beer": 9585,
      "betal": 9586,
      "behavior": 9587,
      "beacon": 9588,
      "లోన్": 9589,
      "alk": 9590,
      "చుట్టు": 9591,
      "లాటిన్": 9592,
      "ప్రై": 9593,
      "సంచ": 9594,
      "సందర్శ": 9595,
      "సందేశం": 9596,
      "సంహరించు": 9597,
      "డాల": 9598,
      "వుంటే": 9599,
      "టికెట్": 9600,
      "addit": 9601,
      "formed": 9602,
      "kept": 9603,
      "న్నె": 9604,
      "chak": 9605,
      "కొవ్వు": 9606,
      "కొమ్ము": 9607,
      "దాట": 9608,
      "దార్": 9609,
      "దారులు": 9610,
      "అతడు": 9611,
      "గితే": 9612,
      "weather": 9613,
      "బ్లే": 9614,
      "బ్రె": 9615,
      "lif": 9616,
      "lir": 9617,
      "చూపాలని": 9618,
      "చెల్లి": 9619,
      "సాయం": 9620,
      "సాక్ష": 9621,
      "వేళ": 9622,
      "వేడు": 9623,
      "వేలం": 9624,
      "shar": 9625,
      "shall": 9626,
      "shop": 9627,
      "shirt": 9628,
      "ural": 9629,
      "irty": 9630,
      "usion": 9631,
      "తోబు": 9632,
      "పిల": 9633,
      "పిచ్చి": 9634,
      "units": 9635,
      "పోయిం": 9636,
      "పోవడం": 9637,
      "devices": 9638,
      "devil": 9639,
      "మైళ్ళ": 9640,
      "rior": 9641,
      "అనుమానం": 9642,
      "కేషన్": 9643,
      "రెష్": 9644,
      "రోగ్": 9645,
      "ఫ్లీ": 9646,
      "జాకెట్": 9647,
      "tea": 9648,
      "ఉండు": 9649,
      "ఉన్నాయా": 9650,
      "somethin": 9651,
      "మంత్రి": 9652,
      "పెంగ్": 9653,
      "artist": 9654,
      "మార్పి": 9655,
      "ONLY": 9656,
      "contains": 9657,
      "చేయబో": 9658,
      "కీర్తన": 9659,
      "manually": 9660,
      "management": 9661,
      "వర్డు": 9662,
      "socket": 9663,
      "inks": 9664,
      "శాండ్": 9665,
      "While": 9666,
      "బిల్": 9667,
      "బిలీ": 9668,
      "పేక": 9669,
      "స్టింగ్": 9670,
[...]
