{
  "version": "1.0",
  "truncation": null,
  "padding": null,
  "added_tokens": [
    {
      "id": 0,
      "content": "[UNK]",
      "single_word": false,
      "lstrip": false,
      "rstrip": false,
      "normalized": false,
      "special": true
    },
    {
      "id": 1,
      "content": "[PAD]",
      "single_word": false,
      "lstrip": false,
      "rstrip": false,
      "normalized": false,
      "special": true
    },
    {
      "id": 2,
      "content": "[SOS]",
      "single_word": false,
      "lstrip": false,
      "rstrip": false,
      "normalized": false,
      "special": true
    },
    {
      "id": 3,
      "content": "[EOS]",
      "single_word": false,
      "lstrip": false,
      "rstrip": false,
      "normalized": false,
      "special": true
    }
  ],
  "normalizer": null,
  "pre_tokenizer": {
    "type": "Whitespace"
  },
  "post_processor": null,
  "decoder": null,
  "model": {
    "type": "BPE",
    "dropout": null,
    "unk_token": "[UNK]",
    "continuing_subword_prefix": null,
    "end_of_word_suffix": null,
    "fuse_unk": false,
    "byte_fallback": false,
    "ignore_merges": false,
    "vocab": {
      "[UNK]": 0,
      "[PAD]": 1,
      "[SOS]": 2,
      "[EOS]": 3,
      "!": 4,
      "\"": 5,
      "#": 6,
      "$": 7,
      "%": 8,
      "&": 9,
      "'": 10,
      "(": 11,
      ")": 12,
      "*": 13,
      "+": 14,
      ",": 15,
      "-": 16,
      ".": 17,
      "/": 18,
      "0": 19,
      "1": 20,
      "2": 21,
      "3": 22,
      "4": 23,
      "5": 24,
      "6": 25,
      "7": 26,
      "8": 27,
      "9": 28,
      ":": 29,
      "<": 30,
      "=": 31,
      ">": 32,
      "?": 33,
      "@": 34,
      "A": 35,
      "B": 36,
      "C": 37,
      "D": 38,
      "E": 39,
      "F": 40,
      "G": 41,
      "H": 42,
      "I": 43,
      "J": 44,
      "K": 45,
      "L": 46,
      "M": 47,
      "N": 48,
      "O": 49,
      "P": 50,
      "Q": 51,
      "R": 52,
      "S": 53,
      "T": 54,
      "U": 55,
      "V": 56,
      "W": 57,
      "X": 58,
      "Y": 59,
      "Z": 60,
      "[": 61,
      "\\": 62,
      "]": 63,
      "^": 64,
      "_": 65,
      "`": 66,
      "a": 67,
      "b": 68,
      "c": 69,
      "d": 70,
      "e": 71,
      "f": 72,
      "g": 73,
      "h": 74,
      "i": 75,
      "j": 76,
      "k": 77,
      "l": 78,
      "m": 79,
      "n": 80,
      "o": 81,
      "p": 82,
      "q": 83,
      "r": 84,
      "s": 85,
      "t": 86,
      "u": 87,
      "v": 88,
      "w": 89,
      "x": 90,
      "y": 91,
      "z": 92,
      "{": 93,
      "|": 94,
      "}": 95,
      "~": 96,
      "¡": 97,
      "£": 98,
      "¤": 99,
      "§": 100,
      "¨": 101,
      "©": 102,
      "«": 103,
      "¬": 104,
      "­": 105,
      "®": 106,
      "¯": 107,
      "°": 108,
      "±": 109,
      "²": 110,
      "³": 111,
      "´": 112,
      "µ": 113,
      "¶": 114,
      "·": 115,
      "¸": 116,
      "¹": 117,
      "º": 118,
      "»": 119,
      "¼": 120,
      "½": 121,
      "¿": 122,
      "Ä": 123,
      "Å": 124,
      "Æ": 125,
      "È": 126,
      "É": 127,
      "Ê": 128,
      "Ô": 129,
      "Ö": 130,
      "×": 131,
      "Ù": 132,
      "Û": 133,
      "ß": 134,
      "à": 135,
      "á": 136,
      "â": 137,
      "ã": 138,
      "ä": 139,
      "æ": 140,
      "ç": 141,
      "è": 142,
      "é": 143,
      "ë": 144,
      "í": 145,
      "ð": 146,
      "ñ": 147,
      "ò": 148,
      "ó": 149,
      "ô": 150,
      "ö": 151,
      "ø": 152,
      "ú": 153,
      "û": 154,
      "ü": 155,
      "ā": 156,
      "ć": 157,
      "Č": 158,
      "č": 159,
      "ē": 160,
      "ĕ": 161,
      "ę": 162,
      "ī": 163,
      "ł": 164,
      "ń": 165,
      "ņ": 166,
      "ŋ": 167,
      "ō": 168,
      "Œ": 169,
      "œ": 170,
      "ř": 171,
      "Ś": 172,
      "ś": 173,
      "ş": 174,
      "Š": 175,
      "ū": 176,
      "ž": 177,
      "ǧ": 178,
      "ǵ": 179,
      "ɑ": 180,
      "ɒ": 181,
      "ɔ": 182,
      "ɖ": 183,
      "ə": 184,
      "ɛ": 185,
      "ɜ": 186,
      "ɡ": 187,
      "ɪ": 188,
      "ɻ": 189,
      "ʒ": 190,
      "ʰ": 191,
      "ʹ": 192,
      "ˈ": 193,
      "ˌ": 194,
      "ː": 195,
      "ˑ": 196,
      "˚": 197,
      "́": 198,
      "̪": 199,
      "Α": 200,
      "Δ": 201,
      "Μ": 202,
      "Τ": 203,
      "Ω": 204,
      "ά": 205,
      "ή": 206,
      "ί": 207,
      "α": 208,
      "β": 209,
      "γ": 210,
      "ε": 211,
      "ζ": 212,
      "η": 213,
      "θ": 214,
      "ι": 215,
      "κ": 216,
      "μ": 217,
      "ν": 218,
      "ξ": 219,
      "ο": 220,
      "π": 221,
      "ρ": 222,
      "ς": 223,
      "σ": 224,
      "τ": 225,
      "υ": 226,
      "φ": 227,
      "ψ": 228,
      "ω": 229,
      "ό": 230,
      "ύ": 231,
      "ϕ": 232,
      "Ϙ": 233,
      "Ϝ": 234,
      "В": 235,
      "И": 236,
      "К": 237,
      "Л": 238,
      "М": 239,
      "О": 240,
      "П": 241,
      "Р": 242,
      "Э": 243,
      "а": 244,
      "в": 245,
      "г": 246,
      "д": 247,
      "е": 248,
      "ж": 249,
      "з": 250,
      "и": 251,
      "й": 252,
      "к": 253,
      "л": 254,
      "м": 255,
      "н": 256,
      "о": 257,
      "п": 258,
      "р": 259,
      "с": 260,
      "т": 261,
      "у": 262,
      "ш": 263,
      "ы": 264,
      "я": 265,
      "ғ": 266,
      "қ": 267,
      "Դ": 268,
      "Ե": 269,
      "Հ": 270,
      "Յ": 271,
      "Ջ": 272,
      "ա": 273,
      "գ": 274,
      "դ": 275,
      "ե": 276,
      "զ": 277,
      "թ": 278,
      "ի": 279,
      "խ": 280,
      "կ": 281,
      "հ": 282,
      "մ": 283,
      "յ": 284,
      "ն": 285,
      "շ": 286,
      "ո": 287,
      "պ": 288,
      "ռ": 289,
      "ս": 290,
      "վ": 291,
      "տ": 292,
      "ր": 293,
      "ց": 294,
      "ւ": 295,
      "և": 296,
      "ְ": 297,
      "ַ": 298,
      "ָ": 299,
      "א": 300,
      "ב": 301,
      "ה": 302,
      "ם": 303,
      "ר": 304,
      "آ": 305,
      "ؤ": 306,
      "ئ": 307,
      "ا": 308,
      "ب": 309,
      "ة": 310,
      "ت": 311,
      "ج": 312,
      "ح": 313,
      "خ": 314,
      "د": 315,
      "ر": 316,
      "ز": 317,
      "س": 318,
      "ش": 319,
      "ص": 320,
      "ض": 321,
      "ع": 322,
      "غ": 323,
      "ق": 324,
      "ك": 325,
      "ل": 326,
      "م": 327,
      "ن": 328,
      "ه": 329,
      "و": 330,
      "ى": 331,
      "ي": 332,
      "َ": 333,
      "ُ": 334,
      "ِ": 335,
      "ْ": 336,
      "پ": 337,
      "چ": 338,
      "ک": 339,
      "گ": 340,
      "ں": 341,
      "ھ": 342,
      "ہ": 343,
      "ی": 344,
      "ے": 345,
      "ँ": 346,
      "ं": 347,
      "अ": 348,
      "आ": 349,
      "इ": 350,
      "उ": 351,
      "ओ": 352,
      "क": 353,
      "ख": 354,
      "ग": 355,
      "घ": 356,
      "च": 357,
      "ज": 358,
      "ञ": 359,
      "ट": 360,
      "ड": 361,
      "ण": 362,
      "त": 363,
      "थ": 364,
      "द": 365,
      "ध": 366,
      "न": 367,
      "प": 368,
      "ब": 369,
      "भ": 370,
      "म": 371,
      "य": 372,
      "र": 373,
      "ल": 374,
      "व": 375,
      "श": 376,
      "ष": 377,
      "स": 378,
      "ह": 379,
      "़": 380,
      "ा": 381,
      "ि": 382,
      "ी": 383,
      "ु": 384,
      "ू": 385,
      "ृ": 386,
      "े": 387,
      "ै": 388,
      "ो": 389,
      "ौ": 390,
      "्": 391,
      "ड़": 392,
      "।": 393,
      "॥": 394,
      "॰": 395,
      "অ": 396,
      "ক": 397,
      "ঘ": 398,
      "জ": 399,
      "ত": 400,
      "দ": 401,
      "ধ": 402,
      "ন": 403,
      "প": 404,
      "ব": 405,
      "ভ": 406,
      "ম": 407,
      "য": 408,
      "র": 409,
      "ল": 410,
      "স": 411,
      "হ": 412,
      "া": 413,
      "ি": 414,
      "ু": 415,
      "ে": 416,
      "্": 417,
      "ਅ": 418,
      "ਆ": 419,
      "ਕ": 420,
      "ਖ": 421,
      "ਗ": 422,
      "ਘ": 423,
      "ਜ": 424,
      "ਝ": 425,
      "ਤ": 426,
      "ਪ": 427,
      "ਬ": 428,
      "ਮ": 429,
      "ਰ": 430,
      "ਲ": 431,
      "ਵ": 432,
      "਼": 433,
      "ਾ": 434,
      "ੀ": 435,
      "ੁ": 436,
      "ੰ": 437,
      "ੱ": 438,
      "ઉ": 439,
      "ક": 440,
      "છ": 441,
      "ટ": 442,
      "ત": 443,
      "દ": 444,
      "પ": 445,
      "ભ": 446,
      "મ": 447,
      "ર": 448,
      "લ": 449,
      "વ": 450,
      "સ": 451,
      "ા": 452,
      "િ": 453,
      "ુ": 454,
      "ે": 455,
      "ો": 456,
      "્": 457,
      "ଅ": 458,
      "ଓ": 459,
      "ଡ": 460,
      "ଶ": 461,
      "଼": 462,
      "ା": 463,
      "ି": 464,
      "ஆ": 465,
      "ஏ": 466,
      "க": 467,
      "த": 468,
      "ந": 469,
      "ப": 470,
      "ம": 471,
      "ய": 472,
      "ர": 473,
      "ற": 474,
      "ல": 475,
      "ள": 476,
      "வ": 477,
      "ஸ": 478,
      "ா": 479,
      "ி": 480,
      "ீ": 481,
      "ு": 482,
      "ூ": 483,
      "ே": 484,
      "ை": 485,
      "ோ": 486,
      "்": 487,
      "ఁ": 488,
      "ం": 489,
      "ః": 490,
      "అ": 491,
      "ఆ": 492,
      "ఇ": 493,
      "ఈ": 494,
      "ఉ": 495,
      "ఊ": 496,
      "ఋ": 497,
      "ఎ": 498,
      "ఏ": 499,
      "ఐ": 500,
      "఑": 501,
      "ఒ": 502,
      "ఓ": 503,
      "ఔ": 504,
      "క": 505,
      "ఖ": 506,
      "గ": 507,
      "ఘ": 508,
      "ఙ": 509,
      "చ": 510,
      "ఛ": 511,
      "జ": 512,
      "ఝ": 513,
      "ఞ": 514,
      "ట": 515,
      "ఠ": 516,
      "డ": 517,
      "ఢ": 518,
      "ణ": 519,
      "త": 520,
      "థ": 521,
      "ద": 522,
      "ధ": 523,
      "న": 524,
      "ప": 525,
      "ఫ": 526,
      "బ": 527,
      "భ": 528,
      "మ": 529,
      "య": 530,
      "ర": 531,
      "ఱ": 532,
      "ల": 533,
      "ళ": 534,
      "వ": 535,
      "శ": 536,
      "ష": 537,
      "స": 538,
      "హ": 539,
      "ఽ": 540,
      "ా": 541,
      "ి": 542,
      "ీ": 543,
      "ు": 544,
      "ూ": 545,
      "ృ": 546,
      "ౄ": 547,
      "ె": 548,
      "ే": 549,
      "ై": 550,
      "౉": 551,
      "ొ": 552,
      "ో": 553,
      "ౌ": 554,
      "్": 555,
      "ౕ": 556,
      "ౖ": 557,
      "ౙ": 558,
      "ౠ": 559,
      "౦": 560,
      "౧": 561,
      "౨": 562,
      "౩": 563,
      "౪": 564,
      "౫": 565,
      "౬": 566,
      "౭": 567,
      "౮": 568,
      "౯": 569,
      "ಂ": 570,
      "ಇ": 571,
      "ಕ": 572,
      "ಗ": 573,
      "ಚ": 574,
      "ಜ": 575,
      "ಟ": 576,
      "ಡ": 577,
      "ಣ": 578,
      "ತ": 579,
      "ದ": 580,
      "ನ": 581,
      "ಪ": 582,
      "ಮ": 583,
      "ಯ": 584,
      "ರ": 585,
      "ಲ": 586,
      "ಳ": 587,
      "ವ": 588,
      "ಶ": 589,
      "ಾ": 590,
      "ಿ": 591,
      "ೀ": 592,
      "ು": 593,
      "ೂ": 594,
      "ೆ": 595,
      "ೇ": 596,
      "್": 597,
      "ം": 598,
      "ക": 599,
      "ട": 600,
      "ത": 601,
      "ര": 602,
      "ള": 603,
      "ഴ": 604,
      "ശ": 605,
      "ാ": 606,
      "ി": 607,
      "ൂ": 608,
      "ൃ": 609,
      "േ": 610,
      "ൊ": 611,
      "ോ": 612,
      "്": 613,
      "ງ": 614,
      "ດ": 615,
      "ທ": 616,
      "ປ": 617,
      "ມ": 618,
      "ລ": 619,
      "ວ": 620,
      "ອ": 621,
      "ະ": 622,
      "າ": 623,
      "ື": 624,
      "ເ": 625,
      "་": 626,
      "།": 627,
      "ག": 628,
      "ཐ": 629,
      "ཕ": 630,
      "མ": 631,
      "ི": 632,
      "ུ": 633,
      "ទ": 634,
      "ន": 635,
      "ប": 636,
      "ល": 637,
      "ស": 638,
      "ា": 639,
      "េ": 640,
      "្": 641,
      "ḍ": 642,
      "ḏ": 643,
      "ḥ": 644,
      "ḷ": 645,
      "Ἀ": 646,
      "ἰ": 647,
      "​": 648,
      "‌": 649,
      "‍": 650,
      "‎": 651,
      "‏": 652,
      "‑": 653,
      "–": 654,
      "—": 655,
      "‘": 656,
      "’": 657,
      "“": 658,
      "”": 659,
      "‡": 660,
      "•": 661,
      "․": 662,
      "…": 663,
      "‪": 664,
      "′": 665,
      "″": 666,
      "‹": 667,
      "›": 668,
      "⁂": 669,
      "⁄": 670,
      "⁠": 671,
      "⁡": 672,
      "₂": 673,
      "₣": 674,
      "€": 675,
      "₹": 676,
      "№": 677,
      "™": 678,
      "⅓": 679,
      "←": 680,
      "↑": 681,
      "→": 682,
      "↓": 683,
      "⇒": 684,
      "⇔": 685,
      "⇨": 686,
      "∆": 687,
      "∇": 688,
      "∑": 689,
      "−": 690,
      "∗": 691,
      "∘": 692,
      "∙": 693,
      "∠": 694,
      "∼": 695,
      "≈": 696,
      "≠": 697,
      "≤": 698,
      "⊕": 699,
      "⍟": 700,
      "■": 701,
      "□": 702,
      "▪": 703,
      "△": 704,
      "►": 705,
      "▾": 706,
      "◆": 707,
      "○": 708,
      "●": 709,
      "◘": 710,
      "★": 711,
      "☆": 712,
      "☘": 713,
      "♠": 714,
      "♥": 715,
      "♦": 716,
      "♪": 717,
      "♯": 718,
      "⚝": 719,
      "⚹": 720,
      "✍": 721,
      "✓": 722,
      "✔": 723,
      "✦": 724,
      "✧": 725,
      "✪": 726,
      "✭": 727,
      "✯": 728,
      "✶": 729,
      "✹": 730,
      "✺": 731,
      "❂": 732,
      "❉": 733,
      "❋": 734,
      "❏": 735,
      "❑": 736,
      "❖": 737,
      "❝": 738,
      "❤": 739,
      "➢": 740,
      "➤": 741,
      "➥": 742,
      "➦": 743,
      "⦁": 744,
      "⦾": 745,
      "え": 746,
      "つ": 747,
      "の": 748,
      "も": 749,
      "ア": 750,
      "イ": 751,
      "カ": 752,
      "コ": 753,
      "ズ": 754,
      "チ": 755,
      "ナ": 756,
      "ニ": 757,
      "パ": 758,
      "ベ": 759,
      "メ": 760,
      "ョ": 761,
      "リ": 762,
      "ン": 763,
      "ー": 764,
      "中": 765,
      "亡": 766,
      "人": 767,
      "份": 768,
      "信": 769,
      "偵": 770,
      "名": 771,
      "命": 772,
      "国": 773,
      "恋": 774,
      "情": 775,
      "愛": 776,
      "戀": 777,
      "探": 778,
      "日": 779,
      "早": 780,
      "暗": 781,
      "本": 782,
      "標": 783,
      "殺": 784,
      "毒": 785,
      "焉": 786,
      "甘": 787,
      "电": 788,
      "番": 789,
      "的": 790,
      "目": 791,
      "瞳": 792,
      "緣": 793,
      "者": 794,
      "耆": 795,
      "茲": 796,
      "街": 797,
      "话": 798,
      "身": 799,
      "霊": 800,
      "龜": 801,
      "": 802,
      "": 803,
      "": 804,
      "": 805,
      "": 806,
      "﻿": 807,
      "𐎠": 808,
      "𐎥": 809,
      "𐎭": 810,
      "𐎼": 811,
      "🌅": 812,
      "😉": 813,
      "😊": 814,
      "😍": 815,
      "🙂": 816,
      "🥰": 817,
      "󠁢": 818,
      "󠁥": 819,
      "󠁧": 820,
      "󠁮": 821,
      "󠁿": 822,
      "he": 823,
      "in": 824,
      "ార": 825,
      "re": 826,
      "an": 827,
      "్ర": 828,
      "ని": 829,
      "the": 830,
      "న్": 831,
      "on": 832,
      "స్": 833,
      "er": 834,
      "ంద": 835,
      "is": 836,
      "ర్": 837,
      "at": 838,
      "లు": 839,
      "ed": 840,
      "en": 841,
      "లో": 842,
      "కు": 843,
      "al": 844,
      "as": 845,
      "ar": 846,
      "్య": 847,
      "es": 848,
      "or": 849,
      "ను": 850,
      "it": 851,
      "ిం": 852,
      "ారు": 853,
      "క్": 854,
      "ల్": 855,
      "గా": 856,
      "న్న": 857,
      "to": 858,
      "and": 859,
      "ంది": 860,
      "ప్ర": 861,
      "ing": 862,
      "ou": 863,
      "of": 864,
      "ట్": 865,
      "th": 866,
      "il": 867,
      "వి": 868,
      "ించ": 869,
      "ic": 870,
      "రి": 871,
      "తు": 872,
      "ాల": 873,
      "చే": 874,
      "The": 875,
      "st": 876,
      "ion": 877,
      "డు": 878,
      "le": 879,
      "త్": 880,
      "కి": 881,
      "మా": 882,
      "ent": 883,
      "ro": 884,
      "డి": 885,
      "సి": 886,
      "ad": 887,
      "రు": 888,
      "టి": 889,
      "ంత": 890,
      "కా": 891,
      "be": 892,
      "రా": 893,
      "యి": 894,
      "ప్": 895,
      "id": 896,
      "సు": 897,
      "am": 898,
      "వా": 899,
      "తి": 900,
      "ve": 901,
      "చి": 902,
      "లి": 903,
      "ac": 904,
      "టు": 905,
      "దు": 906,
      "ము": 907,
      "se": 908,
      "ది": 909,
      "om": 910,
      "నా": 911,
      "ార్": 912,
      "ద్": 913,
      "నే": 914,
      "కో": 915,
      "ver": 916,
      "పు": 917,
      "ha": 918,
      "nd": 919,
      "ol": 920,
      "యా": 921,
      "లా": 922,
      "for": 923,
      "గు": 924,
      "ంగా": 925,
      "are": 926,
      "ter": 927,
      "సం": 928,
      "ay": 929,
      "im": 930,
      "పో": 931,
      "ot": 932,
      "ండ": 933,
      "పా": 934,
      "ct": 935,
      "ly": 936,
      "we": 937,
      "లే": 938,
      "res": 939,
      "ir": 940,
      "ంలో": 941,
      "తో": 942,
      "స్తు": 943,
      "త్ర": 944,
      "న్ని": 945,
      "ur": 946,
      "న్నారు": 947,
      "ష్": 948,
      "కొ": 949,
      "మి": 950,
      "డా": 951,
      "ch": 952,
      "చ్": 953,
      "దే": 954,
      "్యా": 955,
      "et": 956,
      "ill": 957,
      "ation": 958,
      "ab": 959,
      "ంట": 960,
      "క్ష": 961,
      "డ్": 962,
      "కే": 963,
      "ak": 964,
      "ow": 965,
      "has": 966,
      "దా": 967,
      "గ్": 968,
      "వు": 969,
      "us": 970,
      "ించి": 971,
      "ut": 972,
      "ig": 973,
      "తా": 974,
      "వే": 975,
      "న్నా": 976,
      "\"\"": 977,
      "ag": 978,
      "el": 979,
      "od": 980,
      "తె": 981,
      "tr": 982,
      "ందు": 983,
      "was": 984,
      "రో": 985,
      "యు": 986,
      "నికి": 987,
      "కూ": 988,
      "సా": 989,
      "లీ": 990,
      "నీ": 991,
      "మె": 992,
      "ment": 993,
      "de": 994,
      "తీ": 995,
      "ce": 996,
      "that": 997,
      "పి": 998,
      "so": 999,
      "టీ": 1000,
      "his": 1001,
      "పె": 1002,
      "చె": 1003,
      "ul": 1004,
      "మీ": 1005,
      "con": 1006,
      "ith": 1007,
      "com": 1008,
      "పై": 1009,
      "గి": 1010,
      "pro": 1011,
      "ారి": 1012,
      "శా": 1013,
      "lo": 1014,
      "un": 1015,
      "ho": 1016,
      "pe": 1017,
      "స్థ": 1018,
      "ers": 1019,
      "మ్": 1020,
      "ain": 1021,
      "బా": 1022,
      "దీ": 1023,
      "క్క": 1024,
      "by": 1025,
      "్రి": 1026,
      "est": 1027,
      "ia": 1028,
      "all": 1029,
      "ప్ప": 1030,
      "our": 1031,
      "ధి": 1032,
      "have": 1033,
      "with": 1034,
      "ate": 1035,
      "ైన": 1036,
      "He": 1037,
      "ne": 1038,
      "న్‌": 1039,
      "not": 1040,
      "Ind": 1041,
      "hi": 1042,
      "su": 1043,
      "will": 1044,
      "this": 1045,
      "వె": 1046,
      "ap": 1047,
      "చు": 1048,
      "యం": 1049,
      "00": 1050,
      "ice": 1051,
      "red": 1052,
      "te": 1053,
      "ts": 1054,
      "రె": 1055,
      "fe": 1056,
      "pl": 1057,
      "fil": 1058,
      "hat": 1059,
      "ther": 1060,
      "mo": 1061,
      "ri": 1062,
      "ళ్": 1063,
      "వీ": 1064,
      "ష్ట": 1065,
      "తే": 1066,
      "di": 1067,
      "రూ": 1068,
      "మో": 1069,
      "op": 1070,
      "లను": 1071,
      "ండి": 1072,
      "మే": 1073,
      "li": 1074,
      "సీ": 1075,
      "స్‌": 1076,
      "ల్లో": 1077,
      "ించారు": 1078,
      "um": 1079,
      "లకు": 1080,
      "film": 1081,
      "గ్ర": 1082,
      "over": 1083,
      "కార": 1084,
      "ర్‌": 1085,
      "ld": 1086,
      "భార": 1087,
      "ంతో": 1088,
      "art": 1089,
      "one": 1090,
      "కూడా": 1091,
      "sa": 1092,
      "ధా": 1093,
      "వర": 1094,
      "ra": 1095,
      "పీ": 1096,
      "me": 1097,
      "వం": 1098,
      "దేశ": 1099,
      "20": 1100,
      "త్త": 1101,
      "ies": 1102,
      "్‌": 1103,
      "po": 1104,
      "మరి": 1105,
      "జీ": 1106,
      "జా": 1107,
      "నిర్": 1108,
      "ట్ట": 1109,
      "ong": 1110,
      "పరి": 1111,
      "సిని": 1112,
      "inis": 1113,
      "rom": 1114,
      "భా": 1115,
      "లేదు": 1116,
      "sh": 1117,
      "ఒక": 1118,
      "been": 1119,
      "out": 1120,
      "ద్ద": 1121,
      "కె": 1122,
      "సినిమా": 1123,
      "ex": 1124,
      "వచ్": 1125,
      "It": 1126,
      "నం": 1127,
      "from": 1128,
      "హా": 1129,
      "చేయ": 1130,
      "said": 1131,
      "వ్య": 1132,
      "were": 1133,
      "ప్పు": 1134,
      "also": 1135,
      "జి": 1136,
      "రం": 1137,
      "up": 1138,
      "చేసి": 1139,
      "ల్ల": 1140,
      "యో": 1141,
      "యన": 1142,
      "ang": 1143,
      "ాలి": 1144,
      "igh": 1145,
      "ట్లు": 1146,
      "you": 1147,
      "తెలి": 1148,
      "ess": 1149,
      "అయి": 1150,
      "స్త": 1151,
      "స్ట": 1152,
      "sp": 1153,
      "ial": 1154,
      "ంచి": 1155,
      "ారా": 1156,
      "vi": 1157,
      "Ra": 1158,
      "wor": 1159,
      "మార్": 1160,
      "ity": 1161,
      "డం": 1162,
      "బ్": 1163,
      "ంద్ర": 1164,
      "do": 1165,
      "మరియు": 1166,
      "ింగ్": 1167,
      "మంత": 1168,
      "ధ్య": 1169,
      "మైన": 1170,
      "inister": 1171,
      "pol": 1172,
      "ల్‌": 1173,
      "రే": 1174,
      "వర్": 1175,
      "India": 1176,
      "ant": 1177,
      "ident": 1178,
      "du": 1179,
      "సుకు": 1180,
      "కీ": 1181,
      "qu": 1182,
      "క్ర": 1183,
      "పోలీ": 1184,
      "శారు": 1185,
      "న్నాయి": 1186,
      "act": 1187,
      "శ్": 1188,
      "ించిన": 1189,
      "inc": 1190,
      "Rs": 1191,
      "ఇది": 1192,
      "oun": 1193,
      "ఆయన": 1194,
      "రీ": 1195,
      "any": 1196,
      "ారం": 1197,
      "per": 1198,
      "రాజ": 1199,
      "తం": 1200,
      "హి": 1201,
      "ప్రా": 1202,
      "har": 1203,
      "ంటు": 1204,
      "ందుకు": 1205,
      "ef": 1206,
      "ive": 1207,
      "This": 1208,
      "end": 1209,
      "భు": 1210,
      "ంధ": 1211,
      "బి": 1212,
      "ress": 1213,
      "సె": 1214,
      "ort": 1215,
      "అత": 1216,
      "dis": 1217,
      "cas": 1218,
      "వై": 1219,
      "Pr": 1220,
      "మొ": 1221,
      "పోలీసు": 1222,
      "av": 1223,
      "In": 1224,
      "పూ": 1225,
      "ime": 1226,
      "ould": 1227,
      "చిత్ర": 1228,
      "But": 1229,
      "బీ": 1230,
      "ction": 1231,
      "మంత్రి": 1232,
      "బు": 1233,
      "పే": 1234,
      "మూ": 1235,
      "వారి": 1236,
      "శ్ర": 1237,
      "ాలా": 1238,
      "దర్": 1239,
      "ok": 1240,
      "విష": 1241,
      "ంచ": 1242,
      "no": 1243,
      "iv": 1244,
      "తన": 1245,
      "wh": 1246,
      "అని": 1247,
      "ఉంది": 1248,
      "స్థా": 1249,
      "ఆర్": 1250,
      "overn": 1251,
      "ian": 1252,
      "ట్‌": 1253,
      "ఖ్య": 1254,
      "డీ": 1255,
      "ట్టు": 1256,
      "had": 1257,
      "చూ": 1258,
      "సే": 1259,
      "go": 1260,
      "wo": 1261,
      "19": 1262,
      "కర": 1263,
      "ke": 1264,
      "ud": 1265,
      "ated": 1266,
      "అవ": 1267,
      "ష్ట్ర": 1268,
      "ist": 1269,
      "పొ": 1270,
      "med": 1271,
      "నె": 1272,
      "చేశారు": 1273,
      "\"\"\"": 1274,
      "Minister": 1275,
      "ll": 1276,
      "సమ": 1277,
      "ard": 1278,
      "జు": 1279,
      "ప్రభు": 1280,
      "ఎం": 1281,
      "very": 1282,
      "ద్య": 1283,
      "pp": 1284,
      "..": 1285,
      "ణా": 1286,
      "వ్": 1287,
      "ous": 1288,
      "und": 1289,
      "em": 1290,
      "ren": 1291,
      "if": 1292,
      "gh": 1293,
      "part": 1294,
      "ప్రభుత్": 1295,
      "మంది": 1296,
      "overnment": 1297,
      "Ch": 1298,
      "రిగి": 1299,
      "ome": 1300,
      "other": 1301,
      "తర": 1302,
      "చాలా": 1303,
      "ంటి": 1304,
      "రాష్ట్ర": 1305,
      "అధి": 1306,
      "అయితే": 1307,
      "జే": 1308,
      "ాలను": 1309,
      "స్తున్నారు": 1310,
      "ide": 1311,
      "pr": 1312,
      "What": 1313,
      "ఉన్న": 1314,
      "సమా": 1315,
      "ust": 1316,
      "day": 1317,
      "అను": 1318,
      "ట్టి": 1319,
      "ఉండ": 1320,
      "ంటే": 1321,
      "తోంది": 1322,
      "ame": 1323,
      "కానీ": 1324,
      "police": 1325,
      "భి": 1326,
      "స్తా": 1327,
      "రుగు": 1328,
      "can": 1329,
      "ople": 1330,
      "ులు": 1331,
      "పోలీసులు": 1332,
      "ప్రధా": 1333,
      "au": 1334,
      ".\"": 1335,
      "her": 1336,
      "క్కు": 1337,
      "There": 1338,
      "ించింది": 1339,
      "టన": 1340,
      "జ్": 1341,
      "age": 1342,
      "కాం": 1343,
      "టా": 1344,
      "కేసు": 1345,
      "cro": 1346,
      "య్య": 1347,
      "ట్ల": 1348,
      "cted": 1349,
      "off": 1350,
      "త్య": 1351,
      "పార్": 1352,
      "దర్శ": 1353,
      "ple": 1354,
      "ight": 1355,
      "ప్పటి": 1356,
      "vie": 1357,
      "ge": 1358,
      "man": 1359,
      "ind": 1360,
      "reg": 1361,
      "af": 1362,
      "ast": 1363,
      "lead": 1364,
      "్రా": 1365,
      "aw": 1366,
      "డానికి": 1367,
      "చర్": 1368,
      "ev": 1369,
      "its": 1370,
      "నుంచి": 1371,
      "tak": 1372,
      "ict": 1373,
      "టె": 1374,
      "వ్యా": 1375,
      "gr": 1376,
      "their": 1377,
      "them": 1378,
      "కాల": 1379,
      "han": 1380,
      "పూర్": 1381,
      "వల": 1382,
      "ail": 1383,
      "ure": 1384,
      "స్తున్న": 1385,
      "cent": 1386,
      "They": 1387,
      "మన": 1388,
      "coun": 1389,
      "ine": 1390,
      "పాటు": 1391,
      "co": 1392,
      "ack": 1393,
      "అంత": 1394,
      "వాత": 1395,
      "కం": 1396,
      "ted": 1397,
      "లక్ష": 1398,
      "స్తుంది": 1399,
      "hed": 1400,
      "ary": 1401,
      "డే": 1402,
      "ear": 1403,
      "ఆమె": 1404,
      "people": 1405,
      "JP": 1406,
      "కోవ": 1407,
      "ep": 1408,
      "యూ": 1409,
      "pos": 1410,
      "now": 1411,
      "తుంది": 1412,
      "ans": 1413,
      "government": 1414,
      "ించు": 1415,
      "తెలు": 1416,
      "హో": 1417,
      "esh": 1418,
      "ఫ్": 1419,
      "కోసం": 1420,
      "BJP": 1421,
      "10": 1422,
      "కలి": 1423,
      "ఇం": 1424,
      "port": 1425,
      "టర్": 1426,
      "bo": 1427,
      "ప్రతి": 1428,
      "ace": 1429,
      "లోని": 1430,
      "ఎస్": 1431,
      "ions": 1432,
      "గొ": 1433,
      "ree": 1434,
      "ండు": 1435,
      "ాలని": 1436,
      "వారు": 1437,
      "బంధ": 1438,
      "ib": 1439,
      "మర": 1440,
      "త్రి": 1441,
      "స్ప": 1442,
      "అంద": 1443,
      "ations": 1444,
      "him": 1445,
      "అనే": 1446,
      "ater": 1447,
      "చెప్ప": 1448,
      "షన్": 1449,
      "work": 1450,
      "ముఖ్య": 1451,
      "ore": 1452,
      "there": 1453,
      "they": 1454,
      "ించా": 1455,
      "two": 1456,
      "ish": 1457,
      "St": 1458,
      "కార్య": 1459,
      "నేను": 1460,
      "der": 1461,
      "fir": 1462,
      "ich": 1463,
      "cial": 1464,
      "ప్పుడు": 1465,
      "కల": 1466,
      "mb": 1467,
      "జె": 1468,
      "ctor": 1469,
      "కర్": 1470,
      "ంబ": 1471,
      "thing": 1472,
      "ical": 1473,
      "Cong": 1474,
      "new": 1475,
      "about": 1476,
      "who": 1477,
      "under": 1478,
      "ath": 1479,
      "మని": 1480,
      "గో": 1481,
      "wever": 1482,
      "try": 1483,
      "ందని": 1484,
      "ough": 1485,
      "ఎలా": 1486,
      "cr": 1487,
      "ound": 1488,
      "సర": 1489,
      "క్‌": 1490,
      "Congress": 1491,
      "again": 1492,
      "amil": 1493,
      "As": 1494,
      "ann": 1495,
      "ence": 1496,
      "ank": 1497,
      "మాత్ర": 1498,
      "క్రి": 1499,
      "time": 1500,
      "ass": 1501,
      "అది": 1502,
      "Ho": 1503,
      "గ్రె": 1504,
      "We": 1505,
      "ద్ధ": 1506,
      "ఘటన": 1507,
      "case": 1508,
      "రై": 1509,
      "ital": 1510,
      "శి": 1511,
      "pres": 1512,
      "ah": 1513,
      "get": 1514,
      "రోజు": 1515,
      "ade": 1516,
      "50": 1517,
      "ach": 1518,
      "mar": 1519,
      "mer": 1520,
      "Raj": 1521,
      "cl": 1522,
      "కాంగ్రె": 1523,
      "కేంద్ర": 1524,
      "న్నాడు": 1525,
      "ంగ": 1526,
      "సూ": 1527,
      "భారత": 1528,
      "ఉంటు": 1529,
      "కార్": 1530,
      "సో": 1531,
      "whe": 1532,
      "కారు": 1533,
      "able": 1534,
      "పార్టీ": 1535,
      "కాదు": 1536,
      "పారు": 1537,
      "way": 1538,
      "ించే": 1539,
      "వహ": 1540,
      "గే": 1541,
      "Mod": 1542,
      "విజ": 1543,
      "ana": 1544,
      "ma": 1545,
      "దీంతో": 1546,
      "బె": 1547,
      "Indian": 1548,
      "సభ": 1549,
      "మ్మ": 1550,
      "low": 1551,
      "Tel": 1552,
      "దల": 1553,
      "యె": 1554,
      "చేసిన": 1555,
      "చేసుకు": 1556,
      "త్‌": 1557,
      "cor": 1558,
      "ser": 1559,
      "ండ్": 1560,
      "ash": 1561,
      "జరిగి": 1562,
      "ఉన్నాయి": 1563,
      "్యూ": 1564,
      "umb": 1565,
      "దీని": 1566,
      "ced": 1567,
      "ele": 1568,
      "ick": 1569,
      "cont": 1570,
      "movie": 1571,
      "హై": 1572,
      "మీరు": 1573,
      "rest": 1574,
      "ire": 1575,
      "మృ": 1576,
      "ition": 1577,
      "dire": 1578,
      "బో": 1579,
      "క్తి": 1580,
      "లలో": 1581,
      "state": 1582,
      "అభి": 1583,
      "ile": 1584,
      "నాలు": 1585,
      "ult": 1586,
      "తంగా": 1587,
      "know": 1588,
      "Modi": 1589,
      "తున్న": 1590,
      "did": 1591,
      "మహ": 1592,
      "ates": 1593,
      "నుండి": 1594,
      "అలా": 1595,
      "బ్యా": 1596,
      "Pol": 1597,
      "శ్రీ": 1598,
      "first": 1599,
      "She": 1600,
      "ణం": 1601,
      "incident": 1602,
      "స్థి": 1603,
      "ఫి": 1604,
      "చ్చి": 1605,
      "చ్చ": 1606,
      "ance": 1607,
      "శం": 1608,
      "ally": 1609,
      "play": 1610,
      "And": 1611,
      "ild": 1612,
      "వచ్చు": 1613,
      "ai": 1614,
      "ట్ర": 1615,
      "ck": 1616,
      "ఎన్ని": 1617,
      "షి": 1618,
      "which": 1619,
      "hy": 1620,
      "యే": 1621,
      "ంటా": 1622,
      "ల్లా": 1623,
      "మై": 1624,
      "att": 1625,
      "come": 1626,
      "dy": 1627,
      "లతో": 1628,
      "br": 1629,
      "sc": 1630,
      "inv": 1631,
      "నూ": 1632,
      "ండా": 1633,
      "క్కడ": 1634,
      "str": 1635,
      "ons": 1636,
      "నమో": 1637,
      "akh": 1638,
      "An": 1639,
      "spe": 1640,
      "వరకు": 1641,
      "తెలిపారు": 1642,
      "డ్డి": 1643,
      "పర్": 1644,
      "ందే": 1645,
      "గం": 1646,
      "థి": 1647,
      "cus": 1648,
      "ased": 1649,
      "pre": 1650,
      "సిన": 1651,
      "రెండు": 1652,
      "పం": 1653,
      "ప్రభుత్వం": 1654,
      "పని": 1655,
      "జేపీ": 1656,
      "old": 1657,
      "సై": 1658,
      "వారా": 1659,
      "However": 1660,
      "ue": 1661,
      "విధ": 1662,
      "సాధ": 1663,
      "త్స": 1664,
      "ens": 1665,
      "యంలో": 1666,
      "టో": 1667,
      "అందు": 1668,
      "మధ్య": 1669,
      "యొ": 1670,
      "ign": 1671,
      "తీసుకు": 1672,
      "తమ": 1673,
      "being": 1674,
      "produ": 1675,
      "12": 1676,
      "పడి": 1677,
      "బడి": 1678,
      "crore": 1679,
      "బీజేపీ": 1680,
      "తులు": 1681,
      "ఇప్పటి": 1682,
      "కృ": 1683,
      "కులు": 1684,
      "mis": 1685,
      "వచ్చి": 1686,
      "ont": 1687,
      "eng": 1688,
      "happ": 1689,
      "ake": 1690,
      "reat": 1691,
      "ase": 1692,
      "more": 1693,
      "ణి": 1694,
      "సంబంధ": 1695,
      "గుర": 1696,
      "ప్రధాన": 1697,
      "ఉంటుంది": 1698,
      "what": 1699,
      "own": 1700,
      "పోయి": 1701,
      "after": 1702,
      "gu": 1703,
      "iz": 1704,
      "15": 1705,
      "je": 1706,
      "ip": 1707,
      "ఆరో": 1708,
      "క్కువ": 1709,
      "హు": 1710,
      "తర్": 1711,
      "ory": 1712,
      "కంగా": 1713,
      "వెళ్": 1714,
      "ద్వారా": 1715,
      "should": 1716,
      "),": 1717,
      "That": 1718,
      "మరో": 1719,
      "Ar": 1720,
      "తరు": 1721,
      "against": 1722,
      "ational": 1723,
      "కొత్త": 1724,
      "శాఖ": 1725,
      "తీయ": 1726,
      "పాల్": 1727,
      "mit": 1728,
      "spital": 1729,
      "ల్లీ": 1730,
      "ved": 1731,
      "Police": 1732,
      "ాలు": 1733,
      "read": 1734,
      "స్తోంది": 1735,
      "ఫో": 1736,
      "Ma": 1737,
      "some": 1738,
      "తొ": 1739,
      "into": 1740,
      "ప్రజ": 1741,
      "mat": 1742,
      "లె": 1743,
      "ారణ": 1744,
      "lakh": 1745,
      "హీ": 1746,
      "bl": 1747,
      "ల్లి": 1748,
      "No": 1749,
      "ప్రక": 1750,
      "సర్": 1751,
      "నేత": 1752,
      "ఉప": 1753,
      "ప్రాంత": 1754,
      "దాని": 1755,
      "like": 1756,
      "ంట్": 1757,
      "వృ": 1758,
      "For": 1759,
      "mon": 1760,
      "Se": 1761,
      "your": 1762,
      "Red": 1763,
      "ందిన": 1764,
      "కోర్": 1765,
      "Del": 1766,
      "14": 1767,
      "ద్ర": 1768,
      "made": 1769,
      "nt": 1770,
      "ful": 1771,
      "బాద్": 1772,
      "Ne": 1773,
      "తూ": 1774,
      "చేసింది": 1775,
      "పంచ": 1776,
      "jo": 1777,
      "వ‌": 1778,
      "ాలకు": 1779,
      "cess": 1780,
      "పెద్ద": 1781,
      "సంగ": 1782,
      "హె": 1783,
      "000": 1784,
      "bet": 1785,
      "would": 1786,
      "...": 1787,
      "need": 1788,
      "వరి": 1789,
      "న్స్": 1790,
      "విద్య": 1791,
      "ప్రారం": 1792,
      "many": 1793,
      "యొక్క": 1794,
      "pers": 1795,
      "మారు": 1796,
      "itu": 1797,
      "ప్రమా": 1798,
      "cur": 1799,
      "How": 1800,
      "Delhi": 1801,
      "ఇండి": 1802,
      "తర్వాత": 1803,
      "విడు": 1804,
      "ious": 1805,
      "నో": 1806,
      "ఏర్": 1807,
      "my": 1808,
      "18": 1809,
      "far": 1810,
      "abad": 1811,
      "చా": 1812,
      "ite": 1813,
      "ourt": 1814,
      "అర్": 1815,
      "రెడ్డి": 1816,
      "వ్ర": 1817,
      "Chi": 1818,
      "కుండా": 1819,
      "్యం": 1820,
      "త్తం": 1821,
      "కొన్ని": 1822,
      "పట్ట": 1823,
      "offic": 1824,
      "ఖా": 1825,
      "You": 1826,
      "వంటి": 1827,
      "్యు": 1828,
      "డియా": 1829,
      "ities": 1830,
      "లై": 1831,
      "Un": 1832,
      "form": 1833,
      "ప్రారంభ": 1834,
      "De": 1835,
      "స్టు": 1836,
      "Chief": 1837,
      "ret": 1838,
      "హ్": 1839,
      "స్ట్": 1840,
      "గ్రా": 1841,
      "ces": 1842,
      "So": 1843,
      "cond": 1844,
      "దం": 1845,
      "say": 1846,
      "తీవ్ర": 1847,
      "అధ్య": 1848,
      "మంచి": 1849,
      "జిల్లా": 1850,
      "ఢి": 1851,
      "Ram": 1852,
      "comp": 1853,
      "మొద": 1854,
      "ందర్": 1855,
      "నియ": 1856,
      "God": 1857,
      "యలు": 1858,
      "Mo": 1859,
      "ఢిల్లీ": 1860,
      "Reddy": 1861,
      "vis": 1862,
      "rele": 1863,
      "అన్నారు": 1864,
      "నమోదు": 1865,
      "య్యా": 1866,
      "int": 1867,
      "invest": 1868,
      "స్తారు": 1869,
      "ఏమి": 1870,
      "distr": 1871,
      "పరిస్థి": 1872,
      "కాంగ్రెస్": 1873,
      "డ్‌": 1874,
      "లంగా": 1875,
      "వాటి": 1876,
      "adesh": 1877,
      "ర్కొ": 1878,
      "రణ": 1879,
      "inj": 1880,
      "న్ను": 1881,
      "డ్డ": 1882,
      "les": 1883,
      "త్వ": 1884,
      "తీసు": 1885,
      "Prime": 1886,
      "ures": 1887,
      "hospital": 1888,
      "Sing": 1889,
      "ss": 1890,
      "than": 1891,
      "Is": 1892,
      "ఇలా": 1893,
      "మం": 1894,
      "country": 1895,
      "ured": 1896,
      "ఇద్ద": 1897,
      "good": 1898,
      "but": 1899,
      "ట్లా": 1900,
      "fore": 1901,
      "షా": 1902,
      "og": 1903,
      "ents": 1904,
      "పాత్ర": 1905,
      "దని": 1906,
      "pt": 1907,
      "సింగ్": 1908,
      "కోర్టు": 1909,
      "led": 1910,
      "లోకి": 1911,
      "add": 1912,
      "rent": 1913,
      "మర్": 1914,
      "alth": 1915,
      "ff": 1916,
      "అన": 1917,
      "tain": 1918,
      "ings": 1919,
      "ప్రే": 1920,
      "పూర్తి": 1921,
      "Sh": 1922,
      "well": 1923,
      "యోగ": 1924,
      "పర": 1925,
      "విషయం": 1926,
      "సారి": 1927,
      "విడుదల": 1928,
      "war": 1929,
      "బ్బ": 1930,
      "తుల": 1931,
      "చిత్రం": 1932,
      "అన్ని": 1933,
      "చారం": 1934,
      "నలు": 1935,
      "ద్ధి": 1936,
      "hel": 1937,
      "లేదా": 1938,
      "ik": 1939,
      "గల": 1940,
      "చెప్పారు": 1941,
      "30": 1942,
      "చో": 1943,
      "గ్గ": 1944,
      "నాకు": 1945,
      "వ్వ": 1946,
      "ప్రపంచ": 1947,
      "అం": 1948,
      "bod": 1949,
      "త్తి": 1950,
      "ందా": 1951,
      "కలు": 1952,
      "కుమార్": 1953,
      "here": 1954,
      "Re": 1955,
      "ఎస్‌": 1956,
      "సహా": 1957,
      "these": 1958,
      "16": 1959,
      "చెందిన": 1960,
      "Singh": 1961,
      "ింపు": 1962,
      "హీరో": 1963,
      "ctions": 1964,
      "ధర": 1965,
      "సంస్థ": 1966,
      "200": 1967,
      "ప్రదేశ": 1968,
      "uring": 1969,
      "tal": 1970,
      "హైద": 1971,
      "నగ": 1972,
      "ైనా": 1973,
      "రుకు": 1974,
      "dec": 1975,
      "ise": 1976,
      "every": 1977,
      "గురించి": 1978,
      "All": 1979,
      "యెహో": 1980,
      "వార": 1981,
      "స్వా": 1982,
      "Hy": 1983,
      "year": 1984,
      "child": 1985,
      "లుగా": 1986,
      "గత": 1987,
      "ఆధ": 1988,
      "కుటు": 1989,
      "ged": 1990,
      "కల్": 1991,
      "ble": 1992,
      "నటి": 1993,
      "డె": 1994,
      "la": 1995,
      "సరి": 1996,
      "వాళ్": 1997,
      "ఫీ": 1998,
      "భూ": 1999,
      "place": 2000,
      "oc": 2001,
      "three": 2002,
      "Pradesh": 2003,
      "తున్నారు": 2004,
      "17": 2005,
      "జన": 2006,
      "umar": 2007,
      "ర్మ": 2008,
      "ప్రధాని": 2009,
      "పడు": 2010,
      "ంటూ": 2011,
      "meet": 2012,
      "మాట్లా": 2013,
      "నిర్ణ": 2014,
      "చుకు": 2015,
      "ఉన్నారు": 2016,
      "then": 2017,
      "tem": 2018,
      "ink": 2019,
      "లం": 2020,
      "Th": 2021,
      "Com": 2022,
      "గురు": 2023,
      "స్తూ": 2024,
      "ied": 2025,
      "ప‌": 2026,
      "హైదరా": 2027,
      "she": 2028,
      "ప్ర‌": 2029,
      "గుర్": 2030,
      "ices": 2031,
      "ారని": 2032,
      "యెహోవా": 2033,
      "incl": 2034,
      "త్తు": 2035,
      "tered": 2036,
      "ణాలు": 2037,
      "ఇక": 2038,
      "Its": 2039,
      "ments": 2040,
      "ps": 2041,
      "tern": 2042,
      "taken": 2043,
      "regis": 2044,
      "మాత్రం": 2045,
      "ating": 2046,
      "famil": 2047,
      "క‌": 2048,
      "చేశా": 2049,
      "కోట్లు": 2050,
      "ya": 2051,
      "ors": 2052,
      "ార్థ": 2053,
      "ంలోని": 2054,
      "ndra": 2055,
      "క్షి": 2056,
      "పడ": 2057,
      "ద్దు": 2058,
      "reas": 2059,
      "ters": 2060,
      "ci": 2061,
      "రాలు": 2062,
      "fr": 2063,
      "గాయ": 2064,
      "విచ": 2065,
      "గె": 2066,
      "యాన్ని": 2067,
      "such": 2068,
      "while": 2069,
      "urn": 2070,
      "vers": 2071,
      "క్రమ": 2072,
      "Je": 2073,
      "పలు": 2074,
      "ప్రత్య": 2075,
      "ఎక్కువ": 2076,
      "చిత్రా": 2077,
      "భారీ": 2078,
      "య్": 2079,
      "జర": 2080,
      "ఎమ్": 2081,
      "ముందు": 2082,
      "angana": 2083,
      "కొన": 2084,
      "ask": 2085,
      "దర్శక": 2086,
      "సందర్": 2087,
      "క్షు": 2088,
      "తెలిసి": 2089,
      "star": 2090,
      "వ్యవ": 2091,
      "డంతో": 2092,
      "చెప్": 2093,
      "minister": 2094,
      "sel": 2095,
      "శు": 2096,
      "Nare": 2097,
      "ప్‌": 2098,
      "కోట్ల": 2099,
      "న్యా": 2100,
      "mu": 2101,
      "టం": 2102,
      "కారం": 2103,
      "కని": 2104,
      "లోనే": 2105,
      "col": 2106,
      "ల‌": 2107,
      "ween": 2108,
      "cord": 2109,
      "మ‌": 2110,
      "ry": 2111,
      "హైదరాబాద్": 2112,
      "ముఖ్యమంత్రి": 2113,
      "does": 2114,
      "happen": 2115,
      "దో": 2116,
      "ible": 2117,
      "ffe": 2118,
      "issu": 2119,
      "జాతీయ": 2120,
      "water": 2121,
      "between": 2122,
      "మొత్తం": 2123,
      "took": 2124,
      "too": 2125,
      "cy": 2126,
      "ఉత్త": 2127,
      "derabad": 2128,
      "కలిగి": 2129,
      "party": 2130,
      "టే": 2131,
      "దారు": 2132,
      "అవు": 2133,
      "తలు": 2134,
      "als": 2135,
      "ell": 2136,
      "mark": 2137,
      "మాన": 2138,
      "13": 2139,
      "మృతి": 2140,
      "Hyderabad": 2141,
      "ించాడు": 2142,
      "25": 2143,
      "వార్": 2144,
      "బ్యాం": 2145,
      "cer": 2146,
      "fa": 2147,
      "ర్యా": 2148,
      "chi": 2149,
      "test": 2150,
      "cap": 2151,
      "పేర్కొ": 2152,
      "Telangana": 2153,
      "లేక": 2154,
      "జీవి": 2155,
      "only": 2156,
      "ala": 2157,
      "prov": 2158,
      "తరల": 2159,
      "ave": 2160,
      "తెలంగా": 2161,
      "shi": 2162,
      "wom": 2163,
      "ఆరోగ": 2164,
      "పెట్ట": 2165,
      "తెలియ": 2166,
      "miss": 2167,
      "ప్రభుత్వ": 2168,
      "body": 2169,
      "car": 2170,
      "ose": 2171,
      "investig": 2172,
      "land": 2173,
      "ఎన్": 2174,
      "New": 2175,
      "going": 2176,
      "మ్‌": 2177,
      "ించడం": 2178,
      "ాలీ": 2179,
      "take": 2180,
      "rem": 2181,
      "ందో": 2182,
      "యాలు": 2183,
      "loc": 2184,
      "jay": 2185,
      "క్స్": 2186,
      "registered": 2187,
      "మహి": 2188,
      "cases": 2189,
      "స్తున్నా": 2190,
      "చేసే": 2191,
      "చేసు": 2192,
      "Narendra": 2193,
      "world": 2194,
      "official": 2195,
      "11": 2196,
      "ix": 2197,
      "ty": 2198,
      "శాతం": 2199,
      "ప్రకట": 2200,
      "Ad": 2201,
      "దేవు": 2202,
      "kill": 2203,
      "అవకా": 2204,
      "అమె": 2205,
      "post": 2206,
      "మాజీ": 2207,
      "ఎదు": 2208,
      "స్య": 2209,
      "chang": 2210,
      "fl": 2211,
      "పిల్ల": 2212,
      "hand": 2213,
      "రకు": 2214,
      "life": 2215,
      "fin": 2216,
      "యన్": 2217,
      "Gand": 2218,
      "numb": 2219,
      "జరుగు": 2220,
      "ఇంకా": 2221,
      "ms": 2222,
      "తెలంగాణ": 2223,
      "ati": 2224,
      "కొని": 2225,
      "ల్సి": 2226,
      "బాబు": 2227,
      "భాగ": 2228,
      "వృద్ధి": 2229,
      "పాల": 2230,
      "కుడు": 2231,
      "memb": 2232,
      "sur": 2233,
      "oh": 2234,
      "వేశ": 2235,
      "మీద": 2236,
      "ting": 2237,
      "జో": 2238,
      "ఒక్క": 2239,
      "ళి": 2240,
      "when": 2241,
      "స్వ": 2242,
      "ward": 2243,
      "Kumar": 2244,
      "నాయ": 2245,
      "ంటారు": 2246,
      "injured": 2247,
      "దూ": 2248,
      "On": 2249,
      "పాల్గొ": 2250,
      "present": 2251,
      "ఆర్‌": 2252,
      "వాహ": 2253,
      "ond": 2254,
      "దేశా": 2255,
      "ముఖ": 2256,
      "arrest": 2257,
      "icket": 2258,
      "ness": 2259,
      "Tr": 2260,
      "బట్టి": 2261,
      "వల్ల": 2262,
      "down": 2263,
      "జ్ఞ": 2264,
      "రెండ": 2265,
      "కుటుంబ": 2266,
      "giv": 2267,
      "ఇందు": 2268,
      "టింగ్": 2269,
      "thr": 2270,
      "par": 2271,
      "నిర్మా": 2272,
      "rel": 2273,
      "fo": 2274,
      "set": 2275,
      "directed": 2276,
      "నర్": 2277,
      "ారీ": 2278,
      "యాప్": 2279,
      "మోదీ": 2280,
      "ugu": 2281,
      "న‌": 2282,
      "ఇండియా": 2283,
      "district": 2284,
      "En": 2285,
      "త్వం": 2286,
      "మ్యా": 2287,
      "ener": 2288,
      "ంగ్": 2289,
      "త్వర": 2290,
      "aj": 2291,
      "మహిళ": 2292,
      "అధికారు": 2293,
      "ఇతర": 2294,
      "ుల": 2295,
      "అవస": 2296,
      "soon": 2297,
      "Gandhi": 2298,
      "arn": 2299,
      "ఆర్థి": 2300,
      "తెర": 2301,
      "ats": 2302,
      "తెలుగు": 2303,
      "ష్టం": 2304,
      "శీ": 2305,
      "rit": 2306,
      "ata": 2307,
      "క్షణ": 2308,
      "Bo": 2309,
      "chief": 2310,
      "మీడియా": 2311,
      "ఉంటా": 2312,
      "hen": 2313,
      "Why": 2314,
      "just": 2315,
      "దృ": 2316,
      "చ్‌": 2317,
      "ollow": 2318,
      "ves": 2319,
      "ల్లు": 2320,
      "most": 2321,
      "య్యారు": 2322,
      "Do": 2323,
      "స‌": 2324,
      "నట": 2325,
      "back": 2326,
      "కథ": 2327,
      "exp": 2328,
      "sha": 2329,
      "quest": 2330,
      "ower": 2331,
      "kar": 2332,
      "మనం": 2333,
      "see": 2334,
      "ited": 2335,
      "పరిస్థితి": 2336,
      "అమెరి": 2337,
      "look": 2338,
      "ready": 2339,
      "డియో": 2340,
      "త‌": 2341,
      "resident": 2342,
      "resp": 2343,
      "Su": 2344,
      "నిర్వహ": 2345,
      "win": 2346,
      "row": 2347,
      "కారణ": 2348,
      "గాంధ": 2349,
      "ప్రశ్": 2350,
      "family": 2351,
      "24": 2352,
      "Chand": 2353,
      "సంఖ్య": 2354,
      "velo": 2355,
      "మోడీ": 2356,
      "abu": 2357,
      "Al": 2358,
      "sho": 2359,
      "ింత": 2360,
      "came": 2361,
      "pur": 2362,
      "died": 2363,
      "కాగా": 2364,
      "గాంధీ": 2365,
      "person": 2366,
      "షన్‌": 2367,
      "death": 2368,
      "ప్రత్యే": 2369,
      "న్యూ": 2370,
      "Telugu": 2371,
      "report": 2372,
      "వ్యక్": 2373,
      "తొలి": 2374,
      "మాత్రమే": 2375,
      "అత్య": 2376,
      "cho": 2377,
      "media": 2378,
      "తమి": 2379,
      "లక్షల": 2380,
      "mand": 2381,
      "che": 2382,
      "Jeho": 2383,
      "istan": 2384,
      "mers": 2385,
      "కొనసా": 2386,
      "యత్": 2387,
      "diffe": 2388,
      "సమాచారం": 2389,
      "Tamil": 2390,
      "అవసరం": 2391,
      "పరీ": 2392,
      "bu": 2393,
      "వెంట": 2394,
      "తెలిసిందే": 2395,
      "start": 2396,
      "వరు": 2397,
      "పోయింది": 2398,
      "ఆర్థిక": 2399,
      "pect": 2400,
      "Man": 2401,
      "leaders": 2402,
      "జరిగింది": 2403,
      "Pro": 2404,
      "ics": 2405,
      "ఉత్": 2406,
      "చంద్ర": 2407,
      "number": 2408,
      "velop": 2409,
      "State": 2410,
      "vah": 2411,
      "100": 2412,
      "same": 2413,
      "తున్నాయి": 2414,
      "Jehovah": 2415,
      "భ్య": 2416,
      "అధిక": 2417,
      "na": 2418,
      "బ్ర": 2419,
      "మొదటి": 2420,
      "Go": 2421,
      "stud": 2422,
      "య్యాయి": 2423,
      "ving": 2424,
      "యారు": 2425,
      "ళ్ల": 2426,
      "పించ": 2427,
      "air": 2428,
      "పథ": 2429,
      "సార్": 2430,
      "కెట్": 2431,
      "అనేక": 2432,
      "ven": 2433,
      "augh": 2434,
      "అతని": 2435,
      "వెల్ల": 2436,
      "టై": 2437,
      "క్కి": 2438,
      "2020": 2439,
      "stand": 2440,
      "won": 2441,
      "కావ": 2442,
      "చూడ": 2443,
      "ject": 2444,
      "నిజ": 2445,
      "Pak": 2446,
      "char": 2447,
      "Vi": 2448,
      "దర్యాప్": 2449,
      "బై": 2450,
      "చికి": 2451,
      "role": 2452,
      "నంద": 2453,
      "దర్యాప్తు": 2454,
      "children": 2455,
      "మూడు": 2456,
      "అధ్యక్షు": 2457,
      "రేంద్ర": 2458,
      "చేస్తున్నారు": 2459,
      "ఎందుకు": 2460,
      "health": 2461,
      "call": 2462,
      "భారత్": 2463,
      "polit": 2464,
      "ఇద్దరు": 2465,
      "నని": 2466,
      "sy": 2467,
      "సన": 2468,
      "విని": 2469,
      "ఎన్నిక": 2470,
      "even": 2471,
      "social": 2472,
      "వైర": 2473,
      "వద్ద": 2474,
      "తరువాత": 2475,
      "ution": 2476,
      "announ": 2477,
      "క్టర్": 2478,
      "ష్ణ": 2479,
      "వ్యక్తి": 2480,
      "ended": 2481,
      "ause": 2482,
      "Government": 2483,
      "ral": 2484,
      "arrested": 2485,
      "షే": 2486,
      "during": 2487,
      "న్నీ": 2488,
      "వ్యాప్": 2489,
      "put": 2490,
      "చికిత్స": 2491,
      "భారత్‌": 2492,
      "చిన్న": 2493,
      "పొంద": 2494,
      "త్రికి": 2495,
      "నుంది": 2496,
      "var": 2497,
      "ణ్": 2498,
      "used": 2499,
      "ాలీవు": 2500,
      "son": 2501,
      "రాజకీ": 2502,
      "క్కడి": 2503,
      "పద": 2504,
      "అదే": 2505,
      "స్త్ర": 2506,
      "help": 2507,
      "వైద్య": 2508,
      "ఇందులో": 2509,
      "నున్న": 2510,
      "ప్రీ": 2511,
      "last": 2512,
      "spot": 2513,
      "high": 2514,
      "తప్ప": 2515,
      "అమెరికా": 2516,
      "proble": 2517,
      "ించుకు": 2518,
      "run": 2519,
      "supp": 2520,
      "వారికి": 2521,
      "ళ్లు": 2522,
      "దేశం": 2523,
      "plain": 2524,
      "ాలే": 2525,
      "ఇక్కడ": 2526,
      "స్టే": 2527,
      "Rah": 2528,
      "పడ్డ": 2529,
      "President": 2530,
      "leg": 2531,
      "crores": 2532,
      "లపై": 2533,
      "అందుకు": 2534,
      "ర‌": 2535,
      "ised": 2536,
      "por": 2537,
      "ific": 2538,
      "ఫ్‌": 2539,
      "det": 2540,
      "follow": 2541,
      "vir": 2542,
      "ouse": 2543,
      "జరిగిన": 2544,
      "విశ్": 2545,
      "long": 2546,
      "వన్": 2547,
      "cle": 2548,
      "Pakistan": 2549,
      "ంతా": 2550,
      "పేరు": 2551,
      "min": 2552,
      "ంతి": 2553,
      "తమిళ": 2554,
      "wood": 2555,
      "ఏం": 2556,
      "సహ": 2557,
      "cused": 2558,
      "ten": 2559,
      "ఎలాంటి": 2560,
      "స్తే": 2561,
      "veral": 2562,
      "ాలలో": 2563,
      "ౖన": 2564,
      "డై": 2565,
      "US": 2566,
      "జర్": 2567,
      "four": 2568,
      "సంబంధించిన": 2569,
      "through": 2570,
      "ular": 2571,
      "దేశంలో": 2572,
      "yet": 2573,
      "కాలు": 2574,
      "ళ్ళ": 2575,
      "includ": 2576,
      "ఏర్పాటు": 2577,
      "అంటే": 2578,
      "sto": 2579,
      "ర్చు": 2580,
      "ph": 2581,
      "జన్": 2582,
      "లభ": 2583,
      "మును": 2584,
      "అతి": 2585,
      "gan": 2586,
      "నెల": 2587,
      "Sha": 2588,
      "సినిమాలో": 2589,
      "ared": 2590,
      "జరి": 2591,
      "pass": 2592,
      "70": 2593,
      "ంతరం": 2594,
      "meeting": 2595,
      "అంది": 2596,
      "des": 2597,
      "ఉద్య": 2598,
      "బడు": 2599,
      "స్టార్": 2600,
      "లక": 2601,
      "బాగా": 2602,
      "21": 2603,
      "సందర్భ": 2604,
      "aid": 2605,
      "usic": 2606,
      "cause": 2607,
      "make": 2608,
      "how": 2609,
      "Shar": 2610,
      "ob": 2611,
      "king": 2612,
      "situ": 2613,
      "abha": 2614,
      "తరలించారు": 2615,
      "కుల": 2616,
      "hu": 2617,
      "ప్రత్యేక": 2618,
      "40": 2619,
      "ఇదే": 2620,
      "అలాగే": 2621,
      "పింది": 2622,
      "lar": 2623,
      "మాట": 2624,
      "పరీక్ష": 2625,
      "ప్రయత్": 2626,
      "import": 2627,
      "comple": 2628,
      "ately": 2629,
      "ideo": 2630,
      "రాహు": 2631,
      "పాయ": 2632,
      "విచారణ": 2633,
      ".\"\"\"": 2634,
      "self": 2635,
      "mak": 2636,
      "xt": 2637,
      "క్ట": 2638,
      "accused": 2639,
      "స్థాయి": 2640,
      "ప్రభా": 2641,
      "head": 2642,
      "PM": 2643,
      "నకు": 2644,
      "Court": 2645,
      "ife": 2646,
      "వెంటనే": 2647,
      "ways": 2648,
      "ning": 2649,
      ").": 2650,
      "olly": 2651,
      "TR": 2652,
      "want": 2653,
      "ండ్‌": 2654,
      "Rahul": 2655,
      "feat": 2656,
      "కరణ": 2657,
      "పెట్టు": 2658,
      "స్ట్ర": 2659,
      "Par": 2660,
      "Me": 2661,
      "యని": 2662,
      "DP": 2663,
      "అభ్య": 2664,
      "men": 2665,
      "భాష": 2666,
      "వీడియో": 2667,
      "view": 2668,
      "ubl": 2669,
      "కలిసి": 2670,
      "అరె": 2671,
      "పోయా": 2672,
      "గిన": 2673,
      "Mar": 2674,
      "acc": 2675,
      "rece": 2676,
      "ages": 2677,
      "తాను": 2678,
      "తల్లి": 2679,
      "team": 2680,
      "ale": 2681,
      "second": 2682,
      "could": 2683,
      "where": 2684,
      "వీరి": 2685,
      "ఇప్పటికే": 2686,
      "ఆరోగ్య": 2687,
      "hra": 2688,
      "రోనా": 2689,
      "got": 2690,
      "Sup": 2691,
      "those": 2692,
      "ince": 2693,
      "semb": 2694,
      "ollywood": 2695,
      "నున్నారు": 2696,
      "ించడానికి": 2697,
      "others": 2698,
      "Wor": 2699,
      "నరేంద్ర": 2700,
      "సింది": 2701,
      "చీ": 2702,
      "నిక": 2703,
      "సమస్య": 2704,
      "serv": 2705,
      "president": 2706,
      "contin": 2707,
      "ఆస్ప": 2708,
      "ual": 2709,
      "shall": 2710,
      "elections": 2711,
      "మేము": 2712,
      "given": 2713,
      "కోవాలి": 2714,
      "ru": 2715,
      "వారిని": 2716,
      "ఇవ్వ": 2717,
      "లువ": 2718,
      "ూరు": 2719,
      "mission": 2720,
      "కాబట్టి": 2721,
      "హం": 2722,
      "recent": 2723,
      "Vijay": 2724,
      "ines": 2725,
      "Cent": 2726,
      "గుర్త": 2727,
      "power": 2728,
      "app": 2729,
      "stru": 2730,
      "చర్చ": 2731,
      "అతను": 2732,
      "సంవ": 2733,
      "చోటు": 2734,
      "medi": 2735,
      "నిర్మ": 2736,
      "సిం": 2737,
      "అమ": 2738,
      "different": 2739,
      "మెంట్": 2740,
      "cret": 2741,
      "rol": 2742,
      "ains": 2743,
      "మరింత": 2744,
      "జై": 2745,
      "Pe": 2746,
      "సంగీ": 2747,
      "fac": 2748,
      "clo": 2749,
      "ought": 2750,
      "dont": 2751,
      "వారం": 2752,
      "చేస్తున్న": 2753,
      "పోటీ": 2754,
      "both": 2755,
      "దీనికి": 2756,
      "much": 2757,
      "స్సు": 2758,
      "court": 2759,
      "ided": 2760,
      "డో": 2761,
      "ush": 2762,
      "నిలి": 2763,
      "olog": 2764,
      "న్నాను": 2765,
      "సమయంలో": 2766,
      "కరోనా": 2767,
      "ani": 2768,
      "వులు": 2769,
      "released": 2770,
      "డిగా": 2771,
      "sub": 2772,
      "వివర": 2773,
      "ఎమ్మె": 2774,
      "‌ర్": 2775,
      "500": 2776,
      "కంటే": 2777,
      "తీర్": 2778,
      "video": 2779,
      "tra": 2780,
      "films": 2781,
      "exam": 2782,
      "వచ్చింది": 2783,
      "suc": 2784,
      "action": 2785,
      "pri": 2786,
      "తాజా": 2787,
      "తాయి": 2788,
      "ML": 2789,
      "శాల": 2790,
      "Chandr": 2791,
      "అభివృద్ధి": 2792,
      "నింది": 2793,
      "love": 2794,
      "ల్ని": 2795,
      "develop": 2796,
      "ఉపయోగ": 2797,
      "ft": 2798,
      "మేరకు": 2799,
      "చర్యలు": 2800,
      "sm": 2801,
      "Bank": 2802,
      "స్థాన": 2803,
      "న్యాయ": 2804,
      "అధ్యక్షుడు": 2805,
      "ఉంటాయి": 2806,
      "అధికారులు": 2807,
      "Mumb": 2808,
      "Andhra": 2809,
      "తను": 2810,
      "done": 2811,
      "loy": 2812,
      "killed": 2813,
      "regard": 2814,
      "uk": 2815,
      "decis": 2816,
      "sembly": 2817,
      "ఏమిటి": 2818,
      "ants": 2819,
      "నించ": 2820,
      "road": 2821,
      "లేదని": 2822,
      "కాంగ్రెస్‌": 2823,
      "చట్ట": 2824,
      "రావ": 2825,
      "bus": 2826,
      "యువ": 2827,
      "బయ": 2828,
      "Mumbai": 2829,
      "Sabha": 2830,
      "కూడ": 2831,
      "టకు": 2832,
      "తల": 2833,
      "విధా": 2834,
      "coming": 2835,
      "stit": 2836,
      "తెరకె": 2837,
      "ఎంతో": 2838,
      "ఉండే": 2839,
      "విజయ": 2840,
      "వెల్లడ": 2841,
      "ram": 2842,
      "Every": 2843,
      "చేరుకు": 2844,
      "ధు": 2845,
      "మరణ": 2846,
      "సౌ": 2847,
      "డ్డా": 2848,
      "ర్యాదు": 2849,
      "ative": 2850,
      "తారు": 2851,
      "మిక": 2852,
      "రంగ": 2853,
      "produced": 2854,
      "ఫలి": 2855,
      "days": 2856,
      "leader": 2857,
      "ల్య": 2858,
      "ప్రదేశ్": 2859,
      "న్య": 2860,
      "సీఎం": 2861,
      "వ్‌": 2862,
      "ంత్ర": 2863,
      "దన": 2864,
      "wal": 2865,
      "కేసులు": 2866,
      "గర్": 2867,
      "వీటి": 2868,
      "కమి": 2869,
      "భవ": 2870,
      "ప్రి": 2871,
      "ails": 2872,
      "వ్యవహ": 2873,
      "ఫిర్యాదు": 2874,
      "great": 2875,
      "వైపు": 2876,
      "tar": 2877,
      "Ex": 2878,
      "lot": 2879,
      "ists": 2880,
      "before": 2881,
      "త్మ": 2882,
      "ప్రజలు": 2883,
      "former": 2884,
      "ంటర్": 2885,
      "కళ": 2886,
      "ప్రేమ": 2887,
      "already": 2888,
      "99": 2889,
      "ఎంత": 2890,
      "సుప": 2891,
      "matter": 2892,
      "ఇంత": 2893,
      "వంత": 2894,
      "60": 2895,
      "Rao": 2896,
      "Union": 2897,
      "పతి": 2898,
      "ility": 2899,
      "mor": 2900,
      "rish": 2901,
      "బాలీవు": 2902,
      "ural": 2903,
      "month": 2904,
      "పెరుగు": 2905,
      "Be": 2906,
      "సోష": 2907,
      "due": 2908,
      "among": 2909,
      "మైన": 2910,
      "Who": 2911,
      "అయిన": 2912,
      "MP": 2913,
      "రంగా": 2914,
      "22": 2915,
      "నివా": 2916,
      "ముంబ": 2917,
      "ఉద్యో": 2918,
      "ఆలో": 2919,
      "gar": 2920,
      "స్పంద": 2921,
      "icip": 2922,
      "gest": 2923,
      "comm": 2924,
      "ింగ్‌": 2925,
      "క్రీ": 2926,
      "నులు": 2927,
      "డూ": 2928,
      "ord": 2929,
      "పిన": 2930,
      "situation": 2931,
      "వ్యాప్తంగా": 2932,
      "cha": 2933,
      "పడ్డారు": 2934,
      "సిద్ధ": 2935,
      "imes": 2936,
      "avail": 2937,
      "ched": 2938,
      "At": 2939,
      "ired": 2940,
      "బల": 2941,
      "important": 2942,
      "ప్రయా": 2943,
      "reported": 2944,
      "టక": 2945,
      "Hin": 2946,
      "Af": 2947,
      "icult": 2948,
      "oper": 2949,
      "ట్టిన": 2950,
      "complain": 2951,
      "ried": 2952,
      "care": 2953,
      "ప్టె": 2954,
      "ID": 2955,
      "అక్కడ": 2956,
      "BI": 2957,
      "సంఘ": 2958,
      "డ్ర": 2959,
      "wit": 2960,
      "యోజ": 2961,
      "members": 2962,
      "ins": 2963,
      "actor": 2964,
      "దీనిపై": 2965,
      "His": 2966,
      "Te": 2967,
      "ల్స్": 2968,
      "YS": 2969,
      "ets": 2970,
      "వాడు": 2971,
      "TDP": 2972,
      "అన్న": 2973,
      "chool": 2974,
      "అవి": 2975,
      "ల్సిన": 2976,
      "బడిన": 2977,
      "Chr": 2978,
      "లిం": 2979,
      "Khan": 2980,
      "home": 2981,
      "ఎన్నికల": 2982,
      "సొ": 2983,
      "book": 2984,
      "found": 2985,
      "అభ్యర్": 2986,
      "సందర్భంగా": 2987,
      "name": 2988,
      "cons": 2989,
      "another": 2990,
      "Thats": 2991,
      "అధికారి": 2992,
      "Dire": 2993,
      "కుమారు": 2994,
      "agar": 2995,
      "happened": 2996,
      "cam": 2997,
      "వచ్చిన": 2998,
      "seats": 2999,
      "భార్య": 3000,
      "CO": 3001,
      "ben": 3002,
      "director": 3003,
      "wife": 3004,
      "శే": 3005,
      "కను": 3006,
      "జ్‌": 3007,
      "పాల్గొన్నారు": 3008,
      "law": 3009,
      "These": 3010,
      "ublic": 3011,
      "ఆఫ్": 3012,
      "అనంతరం": 3013,
      "ఆసుప": 3014,
      "పాకి": 3015,
      "దాదా": 3016,
      "వహి": 3017,
      "formed": 3018,
      "ఆల": 3019,
      "పక్ష": 3020,
      "ట్రో": 3021,
      "బాటు": 3022,
      "ta": 3023,
      "మారి": 3024,
      "women": 3025,
      "inter": 3026,
      "daugh": 3027,
      "ఫె": 3028,
      "స్తాయి": 3029,
      "attack": 3030,
      "ప్రమాద": 3031,
      "ls": 3032,
      "టువంటి": 3033,
      "let": 3034,
      "ached": 3035,
      "ering": 3036,
      "స్తున్నాయి": 3037,
      "must": 3038,
      "ాల్లో": 3039,
      "ploy": 3040,
      "next": 3041,
      "Part": 3042,
      "big": 3043,
      "శో": 3044,
      "hip": 3045,
      "each": 3046,
      "ంక": 3047,
      "వచ్చే": 3048,
      "went": 3049,
      "ల్యే": 3050,
      "receiv": 3051,
      "చేసుకుంది": 3052,
      "ాలతో": 3053,
      "సేవ": 3054,
      "ష్టి": 3055,
      "music": 3056,
      "హీరోయి": 3057,
      "కోవి": 3058,
      "చారు": 3059,
      "ంధ్ర": 3060,
      "కౌ": 3061,
      "పేర్కొన్నారు": 3062,
      "ఎమ్మెల్యే": 3063,
      "treat": 3064,
      "కేవల": 3065,
      "seen": 3066,
      "asked": 3067,
      "ca": 3068,
      "చ్చు": 3069,
      "చ్చిన": 3070,
      "sing": 3071,
      "సంగతి": 3072,
      "laun": 3073,
      "National": 3074,
      "దానికి": 3075,
      "ross": 3076,
      "డ్డు": 3077,
      "రావు": 3078,
      "immedi": 3079,
      "sure": 3080,
      "మండ": 3081,
      "నీటి": 3082,
      "ఇటీ": 3083,
      "tru": 3084,
      "ముగ్": 3085,
      "few": 3086,
      "దాదాపు": 3087,
      "సమీ": 3088,
      "inte": 3089,
      "formation": 3090,
      "కేవలం": 3091,
      "త్వంలో": 3092,
      "విజయం": 3093,
      "చిన": 3094,
      "కాలే": 3095,
      "విధంగా": 3096,
      "word": 3097,
      "ర్లు": 3098,
      "చేయడం": 3099,
      "ములు": 3100,
      "అవకాశం": 3101,
      "house": 3102,
      "ఉత్ప": 3103,
      "accident": 3104,
      "cre": 3105,
      "శ్రా": 3106,
      "సంఘటన": 3107,
      "ఎన్నికల్లో": 3108,
      "పైగా": 3109,
      "పోయారు": 3110,
      "val": 3111,
      "peri": 3112,
      "చెబు": 3113,
      "వ్యవస్థ": 3114,
      "ina": 3115,
      "support": 3116,
      "జ్ఞా": 3117,
      "ందీ": 3118,
      "వ్యక్తం": 3119,
      "Bollywood": 3120,
      "దుపు": 3121,
      "గౌ": 3122,
      "lit": 3123,
      "sim": 3124,
      "్యంలో": 3125,
      "పొందు": 3126,
      "చ్చారు": 3127,
      "held": 3128,
      "CP": 3129,
      "reme": 3130,
      "bro": 3131,
      "జూ": 3132,
      "నిర్మి": 3133,
      "సలు": 3134,
      "కాని": 3135,
      "స్టి": 3136,
      "వో": 3137,
      "ించాలి": 3138,
      "later": 3139,
      "Some": 3140,
      "తెలుసు": 3141,
      "several": 3142,
      "పాట": 3143,
      "పరుగు": 3144,
      "Cor": 3145,
      "aly": 3146,
      "ప్రస్తు": 3147,
      "To": 3148,
      "సాం": 3149,
      "రాజకీయ": 3150,
      "కంపె": 3151,
      "nam": 3152,
      "Sharma": 3153,
      "దొ": 3154,
      "ష్‌": 3155,
      "ఎల్": 3156,
      "posed": 3157,
      "known": 3158,
      "eni": 3159,
      "టీడీ": 3160,
      "గాలు": 3161,
      "కొంత": 3162,
      "డిని": 3163,
      "fect": 3164,
      "తిని": 3165,
      "demand": 3166,
      "మీకు": 3167,
      "కంపెనీ": 3168,
      "జరు": 3169,
      "stem": 3170,
      "చర్య": 3171,
      "Not": 3172,
      "భద్ర": 3173,
      "రాజు": 3174,
      "సాధారణ": 3175,
      "బం": 3176,
      "show": 3177,
      "ఫా": 3178,
      "success": 3179,
      "ump": 3180,
      "sol": 3181,
      "vent": 3182,
      "use": 3183,
      "క్యా": 3184,
      "farmers": 3185,
      "city": 3186,
      "right": 3187,
      "ించాలని": 3188,
      "total": 3189,
      "release": 3190,
      "If": 3191,
      "ద్ది": 3192,
      "ంబ్": 3193,
      "తిరిగి": 3194,
      "cretary": 3195,
      "80": 3196,
      "బ్బంది": 3197,
      "అంతే": 3198,
      "hold": 3199,
      "ప్రముఖ": 3200,
      "still": 3201,
      "eas": 3202,
      "Co": 3203,
      "నై": 3204,
      "vot": 3205,
      "చేస్తుంది": 3206,
      "chn": 3207,
      "ఎంపి": 3208,
      "చిత్రంలో": 3209,
      "ఆలోచ": 3210,
      "కింద": 3211,
      "వాటిని": 3212,
      "నిమి": 3213,
      "సభ్య": 3214,
      "అద్": 3215,
      "జెక్": 3216,
      "decision": 3217,
      "విద్యార్థ": 3218,
      "CM": 3219,
      "క్త": 3220,
      "vict": 3221,
      "జగ": 3222,
      "అంతర్": 3223,
      "officials": 3224,
      "pet": 3225,
      "Lok": 3226,
      "పెరిగి": 3227,
      "Con": 3228,
      "విషయంలో": 3229,
      "కృష్ణ": 3230,
      "రాష్ట్రంలో": 3231,
      "ఇప్పుడు": 3232,
      "జరగ": 3233,
      "ones": 3234,
      "years": 3235,
      "ament": 3236,
      "ందోళ": 3237,
      "చని": 3238,
      "Sri": 3239,
      "Ab": 3240,
      "jor": 3241,
      "may": 3242,
      "అంచ": 3243,
      "య‌": 3244,
      "ండ్ర": 3245,
      "వేది": 3246,
      "oney": 3247,
      ",\"\"": 3248,
      "Shi": 3249,
      "available": 3250,
      "aim": 3251,
      "things": 3252,
      "never": 3253,
      "special": 3254,
      "కీలక": 3255,
      "ctors": 3256,
      "ఎన్‌": 3257,
      "జట్టు": 3258,
      "శక్తి": 3259,
      "Sr": 3260,
      "పౌ": 3261,
      "announced": 3262,
      "andid": 3263,
      "aka": 3264,
      "మూవీ": 3265,
      "Mahar": 3266,
      "ఆధార": 3267,
      "చేశాడు": 3268,
      "ada": 3269,
      "vill": 3270,
      "వివిధ": 3271,
      "riend": 3272,
      "Le": 3273,
      "Shri": 3274,
      "Im": 3275,
      "details": 3276,
      "iness": 3277,
      "anth": 3278,
      "దర్శకత్వం": 3279,
      "Ro": 3280,
      "Gu": 3281,
      "ఆంధ్ర": 3282,
      "క్షన్": 3283,
      "సహాయ": 3284,
      "called": 3285,
      "outh": 3286,
      "ఫోన్": 3287,
      "ప్రభుత్వా": 3288,
      "recently": 3289,
      "After": 3290,
      "నాన్ని": 3291,
      "mod": 3292,
      "పణ": 3293,
      "less": 3294,
      "Christ": 3295,
      "cording": 3296,
      "హార్": 3297,
      "Eng": 3298,
      "పాడు": 3299,
      "వర్ష": 3300,
      "sed": 3301,
      "started": 3302,
      "adu": 3303,
      "angu": 3304,
      "Party": 3305,
      "sent": 3306,
      "CC": 3307,
      "Shah": 3308,
      "ఎవరి": 3309,
      "lim": 3310,
      "అసె": 3311,
      "పోలీసులకు": 3312,
      "పోర్": 3313,
      "నియా": 3314,
      "కున్న": 3315,
      "క్రమంలో": 3316,
      "తిక": 3317,
      "ext": 3318,
      "Mad": 3319,
      "poss": 3320,
      "నల్": 3321,
      "నటు": 3322,
      "కెప్టె": 3323,
      "position": 3324,
      "చిత్రాన్ని": 3325,
      "Beng": 3326,
      "bank": 3327,
      "మైంది": 3328,
      "నాథ": 3329,
      "మార్పు": 3330,
      "తగ్": 3331,
      "gir": 3332,
      "శర్మ": 3333,
      "కొను": 3334,
      "కార్యక్ర": 3335,
      "ఉన్నా": 3336,
      "project": 3337,
      "య్యి": 3338,
      "దె": 3339,
      "ధిక": 3340,
      "విషయ": 3341,
      "Bengal": 3342,
      "టీడీపీ": 3343,
      "చెల్ల": 3344,
      "మాట్లాడు": 3345,
      "కార్డు": 3346,
      "ashm": 3347,
      "ks": 3348,
      "సభ్యు": 3349,
      "డైరె": 3350,
      "ples": 3351,
      "poin": 3352,
      "అక్కడి": 3353,
      "beg": 3354,
      "తగ్గ": 3355,
      "తిరే": 3356,
      "మోహ": 3357,
      "అదుపు": 3358,
      "23": 3359,
      "ained": 3360,
      "నిర": 3361,
      "ించండి": 3362,
      "near": 3363,
      "incre": 3364,
      "ressed": 3365,
      "నాల": 3366,
      "పడిన": 3367,
      "ప్రొ": 3368,
      "మ్ము": 3369,
      "అసెంబ్": 3370,
      "cour": 3371,
      "dom": 3372,
      "sal": 3373,
      "ఇన్": 3374,
      "పున": 3375,
      "across": 3376,
      "away": 3377,
      "రాహుల్": 3378,
      "చిత్రానికి": 3379,
      "Har": 3380,
      "దర": 3381,
      "roles": 3382,
      "father": 3383,
      "అవసర": 3384,
      "బడింది": 3385,
      "శాలు": 3386,
      "ined": 3387,
      "అసెంబ్లీ": 3388,
      "Many": 3389,
      "One": 3390,
      "ఎన్న": 3391,
      "చేపట్ట": 3392,
      "ఎంపీ": 3393,
      "students": 3394,
      "కుంటు": 3395,
      "వివ": 3396,
      "సీపీ": 3397,
      "అర్థ": 3398,
      "ప్రో": 3399,
      "తక్కువ": 3400,
      "Act": 3401,
      "ప్పటికీ": 3402,
      "jun": 3403,
      "gram": 3404,
      "ris": 3405,
      "పించారు": 3406,
      "line": 3407,
      "షూ": 3408,
      "పోవ": 3409,
      "కోవడం": 3410,
      "తులను": 3411,
      "treatment": 3412,
      "వ్యతిరే": 3413,
      "conom": 3414,
      "including": 3415,
      "దాడి": 3416,
      "ange": 3417,
      "Then": 3418,
      "క్స్‌": 3419,
      "చైనా": 3420,
      "commit": 3421,
      "మీడియాలో": 3422,
      "ప్రాజెక్": 3423,
      "ides": 3424,
      "లూ": 3425,
      "bal": 3426,
      "Cha": 3427,
      "సంతో": 3428,
      "complaint": 3429,
      "దాన్ని": 3430,
      "grow": 3431,
      "నొ": 3432,
      "requ": 3433,
      "why": 3434,
      "చ్చింది": 3435,
      "real": 3436,
      "దర్శి": 3437,
      "fact": 3438,
      "ఆందోళ": 3439,
      "బాధ్య": 3440,
      "rishna": 3441,
      "రికి": 3442,
      "తమైన": 3443,
      "న్స్‌": 3444,
      "ird": 3445,
      "however": 3446,
      "నమ్మ": 3447,
      "pop": 3448,
      "around": 3449,
      "ఒకటి": 3450,
      "Ac": 3451,
      "ency": 3452,
      "తది": 3453,
      "త్యా": 3454,
      "Koh": 3455,
      "డుగు": 3456,
      "main": 3457,
      "aren": 3458,
      "మహే": 3459,
      "order": 3460,
      "సమాధా": 3461,
      "వన": 3462,
      "కోహ్": 3463,
      "జ‌": 3464,
      "irus": 3465,
      "సమావేశ": 3466,
      "nor": 3467,
      "సాయ": 3468,
      "immediately": 3469,
      "five": 3470,
      "Mal": 3471,
      "రారు": 3472,
      "రెండో": 3473,
      "చార": 3474,
      "సుప్రీ": 3475,
      "ముంబై": 3476,
      "స్ట్‌": 3477,
      "top": 3478,
      "లేని": 3479,
      "జం": 3480,
      "hit": 3481,
      "ాన్ని": 3482,
      "system": 3483,
      "సూచ": 3484,
      "ute": 3485,
      "ళ్లి": 3486,
      "Kohli": 3487,
      "ండగా": 3488,
      "అమి": 3489,
      "ట్లో": 3490,
      "పాఠ": 3491,
      "friend": 3492,
      "ంట్‌": 3493,
      "lock": 3494,
      "ling": 3495,
      "దగ్గ": 3496,
      "వచ్చా": 3497,
      "ned": 3498,
      "eld": 3499,
      "apo": 3500,
      "COV": 3501,
      "పర్య": 3502,
      "రికీ": 3503,
      "పెం": 3504,
      "28": 3505,
      "del": 3506,
      "along": 3507,
      "ట్రా": 3508,
      "వాడ": 3509,
      "ashtra": 3510,
      "టార్": 3511,
      "states": 3512,
      "inistry": 3513,
      "ఎవ": 3514,
      "కొనసాగు": 3515,
      "టీఆర్": 3516,
      "crit": 3517,
      "Karn": 3518,
      "ానికి": 3519,
      "చేస్తా": 3520,
      "గూ": 3521,
      "డిమా": 3522,
      "కాల్": 3523,
      "become": 3524,
      "bre": 3525,
      "candid": 3526,
      "High": 3527,
      "రక్షణ": 3528,
      "సంబంధించి": 3529,
      "shoot": 3530,
      "illion": 3531,
      "ivers": 3532,
      "gener": 3533,
      "దేవుని": 3534,
      "avirus": 3535,
      "trans": 3536,
      "issue": 3537,
      "రాలే": 3538,
      "writ": 3539,
      "COVID": 3540,
      "స్టా": 3541,
      "urther": 3542,
      "దర్శకుడు": 3543,
      "ఐదు": 3544,
      "వేయ": 3545,
      "రాజ్య": 3546,
      "విషయాన్ని": 3547,
      "స్తున్నాడు": 3548,
      "ushed": 3549,
      "లక్షలు": 3550,
      "question": 3551,
      "బే": 3552,
      "లర్": 3553,
      "శ్రమ": 3554,
      "సుప్రీం": 3555,
      "hist": 3556,
      "తాజాగా": 3557,
      "ధీ": 3558,
      "ఫై": 3559,
      "ారె": 3560,
      "onavirus": 3561,
      "appro": 3562,
      "కారణంగా": 3563,
      "major": 3564,
      "school": 3565,
      "interest": 3566,
      "ara": 3567,
      "uc": 3568,
      "సోషల్": 3569,
      "gether": 3570,
      "యల్": 3571,
      "ized": 3572,
      "persons": 3573,
      "investigation": 3574,
      "Mahe": 3575,
      "న్‌లో": 3576,
      "బ్‌": 3577,
      "చరి": 3578,
      "టమి": 3579,
      "lood": 3580,
      "list": 3581,
      "ట్స్": 3582,
      "నాడు": 3583,
      "‘‘": 3584,
      "ందన్నారు": 3585,
      "ర్‌లో": 3586,
      "mot": 3587,
      "think": 3588,
      "pected": 3589,
      "reached": 3590,
      "comes": 3591,
      "కాలం": 3592,
      "పడింది": 3593,
      "ఆహ": 3594,
      "hum": 3595,
      "pay": 3596,
      "జెపి": 3597,
      "turn": 3598,
      "ఉందని": 3599,
      "Po": 3600,
      "ified": 3601,
      "ism": 3602,
      "Jag": 3603,
      "since": 3604,
      "మాట్లాడ": 3605,
      "atch": 3606,
      "says": 3607,
      "record": 3608,
      "Spe": 3609,
      "రామ్": 3610,
      "టికి": 3611,
      "ప్రకటన": 3612,
      "డబ్": 3613,
      "బర్": 3614,
      "gre": 3615,
      "open": 3616,
      "దర్శకత్వంలో": 3617,
      "appe": 3618,
      "hoto": 3619,
      "ran": 3620,
      "సీసీ": 3621,
      "సృ": 3622,
      "ండ్రి": 3623,
      "చంద్రబాబు": 3624,
      "మతి": 3625,
      "Two": 3626,
      "ref": 3627,
      "చేరి": 3628,
      "విరా": 3629,
      "ఉద": 3630,
      "together": 3631,
      "వేల": 3632,
      "event": 3633,
      "ari": 3634,
      "అధికార": 3635,
      "యుడు": 3636,
      "election": 3637,
      "కోల్": 3638,
      "ఫు": 3639,
      "ataka": 3640,
      "process": 3641,
      "Fin": 3642,
      "ప్లా": 3643,
      "fire": 3644,
      "రాజీ": 3645,
      "icle": 3646,
      "నేపథ": 3647,
      "ude": 3648,
      "చై": 3649,
      "People": 3650,
      "బిజెపి": 3651,
      "story": 3652,
      "daughter": 3653,
      "Jes": 3654,
      "Au": 3655,
      "అంటూ": 3656,
      "ించేందుకు": 3657,
      "ఇలాంటి": 3658,
      "35": 3659,
      "beli": 3660,
      "Karnataka": 3661,
      "చేయడానికి": 3662,
      "ప్రకారం": 3663,
      "ours": 3664,
      "spir": 3665,
      "మహారా": 3666,
      "wr": 3667,
      "సార్లు": 3668,
      "వేగ": 3669,
      "బాలీవుడ్": 3670,
      "When": 3671,
      "az": 3672,
      "change": 3673,
      "benef": 3674,
      "Pun": 3675,
      "జీవిత": 3676,
      "అత్యంత": 3677,
      "aram": 3678,
      "ప్పుడూ": 3679,
      "తున్నా": 3680,
      "based": 3681,
      "hon": 3682,
      "ternational": 3683,
      "ముగ్గురు": 3684,
      "ber": 3685,
      "అందులో": 3686,
      "curity": 3687,
      "times": 3688,
      "ena": 3689,
      "Test": 3690,
      "Maharashtra": 3691,
      "బడ": 3692,
      "hes": 3693,
      "ించలేదు": 3694,
      "fall": 3695,
      "మౌ": 3696,
      "Jesus": 3697,
      "యంగా": 3698,
      "Sam": 3699,
      "ఉండాలి": 3700,
      "ually": 3701,
      "vind": 3702,
      "తండ్రి": 3703,
      "నమోద": 3704,
      "ఇంటి": 3705,
      "sign": 3706,
      "మర్శ": 3707,
      "పాద": 3708,
      "Wh": 3709,
      "gy": 3710,
      "area": 3711,
      "నిర్ణయం": 3712,
      "Dis": 3713,
      "సము": 3714,
      "arents": 3715,
      "గానే": 3716,
      "26": 3717,
      "thor": 3718,
      "Both": 3719,
      "సంగీతం": 3720,
      "met": 3721,
      "tries": 3722,
      "అయినా": 3723,
      "Paw": 3724,
      "ాడు": 3725,
      "వివరాలు": 3726,
      "vid": 3727,
      "వివా": 3728,
      "ప్రమాదం": 3729,
      "World": 3730,
      "cost": 3731,
      "డిన": 3732,
      "వెళ్లి": 3733,
      "ababu": 3734,
      "గ్రీ": 3735,
      "cut": 3736,
      "నాలుగు": 3737,
      "various": 3738,
      "posit": 3739,
      "ట్రం": 3740,
      "Hindi": 3741,
      "మత": 3742,
      "ఆస": 3743,
      "ెను": 3744,
      "information": 3745,
      "political": 3746,
      "విలువ": 3747,
      "Amit": 3748,
      "sk": 3749,
      "విస్త": 3750,
      "పోయిన": 3751,
      "వరణ": 3752,
      "soci": 3753,
      "చేయాలి": 3754,
      "అభిమా": 3755,
      "మద్ద": 3756,
      "సమయం": 3757,
      "గొప్ప": 3758,
      "received": 3759,
      "గాల": 3760,
      "ner": 3761,
      "aged": 3762,
      "Res": 3763,
      "true": 3764,
      "కాలంలో": 3765,
      "దాలు": 3766,
      "conne": 3767,
      "టానికి": 3768,
      "ashmir": 3769,
      "discus": 3770,
      "ues": 3771,
      "playing": 3772,
      "లియా": 3773,
      "Pras": 3774,
      "Kashmir": 3775,
      "ఫ్ర": 3776,
      "current": 3777,
      "అద్భు": 3778,
      "indu": 3779,
      "ట్వి": 3780,
      "దేవ": 3781,
      "2019": 3782,
      "భర్": 3783,
      "అప్పుడు": 3784,
      "ఫే": 3785,
      "fted": 3786,
      "సభ్యులు": 3787,
      "rushed": 3788,
      "employ": 3789,
      "అందుబాటు": 3790,
      "ology": 3791,
      "Ven": 3792,
      "అప్ప": 3793,
      "శ్మీ": 3794,
      "give": 3795,
      "కార్యదర్శి": 3796,
      "With": 3797,
      "Whats": 3798,
      "ింప": 3799,
      "ఎక్కువగా": 3800,
      "els": 3801,
      "Chandrababu": 3802,
      "ఉత్తర": 3803,
      "బాధి": 3804,
      "dri": 3805,
      "దారి": 3806,
      "problem": 3807,
      "vel": 3808,
      "‌లో": 3809,
      "cept": 3810,
      "రవి": 3811,
      "phone": 3812,
      "సమావే": 3813,
      "ఆస్పత్రికి": 3814,
      "occas": 3815,
      "wa": 3816,
      "శ్చి": 3817,
      "dies": 3818,
      "ety": 3819,
      "prices": 3820,
      "షూటింగ్": 3821,
      "తీవ్రంగా": 3822,
      "శివ": 3823,
      "యండి": 3824,
      "temple": 3825,
      "ారో": 3826,
      "wards": 3827,
      "because": 3828,
      "చెంద": 3829,
      "మవు": 3830,
      "ప్రసా": 3831,
      "pped": 3832,
      "features": 3833,
      "ప్రజా": 3834,
      "మొదల": 3835,
      "ల్డ్": 3836,
      "సినిమాకు": 3837,
      "ey": 3838,
      "పరిశీ": 3839,
      "lost": 3840,
      "75": 3841,
      "ek": 3842,
      "రైల్": 3843,
      "చరిత్ర": 3844,
      "అలాంటి": 3845,
      "90": 3846,
      "trib": 3847,
      "కెట్‌": 3848,
      "క్రియ": 3849,
      "కొంద": 3850,
      "చేయాలని": 3851,
      "మాన్": 3852,
      "మృత": 3853,
      "hal": 3854,
      "Assembly": 3855,
      "China": 3856,
      "ించాయి": 3857,
      "జయ": 3858,
      "విమర్శ": 3859,
      "రియా": 3860,
      "కోట్": 3861,
      "రామ": 3862,
      "Am": 3863,
      "BS": 3864,
      "rain": 3865,
      "key": 3866,
      "rul": 3867,
      "తప్పు": 3868,
      "stars": 3869,
      "కాకుండా": 3870,
      "నిర్ణయ": 3871,
      "enior": 3872,
      "cover": 3873,
      "షణ": 3874,
      "aring": 3875,
      "ఎవరు": 3876,
      "doing": 3877,
      "పట్టు": 3878,
      "Lo": 3879,
      "count": 3880,
      "మహా": 3881,
      "Just": 3882,
      "ఆత్": 3883,
      "త్రు": 3884,
      "ఖర్చు": 3885,
      "mother": 3886,
      "sl": 3887,
      "హీరోయిన్": 3888,
      "మార్కెట్": 3889,
      "నుక": 3890,
      "claim": 3891,
      "మ్యాచ్‌": 3892,
      "మహారాష్ట్ర": 3893,
      "ఎయి": 3894,
      "bs": 3895,
      "market": 3896,
      "బీఐ": 3897,
      "IP": 3898,
      "qual": 3899,
      "Babu": 3900,
      "రువు": 3901,
      "పిల్లలు": 3902,
      "త్వరలోనే": 3903,
      "eve": 3904,
      "దేశీ": 3905,
      "భయ": 3906,
      "సినిమాను": 3907,
      "langu": 3908,
      "const": 3909,
      "క్షే": 3910,
      "played": 3911,
      "కింగ్": 3912,
      "దక్షి": 3913,
      "alle": 3914,
      "money": 3915,
      "డ్జె": 3916,
      "డైన": 3917,
      "Jam": 3918,
      "econom": 3919,
      "ఆనంద": 3920,
      "మిం": 3921,
      "మంత్ర": 3922,
      "అమలు": 3923,
      "సిబ్బంది": 3924,
      "news": 3925,
      "ందం": 3926,
      "ished": 3927,
      "plic": 3928,
      "తరులు": 3929,
      "heart": 3930,
      "వ్యాప": 3931,
      "ఇంటర్": 3932,
      "plac": 3933,
      "ric": 3934,
      "match": 3935,
      "Dr": 3936,
      "ians": 3937,
      "పట్ల": 3938,
      "కోండి": 3939,
      "దృష్టి": 3940,
      "నేపథ్యంలో": 3941,
      "ంటున్నారు": 3942,
      "ర్తి": 3943,
      "ults": 3944,
      "liament": 3945,
      "food": 3946,
      "Or": 3947,
      "national": 3948,
      "27": 3949,
      "ights": 3950,
      "bed": 3951,
      "అతడు": 3952,
      "అనేది": 3953,
      "రాజ్": 3954,
      "sco": 3955,
      "protest": 3956,
      "300": 3957,
      "న్యూఢిల్లీ": 3958,
      "Col": 3959,
      "hus": 3960,
      "Supreme": 3961,
      "రాలేదు": 3962,
      "సింగ్‌": 3963,
      "ప్రవేశ": 3964,
      "Shiv": 3965,
      "Pat": 3966,
      "spo": 3967,
      "మార": 3968,
      "decl": 3969,
      "గ‌": 3970,
      "అంతర్జాతీయ": 3971,
      "సీనియ": 3972,
      "హిందీ": 3973,
      "visit": 3974,
      "దండ్ర": 3975,
      "చెప్పు": 3976,
      "వాస్త": 3977,
      "లేద": 3978,
      "aut": 3979,
      "ఆసక్తి": 3980,
      "keep": 3981,
      "ద్దా": 3982,
      "particip": 3983,
      "దశ": 3984,
      "దాంతో": 3985,
      "మందికి": 3986,
      "స్ట్రే": 3987,
      "Vir": 3988,
      "den": 3989,
      "అల": 3990,
      "ror": 3991,
      "అప్పటి": 3992,
      "ham": 3993,
      "డంలో": 3994,
      "development": 3995,
      "తెలిపింది": 3996,
      "ield": 3997,
      "wicket": 3998,
      "ఆదా": 3999,
      "ఆమో": 4000,
      "పరిష్": 4001,
      "సమర్": 4002,
      "ంగళ": 4003,
      "స్తో": 4004,
      "arch": 4005,
      "Ele": 4006,
      "woman": 4007,
      "తులకు": 4008,
      "best": 4009,
      "డవ": 4010,
      "local": 4011,
      "problems": 4012,
      "అరెస్టు": 4013,
      "స్థానంలో": 4014,
      "చ్చే": 4015,
      "క్య": 4016,
      "యర్": 4017,
      "హత్య": 4018,
      "ముల": 4019,
      "Ak": 4020,
      "Home": 4021,
      "చింది": 4022,
      "శాస్త్ర": 4023,
      "ఎందు": 4024,
      "స్వీ": 4025,
      "కోహ్లీ": 4026,
      "More": 4027,
      "dr": 4028,
      "రైల్వే": 4029,
      "భాగం": 4030,
      "countries": 4031,
      "Former": 4032,
      "పెట్రో": 4033,
      "lier": 4034,
      "captain": 4035,
      "hig": 4036,
      "బహు": 4037,
      "క్కడే": 4038,
      "ఆందోళన": 4039,
      "Her": 4040,
      "త్సర": 4041,
      "My": 4042,
      "respect": 4043,
      "పూర్తిగా": 4044,
      "కోవాలని": 4045,
      "working": 4046,
      "dead": 4047,
      "వేదిక": 4048,
      "occasion": 4049,
      "fun": 4050,
      "చేసుకున్న": 4051,
      "ఎంపిక": 4052,
      "public": 4053,
      "హైకోర్టు": 4054,
      "కొద్ది": 4055,
      "గ్రామ": 4056,
      "band": 4057,
      "heav": 4058,
      "యూని": 4059,
      "Kaly": 4060,
      "ఆట": 4061,
      "move": 4062,
      "జీవ": 4063,
      "Son": 4064,
      "condu": 4065,
      "గిలి": 4066,
      "Ut": 4067,
      "ination": 4068,
      "Trump": 4069,
      "West": 4070,
      "సంవత్సర": 4071,
      "speak": 4072,
      "reason": 4073,
      "unt": 4074,
      "వరకూ": 4075,
      "య్యే": 4076,
      "expected": 4077,
      "తల్లిదండ్ర": 4078,
      "మద్దతు": 4079,
      "unity": 4080,
      "న్సి": 4081,
      "చివరి": 4082,
      "pend": 4083,
      "Bi": 4084,
      "తగా": 4085,
      "ైంది": 4086,
      "Pl": 4087,
      "sche": 4088,
      "చరణ": 4089,
      "organ": 4090,
      "త్తా": 4091,
      "parents": 4092,
      "యుద్ధ": 4093,
      "ఉత్పత్తి": 4094,
      "గణ": 4095,
      "మ్యూ": 4096,
      "మన్నారు": 4097,
      "యులు": 4098,
      "ప్రశ్న": 4099,
      "today": 4100,
      "ఎన్నో": 4101,
      "శోధ": 4102,
      "ఘన": 4103,
      "మాలు": 4104,
      "rence": 4105,
      "ప్రదేశ్‌": 4106,
      "runs": 4107,
      "నేతలు": 4108,
      "నగర": 4109,
      "investigating": 4110,
      "పోస్టు": 4111,
      "face": 4112,
      "ka": 4113,
      "నన్ను": 4114,
      "company": 4115,
      "వినియోగ": 4116,
      "shifted": 4117,
      "Prasad": 4118,
      "మృతదే": 4119,
      "serious": 4120,
      "ప్రాజెక్టు": 4121,
      "Dont": 4122,
      "ప్పి": 4123,
      "ఫోటో": 4124,
      "Med": 4125,
      "డని": 4126,
      "బడ్జె": 4127,
      "ury": 4128,
      "left": 4129,
      "కేసులో": 4130,
      "ఉదా": 4131,
      "jar": 4132,
      "రాజ్‌": 4133,
      "sus": 4134,
      "అందుకే": 4135,
      "ఇటీవల": 4136,
      "హరణ": 4137,
      "గులు": 4138,
      "ees": 4139,
      "witter": 4140,
      "bas": 4141,
      "ాల‌": 4142,
      "ప్రసాద్": 4143,
      "ousand": 4144,
      "పుణ": 4145,
      "tee": 4146,
      "pan": 4147,
      "తాలు": 4148,
      "యేసు": 4149,
      "member": 4150,
      "Are": 4151,
      "హాజర": 4152,
      "స్‌లో": 4153,
      "ie": 4154,
      "ja": 4155,
      "గాయి": 4156,
      "further": 4157,
      "II": 4158,
      "wer": 4159,
      "cing": 4160,
      "Mahesh": 4161,
      "యానికి": 4162,
      "అంగ": 4163,
      "Add": 4164,
      "త్వరలో": 4165,
      "viral": 4166,
      "కష్ట": 4167,
      "సుమారు": 4168,
      "six": 4169,
      "ives": 4170,
      "don": 4171,
      "రళ": 4172,
      "YSR": 4173,
      "ంటో": 4174,
      "పాత్రలో": 4175,
      "అర్థం": 4176,
      "Naid": 4177,
      "Kapo": 4178,
      "ధ్యా": 4179,
      "que": 4180,
      "Bible": 4181,
      "గారు": 4182,
      "గంట": 4183,
      "తిలో": 4184,
      "జారీ": 4185,
      "fort": 4186,
      "filed": 4187,
      "hav": 4188,
      "huge": 4189,
      "విక్ర": 4190,
      "uru": 4191,
      "బాధ": 4192,
      "పడ్డా": 4193,
      "గింది": 4194,
      "జాగ్ర": 4195,
      "అదుపులోకి": 4196,
      "సన్": 4197,
      "ఆదేశ": 4198,
      "third": 4199,
      "veh": 4200,
      "Char": 4201,
      "బ్యాంకు": 4202,
      "Ministry": 4203,
      "Director": 4204,
      "పెళ్లి": 4205,
      "ఆయనకు": 4206,
      "పర్యా": 4207,
      "allow": 4208,
      "చేయు": 4209,
      "ఎదురు": 4210,
      "icide": 4211,
      "didnt": 4212,
      "సులు": 4213,
      "వయ": 4214,
      "ature": 4215,
      "వెల్లడించారు": 4216,
      "నిజా": 4217,
      "mil": 4218,
      "ములో": 4219,
      "Kapoor": 4220,
      "date": 4221,
      "photo": 4222,
      "సంబం": 4223,
      "కోవడానికి": 4224,
      "ఆది": 4225,
      "bit": 4226,
      "గుర్తు": 4227,
      "ప్రై": 4228,
      "TRS": 4229,
      "ద్యా": 4230,
      "techn": 4231,
      "Naidu": 4232,
      "CR": 4233,
      "ఉగ్ర": 4234,
      "ంట్ర": 4235,
      "వెళ్ల": 4236,
      "Other": 4237,
      "బ్రి": 4238,
      "45": 4239,
      "Air": 4240,
      "టెక్": 4241,
      "fight": 4242,
      "ఎల్‌": 4243,
      "పశ్చి": 4244,
      "attended": 4245,
      "నీరు": 4246,
      "వ్వు": 4247,
      "గెలు": 4248,
      "really": 4249,
      "engine": 4250,
      "ఒకే": 4251,
      "సంత": 4252,
      "సాధ్య": 4253,
      "ium": 4254,
      "మన్": 4255,
      "udget": 4256,
      "Health": 4257,
      "ఏపీ": 4258,
      "cele": 4259,
      "small": 4260,
      "conf": 4261,
      "టెస్టు": 4262,
      "Kar": 4263,
      "Nar": 4264,
      "భూమి": 4265,
      "ట్టింది": 4266,
      "girl": 4267,
      "కోవచ్చు": 4268,
      "పార్ల": 4269,
      "brother": 4270,
      "Pawan": 4271,
      "ఆత్మహ": 4272,
      "Secretary": 4273,
      "ences": 4274,
      "వలన": 4275,
      "వస్తు": 4276,
      "program": 4277,
      "ళ్లీ": 4278,
      "''": 4279,
      "కెప్టెన్": 4280,
      "tre": 4281,
      "సామా": 4282,
      "సహాయం": 4283,
      "భే": 4284,
      "వ్యూ": 4285,
      "nothing": 4286,
      "making": 4287,
      "లక్": 4288,
      "వ్యాఖ్య": 4289,
      "build": 4290,
      "కార్యక్రమంలో": 4291,
      "possible": 4292,
      "side": 4293,
      "vo": 4294,
      "జాగ్రత్త": 4295,
      "launched": 4296,
      "పాలి": 4297,
      "Twitter": 4298,
      "చొ": 4299,
      "పారి": 4300,
      "మను": 4301,
      "మీటర్": 4302,
      "గెలి": 4303,
      "కోవిడ్": 4304,
      "Kalyan": 4305,
      "ప్రజల": 4306,
      "Ke": 4307,
      "Commission": 4308,
      "arr": 4309,
      "య్యింది": 4310,
      "areas": 4311,
      "కొండ": 4312,
      "ger": 4313,
      "thy": 4314,
      "opt": 4315,
      "జిల్లాలో": 4316,
      "added": 4317,
      "ఫర్": 4318,
      "యాద": 4319,
      "దీన్ని": 4320,
      "టనా": 4321,
      "దుర్": 4322,
      "colle": 4323,
      "బొ": 4324,
      "ీకర": 4325,
      "plan": 4326,
      "మల": 4327,
      "Gujar": 4328,
      "jud": 4329,
      "complete": 4330,
      "informed": 4331,
      "ఇంగ్": 4332,
      "విశ్వ": 4333,
      "ఉద్": 4334,
      "29": 4335,
      "స్పె": 4336,
      "కారణం": 4337,
      "డాక్టర్": 4338,
      "ఉపా": 4339,
      "మాకు": 4340,
      "టివ్": 4341,
      "ప్రేక్ష": 4342,
      "Ker": 4343,
      "Pri": 4344,
      "kind": 4345,
      "దరు": 4346,
      "దులు": 4347,
      "ంటుంది": 4348,
      "celebr": 4349,
      "న్లు": 4350,
      "uri": 4351,
      "కన": 4352,
      "కై": 4353,
      "భాగంగా": 4354,
      "అసలు": 4355,
      "థా": 4356,
      "స్థాయిలో": 4357,
      "సంతోష": 4358,
      "era": 4359,
      "పుర": 4360,
      "షు": 4361,
      "స్థాన్": 4362,
      "shooting": 4363,
      "point": 4364,
      "hard": 4365,
      "price": 4366,
      "tle": 4367,
      "డ్రై": 4368,
      "gone": 4369,
      "ఎఫ్": 4370,
      "లేవు": 4371,
      "light": 4372,
      "TV": 4373,
      "’’": 4374,
      "పోరా": 4375,
      "పడుతుంది": 4376,
      "onse": 4377,
      "inst": 4378,
      "Off": 4379,
      "కట్టు": 4380,
      "IC": 4381,
      "వైరస్": 4382,
      "ండే": 4383,
      "నిందితు": 4384,
      "ొక": 4385,
      "elect": 4386,
      "ధరలు": 4387,
      "చల": 4388,
      "న్నది": 4389,
      "వెలు": 4390,
      "Jan": 4391,
      "ఖాన్": 4392,
      "ఒప్ప": 4393,
      "effect": 4394,
      "San": 4395,
      "వాల్": 4396,
      "Sa": 4397,
      "male": 4398,
      "కనిపి": 4399,
      "jee": 4400,
      "Dev": 4401,
      "jab": 4402,
      "lish": 4403,
      "ias": 4404,
      "rate": 4405,
      "శుభ": 4406,
      "oil": 4407,
      "అరు": 4408,
      "స్థలా": 4409,
      "large": 4410,
      "mur": 4411,
      "ప్రమాదంలో": 4412,
      "కర్ణా": 4413,
      "happy": 4414,
      "ఇవి": 4415,
      "ఇందుకు": 4416,
      "married": 4417,
      "joy": 4418,
      "include": 4419,
      "became": 4420,
      "Jo": 4421,
      "తయ": 4422,
      "భిన్న": 4423,
      "reco": 4424,
      "జిక": 4425,
      "ఆటో": 4426,
      "ఉదాహరణ": 4427,
      "మళ్లీ": 4428,
      "నించారు": 4429,
      "Krishna": 4430,
      "మాట్లాడుతూ": 4431,
      "clear": 4432,
      "nder": 4433,
      "వారిలో": 4434,
      "Uttar": 4435,
      "నర్‌": 4436,
      "కూడదు": 4437,
      "coronavirus": 4438,
      "తేడా": 4439,
      "suicide": 4440,
      "Sat": 4441,
      "uries": 4442,
      "కర్ణాటక": 4443,
      "ముగా": 4444,
      "ayal": 4445,
      "అవార్": 4446,
      "ఆధారంగా": 4447,
      "నేష": 4448,
      "స్నే": 4449,
      "కేంద్రం": 4450,
      "Punjab": 4451,
      "Virat": 4452,
      "pa": 4453,
      "గవర్": 4454,
      "diff": 4455,
      "taking": 4456,
      "తీర్పు": 4457,
      "Aust": 4458,
      "కిలో": 4459,
      "weet": 4460,
      "Bhar": 4461,
      "bann": 4462,
      "iah": 4463,
      "వాళ్లు": 4464,
      "ర్య": 4465,
      "కాలేదు": 4466,
      "ంలోకి": 4467,
      "meric": 4468,
      "పశ్చిమ": 4469,
      "—⁠": 4470,
      "return": 4471,
      "ట్వీ": 4472,
      "సేన": 4473,
      "సంవత్స": 4474,
      "తేదీ": 4475,
      "oup": 4476,
      "Gujarat": 4477,
      "Yad": 4478,
      "following": 4479,
      "ars": 4480,
      "AP": 4481,
      "Srin": 4482,
      "security": 4483,
      "May": 4484,
      "బ్రా": 4485,
      "కెమె": 4486,
      "States": 4487,
      "icts": 4488,
      "భారతీయ": 4489,
      "లేకుండా": 4490,
      "ches": 4491,
      "చేరు": 4492,
      "Kerala": 4493,
      "స్థాని": 4494,
      "ఘటనలో": 4495,
      "ణీ": 4496,
      "ద‌": 4497,
      "బైబి": 4498,
      "Can": 4499,
      "వది": 4500,
      "32": 4501,
      "nai": 4502,
      "told": 4503,
      "బౌ": 4504,
      "cricket": 4505,
      "issued": 4506,
      "pati": 4507,
      "వాతా": 4508,
      "స్థానిక": 4509,
      "wn": 4510,
      "ever": 4511,
      "ధాని": 4512,
      "లేఖ": 4513,
      "బుల్": 4514,
      "positive": 4515,
      "భావి": 4516,
      "ఇచ్చిన": 4517,
      "శేష": 4518,
      "strong": 4519,
      "విశ్వా": 4520,
      "Centre": 4521,
      "onda": 4522,
      "stri": 4523,
      "Var": 4524,
      "youn": 4525,
      "vice": 4526,
      "డ్యూ": 4527,
      "though": 4528,
      "డికి": 4529,
      "acted": 4530,
      "భావ": 4531,
      "దీనిని": 4532,
      "Don": 4533,
      "audi": 4534,
      "జరా": 4535,
      "సల": 4536,
      "31": 4537,
      "parties": 4538,
      "respons": 4539,
      "response": 4540,
      "నష్ట": 4541,
      "educ": 4542,
      "unto": 4543,
      "క్రై": 4544,
      "కమిటీ": 4545,
      "స్టర్": 4546,
      "ఇండియన్": 4547,
      "తదితరులు": 4548,
      "ధులు": 4549,
      "ప్రదర్శ": 4550,
      "ఘటనపై": 4551,
      "ఇండ": 4552,
      "Gr": 4553,
      "io": 4554,
      "custo": 4555,
      "idence": 4556,
      "grap": 4557,
      "Nadu": 4558,
      "కరమైన": 4559,
      "తెలియజే": 4560,
      "village": 4561,
      "ంటీ": 4562,
      "priv": 4563,
      "bir": 4564,
      "సులభ": 4565,
      "బృ": 4566,
      "నిరా": 4567,
      "ప్రక్రియ": 4568,
      "song": 4569,
      "ఎఫ్‌": 4570,
      "మనకు": 4571,
      "ards": 4572,
      "plays": 4573,
      "Bang": 4574,
      "ప్తి": 4575,
      "పాలు": 4576,
      "activ": 4577,
      "bad": 4578,
      "అమ్మ": 4579,
      "నామా": 4580,
      "స్టో": 4581,
      "series": 4582,
      "contest": 4583,
      "dou": 4584,
      "ఆత్మహత్య": 4585,
      "పంజా": 4586,
      "feel": 4587,
      "సొంత": 4588,
      "తుందని": 4589,
      "Chen": 4590,
      "needs": 4591,
      "బ్యాంక్": 4592,
      "Will": 4593,
      "ub": 4594,
      "partment": 4595,
      "aff": 4596,
      "కుమార్‌": 4597,
      "South": 4598,
      "పవన్": 4599,
      "abin": 4600,
      "2018": 4601,
      "శిక్ష": 4602,
      "Arjun": 4603,
      "అర్జు": 4604,
      "రద్దు": 4605,
      "స్వామి": 4606,
      "ఆసుపత్రికి": 4607,
      "రిని": 4608,
      "politics": 4609,
      "సమావేశంలో": 4610,
      "condition": 4611,
      "వ్యాధి": 4612,
      "కన్": 4613,
      "నడు": 4614,
      "వెంక": 4615,
      "Roh": 4616,
      "జ్య": 4617,
      "సార": 4618,
      "గుజరా": 4619,
      "ulation": 4620,
      "పరిశ్రమ": 4621,
      "ఆరోపణ": 4622,
      "కర్‌": 4623,
      "ilar": 4624,
      "Austral": 4625,
      "MLA": 4626,
      "మానా": 4627,
      "aining": 4628,
      "reasons": 4629,
      "హాన్ని": 4630,
      "ically": 4631,
      "సమాధానం": 4632,
      "ఖ్యా": 4633,
      "పలువు": 4634,
      "Sal": 4635,
      "అడుగు": 4636,
      "మందు": 4637,
      "result": 4638,
      "తొల": 4639,
      "కల్ప": 4640,
      "Tri": 4641,
      "వేరు": 4642,
      "వైఎస్": 4643,
      "speed": 4644,
      "Yadav": 4645,
      "ked": 4646,
      "హైదరాబాద్‌": 4647,
      "విద్యా": 4648,
      "ges": 4649,
      "production": 4650,
      "ither": 4651,
      "results": 4652,
      "increas": 4653,
      "ga": 4654,
      "aled": 4655,
      "deep": 4656,
      "కెట్లు": 4657,
      "మంత్రిత్వ": 4658,
      "దయ": 4659,
      "always": 4660,
      "field": 4661,
      "వాద": 4662,
      "చక్క": 4663,
      "Isra": 4664,
      "వాళ్ళ": 4665,
      "నటుడు": 4666,
      "week": 4667,
      "వుల": 4668,
      "కట్ట": 4669,
      "works": 4670,
      "pict": 4671,
      "రిలీ": 4672,
      "step": 4673,
      "ailed": 4674,
      "ప్రకటించారు": 4675,
      "పాయిం": 4676,
      "డౌ": 4677,
      "లాక్": 4678,
      "చెన్న": 4679,
      "కేరళ": 4680,
      "స్పీ": 4681,
      "చం": 4682,
      "imp": 4683,
      "free": 4684,
      "150": 4685,
      "బంగ": 4686,
      "డబ్బు": 4687,
      "నారా": 4688,
      "పన్ను": 4689,
      "opport": 4690,
      "find": 4691,
      "సంస్": 4692,
      "ancial": 4693,
      "స్కూ": 4694,
      "అభ్యర్థ": 4695,
      "కరి": 4696,
      "కోలేదు": 4697,
      "సాంకే": 4698,
      "ప్రె": 4699,
      "టీమిం": 4700,
      "lives": 4701,
      "అందుబాటులో": 4702,
      "రోహి": 4703,
      "దగ్గర": 4704,
      "టీమిండియా": 4705,
      "కాలి": 4706,
      "Op": 4707,
      "fans": 4708,
      "పరిశోధ": 4709,
      "vered": 4710,
      "?\"": 4711,
      "million": 4712,
      "మార్గ": 4713,
      "endra": 4714,
      "spec": 4715,
      "పులు": 4716,
      "ports": 4717,
      "Central": 4718,
      "ప్రాంతాల్లో": 4719,
      "అవార్డు": 4720,
      "mp": 4721,
      "ముగి": 4722,
      "రూపొంద": 4723,
      "App": 4724,
      "NTR": 4725,
      "పాకిస్తా": 4726,
      "ఒక్": 4727,
      "లేరు": 4728,
      "final": 4729,
      "victim": 4730,
      "difficult": 4731,
      "ient": 4732,
      "short": 4733,
      "డిమాండ్": 4734,
      "itiz": 4735,
      "Mohan": 4736,
      "స్థానం": 4737,
      "past": 4738,
      "తారా": 4739,
      "నీవు": 4740,
      "occur": 4741,
      "తమిళనాడు": 4742,
      "dra": 4743,
      "కేటా": 4744,
      "iversity": 4745,
      "48": 4746,
      "క్లి": 4747,
      "expressed": 4748,
      "అండ్": 4749,
      "ఎక్కడ": 4750,
      "గాలి": 4751,
      "కొందరు": 4752,
      "33": 4753,
      "త్రిలో": 4754,
      "పిక్": 4755,
      "బెంగా": 4756,
      "abinet": 4757,
      "gold": 4758,
      "might": 4759,
      "ఫ్యా": 4760,
      "understand": 4761,
      "CBI": 4762,
      "ount": 4763,
      "better": 4764,
      "Rajas": 4765,
      "షో": 4766,
      "లోక్‌": 4767,
      "జాబి": 4768,
      "compan": 4769,
      "vision": 4770,
      "ban": 4771,
      "hol": 4772,
      "mitted": 4773,
      "Gods": 4774,
      "నిల": 4775,
      "చేస్తూ": 4776,
      "స్పష్ట": 4777,
      "reng": 4778,
      "shared": 4779,
      "ily": 4780,
      "రికార్డు": 4781,
      "కేసీ": 4782,
      "Three": 4783,
      "likely": 4784,
      "Parliament": 4785,
      "history": 4786,
      "Israel": 4787,
      "చేస్తారు": 4788,
      "hya": 4789,
      "గతంలో": 4790,
      "Ser": 4791,
      "చేప": 4792,
      "amb": 4793,
      "ంగి": 4794,
      "irman": 4795,
      "జనా": 4796,
      "సాగు": 4797,
      "tell": 4798,
      "వివాహ": 4799,
      "ఇరు": 4800,
      "ఎదుర్కొ": 4801,
      "loss": 4802,
      "తనకు": 4803,
      "pris": 4804,
      "నిమిత్తం": 4805,
      "మ్మా": 4806,
      "దేశాల": 4807,
      "ధో": 4808,
      "sport": 4809,
      "తీసుకున్నారు": 4810,
      "changed": 4811,
      "constitu": 4812,
      "రహ": 4813,
      "సత్య": 4814,
      "కున్నారు": 4815,
      "sum": 4816,
      "ఏడా": 4817,
      "tax": 4818,
      "కోరు": 4819,
      "ప్రయోజ": 4820,
      "400": 4821,
      "workers": 4822,
      "రవ": 4823,
      "iting": 4824,
      "thousand": 4825,
      "entire": 4826,
      "ముందుకు": 4827,
      "విజయ్": 4828,
      "కుమారుడు": 4829,
      "vies": 4830,
      "ton": 4831,
      "According": 4832,
      "alleged": 4833,
      "ali": 4834,
      "తాము": 4835,
      "khar": 4836,
      "ఫొ": 4837,
      "proper": 4838,
      "learn": 4839,
      "office": 4840,
      "ST": 4841,
      "ణంలో": 4842,
      "prote": 4843,
      "మోటార్": 4844,
      "cannot": 4845,
      "getting": 4846,
      "చేపట్టారు": 4847,
      "నిబంధ": 4848,
      "Chennai": 4849,
      "వేసి": 4850,
      "ense": 4851,
      "prof": 4852,
      "చేయండి": 4853,
      "saying": 4854,
      "ika": 4855,
      "ession": 4856,
      "సుప్రీంకోర్టు": 4857,
      "Here": 4858,
      "ఆస్ట్రే": 4859,
      "ధ్": 4860,
      "రచ": 4861,
      "సూపర్": 4862,
      "పోయాయి": 4863,
      "నంగా": 4864,
      "athi": 4865,
      "వేర్": 4866,
      "rap": 4867,
      "ంద్": 4868,
      "anka": 4869,
      "37": 4870,
      "demanded": 4871,
      "cal": 4872,
      "front": 4873,
      "completed": 4874,
      "పరిశీల": 4875,
      "రంగు": 4876,
      "్యాణ్": 4877,
      "శాసన": 4878,
      "నెలకొ": 4879,
      "control": 4880,
      "everyone": 4881,
      "మిగిలి": 4882,
      "అదన": 4883,
      "టర్‌": 4884,
      "మెగా": 4885,
      "గాయాల": 4886,
      "bor": 4887,
      "chall": 4888,
      "words": 4889,
      "షె": 4890,
      "వాన్ని": 4891,
      "ముఖ్యమైన": 4892,
      "ఏడాది": 4893,
      "కవర్": 4894,
      "ఫల": 4895,
      "దేవి": 4896,
      "దానిని": 4897,
      "రోడ్డు": 4898,
      "అయింది": 4899,
      "Rail": 4900,
      "region": 4901,
      "కనిపించ": 4902,
      "నది": 4903,
      "విశేష": 4904,
      "జరుపు": 4905,
      "ship": 4906,
      "సందే": 4907,
      "బోర్": 4908,
      "టల్": 4909,
      "సమీప": 4910,
      "full": 4911,
      "ఎవరూ": 4912,
      "పిటి": 4913,
      "ఎన్నికలు": 4914,
      "సృష్ట": 4915,
      "చెన్నై": 4916,
      "నియోజ": 4917,
      "విడి": 4918,
      "Rajasthan": 4919,
      "inde": 4920,
      "ories": 4921,
      "లిక": 4922,
      "RD": 4923,
      "వేడు": 4924,
      "fut": 4925,
      "అధినేత": 4926,
      "mber": 4927,
      "wel": 4928,
      "బస్సు": 4929,
      "విన": 4930,
      "చేస్తున్నా": 4931,
      "కోలు": 4932,
      "female": 4933,
      "36": 4934,
      "Day": 4935,
      "ప్లే": 4936,
      "business": 4937,
      "mi": 4938,
      "Rohit": 4939,
      "తయారు": 4940,
      "without": 4941,
      "శాం": 4942,
      "streng": 4943,
      "located": 4944,
      "శరీ": 4945,
      "anything": 4946,
      "earth": 4947,
      "చేసుకున్నారు": 4948,
      "వాణి": 4949,
      "glo": 4950,
      "ఆడ": 4951,
      "గ్ని": 4952,
      "Ag": 4953,
      "ఠి": 4954,
      "రాష్ట్రపతి": 4955,
      "నము": 4956,
      "reen": 4957,
      "బిల్లు": 4958,
      "రోజుల": 4959,
      "విద్యు": 4960,
      "త్మక": 4961,
      "అభిప్రా": 4962,
      "ణంగా": 4963,
      "2014": 4964,
      "continue": 4965,
      "Gener": 4966,
      "సమస్": 4967,
      "lab": 4968,
      "Jehovahs": 4969,
      "అడి": 4970,
      "రూప": 4971,
      "easy": 4972,
      "rid": 4973,
      "ాలంటే": 4974,
      "సియా": 4975,
      "సైతం": 4976,
      "senior": 4977,
      "గీ": 4978,
      "శ్‌": 4979,
      "account": 4980,
      "ఎత్తు": 4981,
      "ఫొటో": 4982,
      "ర్పు": 4983,
      "questions": 4984,
      "stitution": 4985,
      "హక్కు": 4986,
      "మేం": 4987,
      "వ్యవసాయ": 4988,
      "నాథ్": 4989,
      "ఏమీ": 4990,
      "ులకు": 4991,
      "పాజి": 4992,
      "viol": 4993,
      "మారింది": 4994,
      "night": 4995,
      "క్ట్": 4996,
      "icles": 4997,
      "fer": 4998,
      "lod": 4999,
      "experi": 5000,
      "ారెడ్డి": 5001,
      "Theres": 5002,
      "పరిమి": 5003,
      "మంత్రులు": 5004,
      "అన్నాడు": 5005,
      "ery": 5006,
      "search": 5007,
      "cts": 5008,
      "హోం": 5009,
      "స్పష్టం": 5010,
      "iti": 5011,
      "ళ్ళు": 5012,
      "పడే": 5013,
      "సిటీ": 5014,
      "husband": 5015,
      "కొనుగో": 5016,
      "పరు": 5017,
      "ప్రధానమంత్రి": 5018,
      "trad": 5019,
      "Also": 5020,
      "gg": 5021,
      "గ్రహ": 5022,
      "ప్రజలకు": 5023,
      "వార్త": 5024,
      "ప్రస్తుతం": 5025,
      "Ravi": 5026,
      "నేందుకు": 5027,
      "పోతే": 5028,
      "reed": 5029,
      "author": 5030,
      "బైబిలు": 5031,
      "జపా": 5032,
      "stry": 5033,
      "ification": 5034,
      "services": 5035,
      "సామర్": 5036,
      "human": 5037,
      "ఆస్ట్రేలియా": 5038,
      "దువు": 5039,
      "నాయుడు": 5040,
      "తెలుసుకు": 5041,
      "సిరీ": 5042,
      "వుంది": 5043,
      "అందించారు": 5044,
      "certain": 5045,
      "currently": 5046,
      "పరుగులు": 5047,
      "Americ": 5048,
      "ఆంధ్రప్రదేశ్": 5049,
      "Let": 5050,
      "yal": 5051,
      "terror": 5052,
      "dist": 5053,
      "వరుస": 5054,
      "మానికి": 5055,
      "దిశ": 5056,
      "పనులు": 5057,
      "ప్రతిని": 5058,
      "Jagan": 5059,
      "గాను": 5060,
      "శ్రీనివా": 5061,
      "మొదలు": 5062,
      "example": 5063,
      "Everyone": 5064,
      "రాయ": 5065,
      "faith": 5066,
      "Fil": 5067,
      "ంచు": 5068,
      "Hospital": 5069,
      "నటిస్తున్నారు": 5070,
      "sis": 5071,
      "station": 5072,
      "Coun": 5073,
      "wam": 5074,
      "brought": 5075,
      "హద్దు": 5076,
      "అంచనా": 5077,
      "Nor": 5078,
      "relations": 5079,
      "Cl": 5080,
      "IT": 5081,
      "MLAs": 5082,
      "కారణాలు": 5083,
      "live": 5084,
      "MS": 5085,
      "గమని": 5086,
      "ently": 5087,
      "apur": 5088,
      "meas": 5089,
      "బయట": 5090,
      "ాలయం": 5091,
      "industry": 5092,
      "ఆప": 5093,
      "ఇన్‌": 5094,
      "న్‌గా": 5095,
      "నిర్మిస్తున్నారు": 5096,
      "స్థలానికి": 5097,
      "ఛా": 5098,
      "close": 5099,
      "truth": 5100,
      "పలువురు": 5101,
      "mind": 5102,
      "Where": 5103,
      "till": 5104,
      "హెచ్‌": 5105,
      "బెంగళ": 5106,
      "ఎక్స్": 5107,
      "వాలు": 5108,
      "ఇచ్చారు": 5109,
      "largest": 5110,
      "ying": 5111,
      "మిన": 5112,
      "లభి": 5113,
      "iance": 5114,
      "ఆమెను": 5115,
      "Far": 5116,
      "అప్పు": 5117,
      "ఘా": 5118,
      "ప్రైవే": 5119,
      "హర్": 5120,
      "ప్రాంతంలో": 5121,
      "టెడ్": 5122,
      "చార్": 5123,
      "level": 5124,
      "Venk": 5125,
      "పోష": 5126,
      "సినిమాలు": 5127,
      "medical": 5128,
      "period": 5129,
      "వెళ్ళ": 5130,
      "ాలపై": 5131,
      "cu": 5132,
      "లియన్": 5133,
      "ఆవి": 5134,
      "లికి": 5135,
      "లాండ్": 5136,
      "constru": 5137,
      "Produ": 5138,
      "అందరూ": 5139,
      "బాల": 5140,
      "రూపా": 5141,
      "arri": 5142,
      "ండె": 5143,
      "కృత": 5144,
      "దేశాలు": 5145,
      "పార్లమె": 5146,
      "క్రైస్త": 5147,
      "సాంకేతిక": 5148,
      "Of": 5149,
      "పూర్వ": 5150,
      "kes": 5151,
      "లింగ్": 5152,
      "కాక": 5153,
      "resign": 5154,
      "విధానం": 5155,
      "future": 5156,
      "assembly": 5157,
      "ద్ధా": 5158,
      "issues": 5159,
      "redu": 5160,
      "continu": 5161,
      "ణు": 5162,
      "active": 5163,
      "overnor": 5164,
      "something": 5165,
      "wrong": 5166,
      "పుస్త": 5167,
      "concer": 5168,
      "ibility": 5169,
      "mal": 5170,
      "హెచ్": 5171,
      "65": 5172,
      "తుల్లో": 5173,
      "Bihar": 5174,
      "round": 5175,
      "answer": 5176,
      "ఉత్తమ": 5177,
      "ట్విట్ట": 5178,
      "Jammu": 5179,
      "tit": 5180,
      "ఉండదు": 5181,
      "ances": 5182,
      "కాన్": 5183,
      "cou": 5184,
      "సల్": 5185,
      "announce": 5186,
      "కేటాయ": 5187,
      "cri": 5188,
      "రాత్రి": 5189,
      "ider": 5190,
      "joined": 5191,
      "deal": 5192,
      "వలసిన": 5193,
      "discuss": 5194,
      "ధర్": 5195,
      "సెల్": 5196,
      "auto": 5197,
      "రియ": 5198,
      "మరొక": 5199,
      "itional": 5200,
      "దేవుడు": 5201,
      "reve": 5202,
      "provide": 5203,
      "కథా": 5204,
      "fund": 5205,
      "tweet": 5206,
      "ంబా": 5207,
      "dam": 5208,
      "wide": 5209,
      "బూ": 5210,
      "తెరకెక్కి": 5211,
      "డర్": 5212,
      "General": 5213,
      "నెట్": 5214,
      "తగిన": 5215,
      "points": 5216,
      "Sena": 5217,
      "ట్రై": 5218,
      "Charan": 5219,
      "hop": 5220,
      "199": 5221,
      "సామాజిక": 5222,
      "బాలి": 5223,
      "నాల్లో": 5224,
      "room": 5225,
      "లోక్‌సభ": 5226,
      "నాగ": 5227,
      "క్షలు": 5228,
      "తెలుస్తోంది": 5229,
      "తీసుకున్న": 5230,
      "decided": 5231,
      "ball": 5232,
      "engers": 5233,
      "తురు": 5234,
      "achi": 5235,
      "Indias": 5236,
      "written": 5237,
      "భర్త": 5238,
      "acy": 5239,
      "రక": 5240,
      "వాల్సి": 5241,
      "\"\".\"": 5242,
      "వేగంగా": 5243,
      "stat": 5244,
      "ంటున్న": 5245,
      "gave": 5246,
      "km": 5247,
      "నివ": 5248,
      "design": 5249,
      "Australia": 5250,
      "pain": 5251,
      "districts": 5252,
      "gl": 5253,
      "hind": 5254,
      "ఎటువంటి": 5255,
      "seas": 5256,
      "యాక్": 5257,
      "అంతా": 5258,
      "bow": 5259,
      "King": 5260,
      "చేయలేదు": 5261,
      "నిజంగా": 5262,
      "ఇష్ట": 5263,
      "doctors": 5264,
      "తొలగ": 5265,
      "యాల్లో": 5266,
      "spread": 5267,
      "ఎప్పుడూ": 5268,
      "uss": 5269,
      "increased": 5270,
      "వచ్చాయి": 5271,
      "lodged": 5272,
      "ఉంచ": 5273,
      "తికి": 5274,
      "ఉంటే": 5275,
      "పల్లి": 5276,
      "ఫోర్": 5277,
      "రాజీనామా": 5278,
      "కన్నా": 5279,
      "వాయి": 5280,
      "సంచల": 5281,
      "rup": 5282,
      "quar": 5283,
      "బడుతుంది": 5284,
      "సీనియర్": 5285,
      "ించవచ్చు": 5286,
      "percent": 5287,
      "ప్రయాణి": 5288,
      "tour": 5289,
      "Sun": 5290,
      "ఐపీ": 5291,
      "లాంటి": 5292,
      "పాటి": 5293,
      "cult": 5294,
      "మరోసారి": 5295,
      "హీరోగా": 5296,
      "కళా": 5297,
      "ద్‌": 5298,
      "యోగి": 5299,
      "trave": 5300,
      "విద్యార్థులు": 5301,
      "phas": 5302,
      "ప్రకా": 5303,
      "respond": 5304,
      "ఎన్టీఆర్": 5305,
      "friends": 5306,
      "Justice": 5307,
      "ించనున్నారు": 5308,
      "bring": 5309,
      "ప్యూ": 5310,
      "ously": 5311,
      "ప్రపంచంలో": 5312,
      "370": 5313,
      "paid": 5314,
      "ఉంటారు": 5315,
      "using": 5316,
      "విష్య": 5317,
      "ఏడు": 5318,
      "beaut": 5319,
      "Finance": 5320,
      "రకాల": 5321,
      "విమాన": 5322,
      "అగ్ని": 5323,
      "stay": 5324,
      "నట్లు": 5325,
      "blood": 5326,
      "imple": 5327,
      "జల": 5328,
      "వర్‌": 5329,
      "candidates": 5330,
      "స్వాధీ": 5331,
      "హ్మ": 5332,
      "wan": 5333,
      "పించింది": 5334,
      "నియమ": 5335,
      "Cr": 5336,
      "వానికి": 5337,
      "sequ": 5338,
      "hest": 5339,
      "వర్త": 5340,
      "చేసేందుకు": 5341,
      "బెంగళూరు": 5342,
      "గ్‌": 5343,
      "పొంది": 5344,
      "ధం": 5345,
      "పైన": 5346,
      "హాలు": 5347,
      "టరీ": 5348,
      "popular": 5349,
      "మహేష్": 5350,
      "places": 5351,
      "దవ": 5352,
      "ప్యా": 5353,
      "Wom": 5354,
      "super": 5355,
      "అధ్యక్ష": 5356,
      "ste": 5357,
      "increase": 5358,
      "equ": 5359,
      "pat": 5360,
      "కన్న": 5361,
      "ల్ప": 5362,
      "చేస్తోంది": 5363,
      "మూల": 5364,
      "క్టర్‌": 5365,
      "ఠా": 5366,
      "ర్ర": 5367,
      "ids": 5368,
      "కోరుకు": 5369,
      "అభ్యర్థి": 5370,
      "లక్ష్": 5371,
      "రేషన్": 5372,
      "పూర్‌": 5373,
      "సంప్ర": 5374,
      "pointed": 5375,
      "సురే": 5376,
      "imum": 5377,
      "actress": 5378,
      "కార్మి": 5379,
      "అధికారిక": 5380,
      "పాఠశాల": 5381,
      "34": 5382,
      "provided": 5383,
      "budget": 5384,
      "పెట్టారు": 5385,
      "injuries": 5386,
      "relig": 5387,
      "స్వామ": 5388,
      "సమస్యలు": 5389,
      "acher": 5390,
      "suff": 5391,
      "స్తామని": 5392,
      "leading": 5393,
      "ground": 5394,
      "young": 5395,
      "cil": 5396,
      "మ్రా": 5397,
      "applic": 5398,
      "రాహుల్‌": 5399,
      "భాషల్లో": 5400,
      "దెబ్బ": 5401,
      "నియోజకవర్": 5402,
      "మోహన్": 5403,
      "seven": 5404,
      "జస్టి": 5405,
      "లోనూ": 5406,
      "మానం": 5407,
      "కొనుగోలు": 5408,
      "రాజధాని": 5409,
      "నష్టం": 5410,
      "భం": 5411,
      "flow": 5412,
      "జవా": 5413,
      "కెమెరా": 5414,
      "నడి": 5415,
      "పొందిన": 5416,
      "roll": 5417,
      "ji": 5418,
      "జార్": 5419,
      "ream": 5420,
      "van": 5421,
      "ఇశ్రా": 5422,
      "దాఖ": 5423,
      "నలుగురు": 5424,
      "operation": 5425,
      "జాబితా": 5426,
      "విద్యార్": 5427,
      "Mus": 5428,
      "చేయా": 5429,
      "break": 5430,
      "orts": 5431,
      "సరిహద్దు": 5432,
      "increasing": 5433,
      "నాలను": 5434,
      "చేత": 5435,
      "దిగు": 5436,
      "తాన్ని": 5437,
      "లైన": 5438,
      "2017": 5439,
      "ivas": 5440,
      "నియంత్ర": 5441,
      "చట్టం": 5442,
      "banner": 5443,
      "Mah": 5444,
      "సారు": 5445,
      "తోపాటు": 5446,
      "promis": 5447,
      "expect": 5448,
      "జీవితం": 5449,
      "కోట్లకు": 5450,
      "education": 5451,
      "Sar": 5452,
      "lat": 5453,
      "వెన": 5454,
      "అవుతుంది": 5455,
      "amount": 5456,
      "శాడు": 5457,
      "jour": 5458,
      "కొడు": 5459,
      "పోయాడు": 5460,
      "సముద్ర": 5461,
      "ease": 5462,
      "భో": 5463,
      "సాయం": 5464,
      "అంశం": 5465,
      "సౌకర్": 5466,
      "మూడో": 5467,
      "ఫ్రా": 5468,
      "పోస్ట్": 5469,
      "ట్టే": 5470,
      "ల్‌లో": 5471,
      "మానవ": 5472,
      "amp": 5473,
      "మీటర్ల": 5474,
      "birth": 5475,
      "job": 5476,
      "తెలియదు": 5477,
      "నంలో": 5478,
      "అప్": 5479,
      "వెనుక": 5480,
      "Sy": 5481,
      "అక్ష": 5482,
      "Super": 5483,
      "భవిష్య": 5484,
      "శాంతి": 5485,
      "క్రా": 5486,
      "యన్‌": 5487,
      "శుభ్ర": 5488,
      "పద్ధ": 5489,
      "డైరెక్టర్": 5490,
      "hero": 5491,
      "hankar": 5492,
      "కృషి": 5493,
      "రుగ": 5494,
      "సినిమాకి": 5495,
      "upon": 5496,
      "ses": 5497,
      "పురు": 5498,
      "ట్రంప్": 5499,
      "కులకు": 5500,
      "ంటె": 5501,
      "లక్ష్య": 5502,
      "cture": 5503,
      "భాగా": 5504,
      "University": 5505,
      "means": 5506,
      "ంటాయి": 5507,
      "కదా": 5508,
      "fully": 5509,
      "capital": 5510,
      "గతి": 5511,
      "అరెస్ట్": 5512,
      "ఎల": 5513,
      "సాధించింది": 5514,
      "bar": 5515,
      "తార": 5516,
      "బ‌": 5517,
      "తీరు": 5518,
      "అడ": 5519,
      "ఒకరు": 5520,
      "రాజ్యా": 5521,
      "నాయకులు": 5522,
      "ప్రభావం": 5523,
      "బయటకు": 5524,
      "ilities": 5525,
      "సెస్": 5526,
      "himself": 5527,
      "gn": 5528,
      "క్యూ": 5529,
      "international": 5530,
      "టీవీ": 5531,
      "shock": 5532,
      "fare": 5533,
      "టన్": 5534,
      "రేటు": 5535,
      "Pand": 5536,
      "eat": 5537,
      "ఫ్రి": 5538,
      "వస్తుంది": 5539,
      "join": 5540,
      "adm": 5541,
      "దక్షిణ": 5542,
      "uro": 5543,
      "ఇబ్బ": 5544,
      "rail": 5545,
      "నిర్ధ": 5546,
      "భారతదేశం": 5547,
      "నటించిన": 5548,
      "IPL": 5549,
      "itions": 5550,
      "sector": 5551,
      "single": 5552,
      "Lord": 5553,
      "Mot": 5554,
      "ళం": 5555,
      "ential": 5556,
      "గ్గు": 5557,
      "trict": 5558,
      "కనీ": 5559,
      "నిర్వహి": 5560,
      "తెరకెక్కు": 5561,
      "ద్దాం": 5562,
      "bi": 5563,
      "వని": 5564,
      "కుని": 5565,
      "యిల్": 5566,
      "shot": 5567,
      "రిక": 5568,
      "ఇప్పటివరకు": 5569,
      "ాలె": 5570,
      "private": 5571,
      "moved": 5572,
      "అతనికి": 5573,
      "implement": 5574,
      "bat": 5575,
      "చేసుకుని": 5576,
      "invol": 5577,
      "ప్రస్తుత": 5578,
      "నిరసన": 5579,
      "రల్": 5580,
      "mortem": 5581,
      "pray": 5582,
      "fel": 5583,
      "needed": 5584,
      "service": 5585,
      "Sm": 5586,
      "ఒత్తి": 5587,
      "uses": 5588,
      "వాణా": 5589,
      "సరైన": 5590,
      "ize": 5591,
      "భారీగా": 5592,
      "రాలి": 5593,
      "KCR": 5594,
      "cir": 5595,
      "sil": 5596,
      "హృ": 5597,
      "ప్రాణ": 5598,
      "box": 5599,
      "common": 5600,
      "పోలీస్": 5601,
      "క్రికెట్": 5602,
      "GB": 5603,
      "Ko": 5604,
      "కపూర్": 5605,
      "గాని": 5606,
      "anti": 5607,
      "ప్రయో": 5608,
      "ించగా": 5609,
      "64": 5610,
      "Ear": 5611,
      "wise": 5612,
      "సినిమ": 5613,
      "నటించారు": 5614,
      "ఫార్": 5615,
      "రక్త": 5616,
      "మణి": 5617,
      "inem": 5618,
      "tou": 5619,
      "సెల": 5620,
      "సెన్": 5621,
      "worked": 5622,
      "doesnt": 5623,
      "financial": 5624,
      "iculture": 5625,
      "mun": 5626,
      "ems": 5627,
      "ఇశ్రాయే": 5628,
      "Bal": 5629,
      "Ran": 5630,
      "సామర్థ": 5631,
      "స్వాధీనం": 5632,
      "హ‌": 5633,
      "తీసుకో": 5634,
      "nation": 5635,
      "press": 5636,
      "san": 5637,
      "గురి": 5638,
      "ప్రారంభించారు": 5639,
      "తయారీ": 5640,
      "sons": 5641,
      "petrol": 5642,
      "ather": 5643,
      "డమే": 5644,
      "యిం": 5645,
      "ern": 5646,
      "personal": 5647,
      "begin": 5648,
      "movies": 5649,
      "ively": 5650,
      "earlier": 5651,
      "చదువు": 5652,
      "Nag": 5653,
      "ఘటనా": 5654,
      "having": 5655,
      "utions": 5656,
      "raised": 5657,
      "డల": 5658,
      "పరిధి": 5659,
      "Che": 5660,
      "షీ": 5661,
      "పిలు": 5662,
      "కఠి": 5663,
      "United": 5664,
      "కుమార్తె": 5665,
      "చూడండి": 5666,
      "Des": 5667,
      "చెందారు": 5668,
      "parts": 5669,
      "half": 5670,
      "చ్చితంగా": 5671,
      "Srinivas": 5672,
      "38": 5673,
      "ging": 5674,
      "behind": 5675,
      "Ano": 5676,
      "సాయి": 5677,
      "బాగు": 5678,
      "ఆమెకు": 5679,
      "రెండవ": 5680,
      "విరాట్": 5681,
      "చెయ్య": 5682,
      "ారాలు": 5683,
      "ించినట్లు": 5684,
      "gress": 5685,
      "Pa": 5686,
      "తానికి": 5687,
      "కూల": 5688,
      "fast": 5689,
      "least": 5690,
      "ణాళి": 5691,
      "itizens": 5692,
      "దురు": 5693,
      "polls": 5694,
      "చూప": 5695,
      "భేటీ": 5696,
      "review": 5697,
      "ension": 5698,
      "కూడిన": 5699,
      "wickets": 5700,
      "హెచ్చ": 5701,
      "riage": 5702,
      "ధాలు": 5703,
      "ఆహార": 5704,
      "ట‌": 5705,
      "ables": 5706,
      "మోడ": 5707,
      "స్త్రీ": 5708,
      "little": 5709,
      "statement": 5710,
      "Several": 5711,
      "Tata": 5712,
      "hous": 5713,
      "ites": 5714,
      "iced": 5715,
      "నిర్వహణ": 5716,
      "చోటుచేసుకుంది": 5717,
      "ప్రకటించింది": 5718,
      "టూ": 5719,
      "పవర్": 5720,
      "offe": 5721,
      "ట్‌లో": 5722,
      "once": 5723,
      "tri": 5724,
      "Dav": 5725,
      "వేరి": 5726,
      "కశ్మీ": 5727,
      "fected": 5728,
      "లక్షణాలు": 5729,
      "underway": 5730,
      "bur": 5731,
      "త్రా": 5732,
      "అర్జున్": 5733,
      "cell": 5734,
      "ట్యూ": 5735,
      "బడ్డా": 5736,
      "శ్వర": 5737,
      "పిం": 5738,
      "ప్పున": 5739,
      "లైన్": 5740,
      "యుల": 5741,
      "గ్రే": 5742,
      "participated": 5743,
      "డాల": 5744,
      "dered": 5745,
      "months": 5746,
      "శేఖ": 5747,
      "ఇబ్బందు": 5748,
      "కలా": 5749,
      "పెంచ": 5750,
      "రైతులు": 5751,
      "ప్రారంభం": 5752,
      "deaths": 5753,
      "హాజరయ్యారు": 5754,
      "began": 5755,
      "ములను": 5756,
      "రూపాయ": 5757,
      "వైద్యులు": 5758,
      "ఆశ": 5759,
      "ier": 5760,
      "అల్లు": 5761,
      "inal": 5762,
      "towards": 5763,
      "ించబడింది": 5764,
      "నిర్మాత": 5765,
      "రిలీజ్": 5766,
      "రామ్‌": 5767,
      "టాటా": 5768,
      "ఇంజన్": 5769,
      "enter": 5770,
      "అంగీకర": 5771,
      "స్నేహి": 5772,
      "Another": 5773,
      "సినీ": 5774,
      "పేర్కొంది": 5775,
      "ఉగ్రవా": 5776,
      "పక్క": 5777,
      "వసూ": 5778,
      "diesel": 5779,
      "యింది": 5780,
      "uty": 5781,
      "early": 5782,
      "Their": 5783,
      "div": 5784,
      "couple": 5785,
      "మల్": 5786,
      "వాళ్ల": 5787,
      "hur": 5788,
      "స్తుందని": 5789,
      "పెట్రోల్": 5790,
      "అయ్యింది": 5791,
      "55": 5792,
      "ాయి": 5793,
      "mob": 5794,
      "అమిత్": 5795,
      "murder": 5796,
      "Yah": 5797,
      "లెక్క": 5798,
      "England": 5799,
      "Kam": 5800,
      "స్మార్": 5801,
      "forts": 5802,
      "believe": 5803,
      "vere": 5804,
      "mean": 5805,
      "రాజే": 5806,
      "Cabinet": 5807,
      "47": 5808,
      "Nir": 5809,
      "వల్": 5810,
      "seat": 5811,
      "Pre": 5812,
      "వ్రా": 5813,
      "దేశంలోని": 5814,
      "చొప్పున": 5815,
      "చెప్పిన": 5816,
      "Sub": 5817,
      "ారిటీ": 5818,
      "ఖాస్తు": 5819,
      "weh": 5820,
      "పెరి": 5821,
      "joint": 5822,
      "సంయు": 5823,
      "సాను": 5824,
      "నిజం": 5825,
      "Ah": 5826,
      "adha": 5827,
      "అనుమతి": 5828,
      "town": 5829,
      "agement": 5830,
      "watch": 5831,
      "కావడం": 5832,
      "Yahweh": 5833,
      "LO": 5834,
      "చేర్": 5835,
      "ఆర్టి": 5836,
      "dest": 5837,
      "సంతా": 5838,
      "ఇప్పటికీ": 5839,
      "Later": 5840,
      "fest": 5841,
      "ప్రతిపక్ష": 5842,
      "కుడి": 5843,
      "ప్రాథ": 5844,
      "బాధ్యత": 5845,
      "య్‌": 5846,
      "వాని": 5847,
      "తూర్పు": 5848,
      "తల్లిదండ్రులు": 5849,
      "ఎలక్ట": 5850,
      "emic": 5851,
      "దారులు": 5852,
      "La": 5853,
      "ring": 5854,
      "ert": 5855,
      "uti": 5856,
      "Art": 5857,
      "దూర": 5858,
      "duc": 5859,
      "critic": 5860,
      "నేషనల్": 5861,
      "అందుకున్న": 5862,
      "ప్రొడ": 5863,
      "pot": 5864,
      "Anil": 5865,
      "కులను": 5866,
      "according": 5867,
      "కోరారు": 5868,
      "చీఫ్": 5869,
      "patients": 5870,
      "TC": 5871,
      "రుణ": 5872,
      "RA": 5873,
      "వేశారు": 5874,
      "గిరి": 5875,
      "కారులు": 5876,
      "పాలన": 5877,
      "Offic": 5878,
      "చేయవచ్చు": 5879,
      "ప్రాణాలు": 5880,
      "phy": 5881,
      "growth": 5882,
      "పర్యటన": 5883,
      "ఎస్పీ": 5884,
      "Afr": 5885,
      "ట్లను": 5886,
      "uted": 5887,
      "మాని": 5888,
      "direct": 5889,
      "అవకాశాలు": 5890,
      "announcement": 5891,
      "మంద": 5892,
      "ప్రణాళి": 5893,
      "మరణం": 5894,
      "తీసి": 5895,
      "necess": 5896,
      "సీబీఐ": 5897,
      "Rep": 5898,
      "cies": 5899,
      "atives": 5900,
      "అందరికీ": 5901,
      "upcoming": 5902,
      "స్టేషన్": 5903,
      "required": 5904,
      "aries": 5905,
      "పూర్త": 5906,
      "స్పందన": 5907,
      "సాధారణంగా": 5908,
      "మ్యూజి": 5909,
      "Ja": 5910,
      "sour": 5911,
      "ఆశ్": 5912,
      "ateg": 5913,
      "39": 5914,
      "def": 5915,
      "confir": 5916,
      "families": 5917,
      "సిస్ట": 5918,
      "కర్త": 5919,
      "ప్రయత్ని": 5920,
      "Special": 5921,
      "బలి": 5922,
      "భాగంలో": 5923,
      "SP": 5924,
      "రవాణా": 5925,
      "హే": 5926,
      "candidate": 5927,
      "UP": 5928,
      "హ్యా": 5929,
      "ీయ": 5930,
      "కేషన్": 5931,
      "passed": 5932,
      "nel": 5933,
      "‌కు": 5934,
      "మార్టం": 5935,
      "Read": 5936,
      "general": 5937,
      "49": 5938,
      "sam": 5939,
      "జనీ": 5940,
      "ముస్": 5941,
      "dro": 5942,
      "ference": 5943,
      "‌ని": 5944,
      "pose": 5945,
      "జరుగుతుంది": 5946,
      "ారాన్ని": 5947,
      "నుల": 5948,
      "చేర": 5949,
      "నానికి": 5950,
      "resol": 5951,
      "మంట": 5952,
      "ఉన్నట్లు": 5953,
      "నిరో": 5954,
      "Governor": 5955,
      "anger": 5956,
      "ప్ర‌ధా": 5957,
      "tw": 5958,
      "సిడె": 5959,
      "Colle": 5960,
      "hil": 5961,
      "uary": 5962,
      "చేసుకో": 5963,
      "సాధించిన": 5964,
      "inn": 5965,
      "పొడి": 5966,
      "బోధ": 5967,
      "సర్వీ": 5968,
      "ze": 5969,
      "నున్నాయి": 5970,
      "appointed": 5971,
      "selves": 5972,
      "విం": 5973,
      "తున్నాడు": 5974,
      "ability": 5975,
      "తాబ్": 5976,
      "అత్యా": 5977,
      "రైలు": 5978,
      "నటిస్తున్న": 5979,
      "ministers": 5980,
      "స్తుండగా": 5981,
      "దేశవ్యాప్తంగా": 5982,
      "సంస్థలు": 5983,
      "వ్యతిరేకంగా": 5984,
      "While": 5985,
      "Kann": 5986,
      "భార‌": 5987,
      "యణ": 5988,
      "పెరిగింది": 5989,
      "పోర్ట్": 5990,
      "Bl": 5991,
      "సమావేశం": 5992,
      "భద్రత": 5993,
      "అబ్": 5994,
      "highest": 5995,
      "ken": 5996,
      "డిగ్రీ": 5997,
      "iful": 5998,
      "కేసుల": 5999,
      "నాటికి": 6000,
      "తీసుకొ": 6001,
      "conducted": 6002,
      "ఆహ్": 6003,
      "ఓపె": 6004,
      "manu": 6005,
      "ఆలోచన": 6006,
      "AI": 6007,
      "చౌ": 6008,
      "పండు": 6009,
      "oud": 6010,
      "వలె": 6011,
      "address": 6012,
      "కుటుంబా": 6013,
      "నీతి": 6014,
      "2016": 6015,
      "దరఖాస్తు": 6016,
      "వ్యాఖ్యలు": 6017,
      "game": 6018,
      "mom": 6019,
      "disease": 6020,
      "కరించారు": 6021,
      "drink": 6022,
      "itness": 6023,
      "ఖాతా": 6024,
      "ఆరోగ్యం": 6025,
      "పదవి": 6026,
      "పత్ర": 6027,
      "్యాన్ని": 6028,
      "clean": 6029,
      "ఆటగా": 6030,
      "jan": 6031,
      "మెరుగు": 6032,
      "rah": 6033,
      "జగన్": 6034,
      "నాయి": 6035,
      "అతడి": 6036,
      "కళ్యాణ్": 6037,
      "ఆయనను": 6038,
      "ansport": 6039,
      "స్పూ": 6040,
      "గాయపడ్డారు": 6041,
      "ండర్": 6042,
      "రోడ్": 6043,
      "44": 6044,
      "flu": 6045,
      "చేరింది": 6046,
      "బాధితు": 6047,
      "ney": 6048,
      "International": 6049,
      "భద్రతా": 6050,
      "connection": 6051,
      "heavy": 6052,
      "కాన్ని": 6053,
      "రానికి": 6054,
      "youth": 6055,
      "ముఖ్యంగా": 6056,
      "class": 6057,
      "గాయపడిన": 6058,
      "hot": 6059,
      "అయ్యారు": 6060,
      "aster": 6061,
      "మునకు": 6062,
      "మూర్తి": 6063,
      "camera": 6064,
      "building": 6065,
      "fill": 6066,
      "ట్రి": 6067,
      "రస్": 6068,
      "చైర్మ": 6069,
      "net": 6070,
      "ఎందుకంటే": 6071,
      "స్థానికులు": 6072,
      "ilt": 6073,
      "hope": 6074,
      "Madhya": 6075,
      "JD": 6076,
      "mult": 6077,
      "ాలయ": 6078,
      "వేత్త": 6079,
      "within": 6080,
      "aching": 6081,
      "ene": 6082,
      "icy": 6083,
      "రాష్ట్రం": 6084,
      "రైతు": 6085,
      "ద్రా": 6086,
      "చ్ఛ": 6087,
      "language": 6088,
      "గరి": 6089,
      "Nagar": 6090,
      "claimed": 6091,
      "లోక": 6092,
      "irst": 6093,
      "RR": 6094,
      "iver": 6095,
      "ఏర్పా": 6096,
      "పట్టణ": 6097,
      "రక్ష": 6098,
      "చెప్పాడు": 6099,
      "study": 6100,
      "charac": 6101,
      "ఆరు": 6102,
      "Euro": 6103,
      "deb": 6104,
      "Ge": 6105,
      "Gop": 6106,
      "బద్ధ": 6107,
      "ending": 6108,
      "స్ట్రీ": 6109,
      "ron": 6110,
      "స్పి": 6111,
      "రాష్ట్రాల": 6112,
      "pract": 6113,
      "జనాభా": 6114,
      "శిక్షణ": 6115,
      "ceed": 6116,
      "Rajya": 6117,
      "సారిగా": 6118,
      "IS": 6119,
      "Best": 6120,
      "rich": 6121,
      "ఎప్పుడు": 6122,
      "omet": 6123,
      "అతిపెద్ద": 6124,
      "else": 6125,
      "ంద్రా": 6126,
      "శ్రే": 6127,
      "250": 6128,
      "ఖి": 6129,
      "మ్స్": 6130,
      "య్యాడు": 6131,
      "ternal": 6132,
      "లిమి": 6133,
      "course": 6134,
      "declared": 6135,
      "క్రికె": 6136,
      "talk": 6137,
      "District": 6138,
      "రగ": 6139,
      "టీఆర్‌": 6140,
      "mocr": 6141,
      "worth": 6142,
      "quite": 6143,
      "స్థాప": 6144,
      "మిగిలిన": 6145,
      "Dhon": 6146,
      "42": 6147,
      "భీ": 6148,
      "offer": 6149,
      "cru": 6150,
      "85": 6151,
      "ఆత్మ": 6152,
      "కానుంది": 6153,
      "మరోవైపు": 6154,
      "లాం": 6155,
      "నిర్మాణ": 6156,
      "ఒక్కో": 6157,
      "secretary": 6158,
      "నీకు": 6159,
      "డీజి": 6160,
      "award": 6161,
      "driver": 6162,
      "YSRCP": 6163,
      "enjoy": 6164,
      "కూర్": 6165,
      "Afric": 6166,
      "idd": 6167,
      "ley": 6168,
      "boy": 6169,
      "కునే": 6170,
      "అప్పగ": 6171,
      "\"\"\"\"": 6172,
      "composed": 6173,
      "నగర్": 6174,
      "తని": 6175,
      "సదు": 6176,
      "David": 6177,
      "AN": 6178,
      "host": 6179,
      "hatt": 6180,
      "నూతన": 6181,
      "vol": 6182,
      "విభ": 6183,
      "eshwar": 6184,
      "mix": 6185,
      "దేశానికి": 6186,
      "ఫలితాలు": 6187,
      "ped": 6188,
      "ఖండ": 6189,
      "దరి": 6190,
      "బరి": 6191,
      "agree": 6192,
      "అందిస్తున్నారు": 6193,
      "scheme": 6194,
      "మృతదేహాన్ని": 6195,
      "whole": 6196,
      "gets": 6197,
      "చెప్పింది": 6198,
      "ఆమోదం": 6199,
      "Over": 6200,
      "fine": 6201,
      "ply": 6202,
      "ention": 6203,
      "నీయ": 6204,
      "మొబై": 6205,
      "remain": 6206,
      "గుర్తింపు": 6207,
      "గలి": 6208,
      "ప్రతీ": 6209,
      "airs": 6210,
      "Shankar": 6211,
      "rodu": 6212,
      "హామీ": 6213,
      "దిగా": 6214,
      "jected": 6215,
      "గృ": 6216,
      "data": 6217,
      "పటి": 6218,
      "మండి": 6219,
      "కూర": 6220,
      "రైతుల": 6221,
      "Yes": 6222,
      "anim": 6223,
      "చూసి": 6224,
      "turned": 6225,
      "occurred": 6226,
      "rote": 6227,
      "dece": 6228,
      "గ్రహం": 6229,
      "Develop": 6230,
      "Kol": 6231,
      "lam": 6232,
      "197": 6233,
      "marriage": 6234,
      "భారతదేశంలో": 6235,
      "సంబంధం": 6236,
      "షేర్": 6237,
      "వెలుగు": 6238,
      "Mon": 6239,
      "isnt": 6240,
      "క్ల": 6241,
      "load": 6242,
      "mass": 6243,
      "thank": 6244,
      "అమ్మా": 6245,
      "ఆకర్": 6246,
      "wered": 6247,
      "ించాల్సి": 6248,
      "Muslim": 6249,
      "మహమ్మ": 6250,
      "ఫీచర్": 6251,
      "బాలీవుడ్‌": 6252,
      "పోవడం": 6253,
      "వ్యాపార": 6254,
      "క్ష‌": 6255,
      "committed": 6256,
      "cup": 6257,
      "అయ్యాయి": 6258,
      "నేర్": 6259,
      "కృతి": 6260,
      "కలిగిన": 6261,
      "ల్లం": 6262,
      "revealed": 6263,
      "During": 6264,
      "wrote": 6265,
      "పది": 6266,
      "సాహ": 6267,
      "ung": 6268,
      "bodies": 6269,
      "ఆప్": 6270,
      "న్‌కు": 6271,
      "similar": 6272,
      "ప్ల": 6273,
      "Ministers": 6274,
      "rise": 6275,
      "everything": 6276,
      "ప‌రి": 6277,
      "ప్రభుత్వానికి": 6278,
      "ందూ": 6279,
      "రాయి": 6280,
      "డ్డీ": 6281,
      "దాడు": 6282,
      "ఇష్టం": 6283,
      "స్తాడు": 6284,
      "sle": 6285,
      "adv": 6286,
      "Prak": 6287,
      "వంద": 6288,
      "itation": 6289,
      "often": 6290,
      "sele": 6291,
      "శాన్ని": 6292,
      "వంతంగా": 6293,
      "languages": 6294,
      "Dhoni": 6295,
      "నాటి": 6296,
      "chan": 6297,
      "వీరు": 6298,
      "ఢిల్లీలో": 6299,
      "రోహిత్": 6300,
      "cast": 6301,
      "నూనె": 6302,
      "followed": 6303,
      "IN": 6304,
      "ఆఫ్‌": 6305,
      "కీర్": 6306,
      "ించుకో": 6307,
      "changes": 6308,
      "జరుగుతున్న": 6309,
      "సంఖ్యలో": 6310,
      "జరిగే": 6311,
      "మార్పులు": 6312,
      "చరణ్": 6313,
      "పార": 6314,
      "నిద్ర": 6315,
      "గ్గా": 6316,
      "మండలి": 6317,
      "paign": 6318,
      "board": 6319,
      "సూచి": 6320,
      "otal": 6321,
      "ండీ": 6322,
      "మంగా": 6323,
      "ened": 6324,
      "వాటిలో": 6325,
      "online": 6326,
      "LORD": 6327,
      "Mand": 6328,
      "Speak": 6329,
      "First": 6330,
      "vehicles": 6331,
      "విరు": 6332,
      "కాశ్మీ": 6333,
      "estab": 6334,
      "Europe": 6335,
      "ాలనే": 6336,
      "stu": 6337,
      "విషయాలు": 6338,
      "Bengaluru": 6339,
      "launch": 6340,
      "population": 6341,
      "challeng": 6342,
      "46": 6343,
      "మ్యాచ్": 6344,
      "passengers": 6345,
      "ప్రమాణ": 6346,
      "batt": 6347,
      "cities": 6348,
      "తూనే": 6349,
      "స్తున్నాను": 6350,
      "East": 6351,
      "ald": 6352,
      "వ్యాఖ్యా": 6353,
      "కార్పొ": 6354,
      "introdu": 6355,
      "పంట": 6356,
      "isation": 6357,
      "దిరి": 6358,
      "అనుభ": 6359,
      "served": 6360,
      "Film": 6361,
      "MC": 6362,
      "poor": 6363,
      "ప్రియా": 6364,
      "constituency": 6365,
      "Ste": 6366,
      "failed": 6367,
      "దక్క": 6368,
      "ఫైన": 6369,
      "exist": 6370,
      "stop": 6371,
      "‌ను": 6372,
      "inistr": 6373,
      "force": 6374,
      "ప్రాధా": 6375,
      "వేళ": 6376,
      "emer": 6377,
      "వలెను": 6378,
      "గతా": 6379,
      "efforts": 6380,
      "శుభా": 6381,
      "survi": 6382,
      "ఆదాయం": 6383,
      "టెక్నాల": 6384,
      "విదేశీ": 6385,
      "Sci": 6386,
      "Malayal": 6387,
      "tor": 6388,
      "క్తంగా": 6389,
      "మైనా": 6390,
      "hands": 6391,
      "icipal": 6392,
      "సంబంధి": 6393,
      "Ali": 6394,
      "Educ": 6395,
      "log": 6396,
      "దీర్": 6397,
      "officer": 6398,
      "wed": 6399,
      "గుల": 6400,
      "ణానికి": 6401,
      "వైరల్": 6402,
      "Cont": 6403,
      "అడ్డు": 6404,
      "ane": 6405,
      "ంచిన": 6406,
      "యేషన్": 6407,
      "Arun": 6408,
      "Allu": 6409,
      "ఆయ": 6410,
      "సంక్షే": 6411,
      "aily": 6412,
      "Paul": 6413,
      "trying": 6414,
      "foot": 6415,
      "కేసీఆర్": 6416,
      "Ka": 6417,
      "హిం": 6418,
      "పరిచ": 6419,
      "compet": 6420,
      "function": 6421,
      "susp": 6422,
      "యాదవ్": 6423,
      "group": 6424,
      "pressure": 6425,
      "Raju": 6426,
      "సందర్శ": 6427,
      "Hary": 6428,
      "తృ": 6429,
      "forman": 6430,
      "అత్యధిక": 6431,
      "Malayalam": 6432,
      "initi": 6433,
      "Department": 6434,
      "దేశాల్లో": 6435,
      "నర": 6436,
      "represent": 6437,
      "rovers": 6438,
      "udd": 6439,
      "ంబర్": 6440,
      "Hindu": 6441,
      "తగ్గి": 6442,
      "SS": 6443,
      "మహిళా": 6444,
      "ఇటీవ": 6445,
      "Covid": 6446,
      "ఉన్నాడు": 6447,
      "చదవ": 6448,
      "సాక్షి": 6449,
      "పరంగా": 6450,
      "share": 6451,
      "Rel": 6452,
      "onment": 6453,
      "ల‌కు": 6454,
      "recovered": 6455,
      "నారాయణ": 6456,
      "forward": 6457,
      "వేరియం": 6458,
      "వచ్చారు": 6459,
      "Development": 6460,
      "జమ్": 6461,
      "సహో": 6462,
      "ద్దీ": 6463,
      "అడ్": 6464,
      "వ్యతిరేక": 6465,
      "మున": 6466,
      "రాష్ట్రాల్లో": 6467,
      "రించారు": 6468,
      "సభలో": 6469,
      "మహిళలు": 6470,
      "Ve": 6471,
      "ఘో": 6472,
      "ivil": 6473,
      "Christian": 6474,
      "Priy": 6475,
      "'.": 6476,
      "ఎక్క": 6477,
      "ఆయు": 6478,
      "ులను": 6479,
      "వాల్సిన": 6480,
      "టీసీ": 6481,
      "central": 6482,
      "measures": 6483,
      "houses": 6484,
      "Jun": 6485,
      "AT": 6486,
      "Russ": 6487,
      "కండి": 6488,
      "స్పా": 6489,
      "రాం": 6490,
      "ఇంట్లో": 6491,
      "ంటోంది": 6492,
      "Council": 6493,
      "OD": 6494,
      "peace": 6495,
      "Army": 6496,
      "ఉద్దేశ": 6497,
      "manufact": 6498,
      "Amb": 6499,
      "ames": 6500,
      "ప్రశం": 6501,
      "పోషి": 6502,
      "prove": 6503,
      "season": 6504,
      "Haryana": 6505,
      "సరఫ": 6506,
      "Reg": 6507,
      "వంతమైన": 6508,
      "ల్యా": 6509,
      "వన్డే": 6510,
      "closed": 6511,
      "consider": 6512,
      "ties": 6513,
      "దళ": 6514,
      "దైనా": 6515,
      "యిన": 6516,
      "apan": 6517,
      "charge": 6518,
      "పరుగుల": 6519,
      "global": 6520,
      "iding": 6521,
      "పరిస్థితులు": 6522,
      "చేరుకుని": 6523,
      "experience": 6524,
      "itam": 6525,
      "happening": 6526,
      "పిల్లల": 6527,
      "alleg": 6528,
      "prevent": 6529,
      "కొనసాగ": 6530,
      "schools": 6531,
      "nat": 6532,
      "నిలు": 6533,
      "స్థానాల్లో": 6534,
      "అభినంద": 6535,
      "నిర్మాణం": 6536,
      "employees": 6537,
      "బోర్డు": 6538,
      "్రీ": 6539,
      "పోలీసుల": 6540,
      "takes": 6541,
      "నిబంధన": 6542,
      "By": 6543,
      "ials": 6544,
      "తెలంగాణలో": 6545,
      "Muk": 6546,
      "సన్ని": 6547,
      "ona": 6548,
      "క్రింది": 6549,
      "Most": 6550,
      "Maruti": 6551,
      "Ban": 6552,
      "adi": 6553,
      "teas": 6554,
      "ival": 6555,
      "audience": 6556,
      "ంచే": 6557,
      "ణ్య": 6558,
      "భక్": 6559,
      "తిన": 6560,
      "Yog": 6561,
      "రొ": 6562,
      "టిక్": 6563,
      "ify": 6564,
      "stated": 6565,
      "పురా": 6566,
      "aksh": 6567,
      "mess": 6568,
      "రష": 6569,
      "హత": 6570,
      "aya": 6571,
      "abo": 6572,
      "North": 6573,
      "Tem": 6574,
      "పరచ": 6575,
      "recorded": 6576,
      "Ha": 6577,
      "cant": 6578,
      "wat": 6579,
      "eved": 6580,
      "term": 6581,
      "సంపాద": 6582,
      "ళ్లలో": 6583,
      "electric": 6584,
      "పదార్థ": 6585,
      "Now": 6586,
      "Pan": 6587,
      "mes": 6588,
      "రమే": 6589,
      "Take": 6590,
      "pand": 6591,
      "వేత": 6592,
      "Techn": 6593,
      "శుభాకాం": 6594,
      "ners": 6595,
      "thought": 6596,
      "భారతీ": 6597,
      "ఒప్పందం": 6598,
      "వాయిదా": 6599,
      "Under": 6600,
      "గడ": 6601,
      "వాగ్": 6602,
      "Directed": 6603,
      "Music": 6604,
      "non": 6605,
      "teams": 6606,
      "Four": 6607,
      "వేసింది": 6608,
      "ama": 6609,
      "ఫ్ట్": 6610,
      "From": 6611,
      "మాన్ని": 6612,
      "train": 6613,
      "మరిన్ని": 6614,
      "forms": 6615,
      "ఆసియా": 6616,
      "stor": 6617,
      "doub": 6618,
      "Fr": 6619,
      "నిషే": 6620,
      "ising": 6621,
      "కొరకు": 6622,
      "వేలు": 6623,
      "unities": 6624,
      "దాఖలు": 6625,
      "గడి": 6626,
      "undred": 6627,
      "basis": 6628,
      "పాకిస్తాన్": 6629,
      "కొత్తగా": 6630,
      "skin": 6631,
      "లేదన్నారు": 6632,
      "ట్వీట్": 6633,
      "గుజరాత్": 6634,
      "Our": 6635,
      "పురం": 6636,
      "లీటర్": 6637,
      "మినహా": 6638,
      "bab": 6639,
      "ఏంటి": 6640,
      "గట్టి": 6641,
      "న్సీ": 6642,
      "చేశ": 6643,
      "తప్పని": 6644,
      "either": 6645,
      "sens": 6646,
      "టంతో": 6647,
      "ఎమ్మెల్యేలు": 6648,
      "Bharat": 6649,
      "ప్రచారం": 6650,
      "పోయే": 6651,
      "స్తాం": 6652,
      "దీర్ఘ": 6653,
      "ఎయిర్": 6654,
      "screen": 6655,
      "marks": 6656,
      "Good": 6657,
      "Aff": 6658,
      "Than": 6659,
      "tha": 6660,
      "త్యం": 6661,
      "పంపి": 6662,
      "ప్రాంతం": 6663,
      "స్టీ": 6664,
      "erc": 6665,
      "Prab": 6666,
      "ట్లలో": 6667,
      "eyes": 6668,
      "allowed": 6669,
      "వాణిజ్య": 6670,
      "పెట్టి": 6671,
      "జమ్మూ": 6672,
      "vest": 6673,
      "రింగ్": 6674,
      "తిరు": 6675,
      "English": 6676,
      "అలీ": 6677,
      "ఎవర": 6678,
      "ఉండేది": 6679,
      "రక్షి": 6680,
      "నేడు": 6681,
      "అభిమానులు": 6682,
      "ళీ": 6683,
      "fair": 6684,
      "campaign": 6685,
      "కుంటున్న": 6686,
      "అదనపు": 6687,
      "ఫ్రికా": 6688,
      "198": 6689,
      "looking": 6690,
      "పథకం": 6691,
      "మార్కెట్లో": 6692,
      "కాదని": 6693,
      "iran": 6694,
      "grat": 6695,
      "Pad": 6696,
      "mag": 6697,
      "ణ్‌": 6698,
      "చేసారు": 6699,
      "2015": 6700,
      "రోజుకు": 6701,
      "quality": 6702,
      "Ap": 6703,
      "ఆశ్ర": 6704,
      "anyone": 6705,
      "పునరు": 6706,
      "ded": 6707,
      "బ్లి": 6708,
      "మనో": 6709,
      "వర్షాలు": 6710,
      "న్‌ను": 6711,
      "స్తున్నట్లు": 6712,
      "stitute": 6713,
      "named": 6714,
      "Def": 6715,
      "ered": 6716,
      "జంట": 6717,
      "outs": 6718,
      "Suz": 6719,
      "technology": 6720,
      "beautiful": 6721,
      "ముస్లిం": 6722,
      "దంతా": 6723,
      "hear": 6724,
      "కరంగా": 6725,
      "మారుతి": 6726,
      "companies": 6727,
      "గ్రూ": 6728,
      "necessary": 6729,
      "hours": 6730,
      "నిపుణ": 6731,
      "teacher": 6732,
      "డౌన్": 6733,
      "Ash": 6734,
      "హన": 6735,
      "స్థల": 6736,
      "posted": 6737,
      "నిర్వహించారు": 6738,
      "యుద్ధం": 6739,
      "ంభ": 6740,
      "అందరి": 6741,
      "Have": 6742,
      "agr": 6743,
      "probe": 6744,
      "58": 6745,
      "rs": 6746,
      "కుంది": 6747,
      "regular": 6748,
      "అంతకు": 6749,
      "గుండె": 6750,
      "పెట్టిన": 6751,
      "ల‌ను": 6752,
      "నిరోధ": 6753,
      "thi": 6754,
      "టెక్నాలజీ": 6755,
      "ంటర్‌": 6756,
      "built": 6757,
      "higher": 6758,
      "అటు": 6759,
      "saw": 6760,
      "Only": 6761,
      "సంబంధిత": 6762,
      "Sush": 6763,
      "Vis": 6764,
      "ఇన్ని": 6765,
      "created": 6766,
      "జీవితంలో": 6767,
      "ఎంచు": 6768,
      "virus": 6769,
      "uki": 6770,
      "విశేషం": 6771,
      "Affairs": 6772,
      "ట్టారు": 6773,
      "Indians": 6774,
      "Ben": 6775,
      "దాయ": 6776,
      "యోగం": 6777,
      "వ్యక్తిగత": 6778,
      "smart": 6779,
      "rupt": 6780,
      "గ్యా": 6781,
      "భర": 6782,
      "ొచ్చు": 6783,
      "recover": 6784,
      "వేడుక": 6785,
      "కఠిన": 6786,
      "economy": 6787,
      "పడుతున్నారు": 6788,
      "బరువు": 6789,
      "ుడు": 6790,
      "trail": 6791,
      "వర్మ": 6792,
      "సరసన": 6793,
      "Mean": 6794,
      "సంవత్సరాల": 6795,
      "చ్చాడు": 6796,
      "Enter": 6797,
      "56": 6798,
      "income": 6799,
      "వికెట్లు": 6800,
      "డిస్": 6801,
      "icked": 6802,
      "didn": 6803,
      "రమ": 6804,
      "సీతారా": 6805,
      "quir": 6806,
      "రోజుల్లో": 6807,
      "link": 6808,
      "ams": 6809,
      "శ్వర్": 6810,
      "పాత్రల్లో": 6811,
      "options": 6812,
      "అమ్మాయి": 6813,
      "తకు": 6814,
      "thats": 6815,
      "మ్మి": 6816,
      "దృశ": 6817,
      "చర్చలు": 6818,
      "Corpor": 6819,
      "economic": 6820,
      "scored": 6821,
      "ప్రాథమిక": 6822,
      "లోప": 6823,
      "performan": 6824,
      "simple": 6825,
      "దార్": 6826,
      "iss": 6827,
      "విటమి": 6828,
      "Fe": 6829,
      "Power": 6830,
      "severe": 6831,
      "divid": 6832,
      "మోహన్‌": 6833,
      "వరం": 6834,
      "అధ్యయ": 6835,
      "వ్యవహార": 6836,
      "morning": 6837,
      "mobile": 6838,
      "Witness": 6839,
      "ఉచి": 6840,
      "మిగతా": 6841,
      "గోదా": 6842,
      "చుకున్న": 6843,
      "గవర్నర్": 6844,
      "fell": 6845,
      "ఆగ": 6846,
      "పాక్": 6847,
      "కనిప": 6848,
      "బడ్జెట్": 6849,
      "regarding": 6850,
      "సరఫరా": 6851,
      "ming": 6852,
      "నౌ": 6853,
      "శ‌": 6854,
      "సినిమాని": 6855,
      "క్రె": 6856,
      "ఉండగా": 6857,
      "benefit": 6858,
      "fear": 6859,
      "కుటుంబం": 6860,
      "వర్షం": 6861,
      "daily": 6862,
      "అన్": 6863,
      "Nobody": 6864,
      "సంగీత": 6865,
      "lockdown": 6866,
      "iant": 6867,
      "ఆఫీ": 6868,
      "అందజే": 6869,
      "తీసుకె": 6870,
      "caused": 6871,
      "programme": 6872,
      "Farmers": 6873,
      "Kannada": 6874,
      "river": 6875,
      "దృష్ట": 6876,
      "మాట్లాడారు": 6877,
      "ఫ్రె": 6878,
      "tweeted": 6879,
      "deceased": 6880,
      "Suzuki": 6881,
      "rif": 6882,
      "ఉన్నది": 6883,
      "స్థిర": 6884,
      "రంగంలో": 6885,
      "నియంత్రణ": 6886,
      "card": 6887,
      "ర్చి": 6888,
      "వున్న": 6889,
      "రాజ్యాంగ": 6890,
      "AD": 6891,
      "CE": 6892,
      "Cup": 6893,
      "దైన": 6894,
      "తిరుగు": 6895,
      "త్రిక": 6896,
      "వారీ": 6897,
      "కనుగొ": 6898,
      "పోతుంది": 6899,
      "వంతు": 6900,
      "అవును": 6901,
      "పెట్టుబడు": 6902,
      "Japan": 6903,
      "వచ": 6904,
      "నింగ్": 6905,
      "డాన్ని": 6906,
      "మార్గం": 6907,
      "healthy": 6908,
      "విద్యార్థి": 6909,
      "Since": 6910,
      "ఉష్ణ": 6911,
      "ఏదో": 6912,
      "పట్": 6913,
      "elected": 6914,
      "steps": 6915,
      "Sim": 6916,
      "ష్క": 6917,
      "makes": 6918,
      "encies": 6919,
      "contrib": 6920,
      "క్రికెట్‌": 6921,
      "భారత్‌లో": 6922,
      "dig": 6923,
      "nes": 6924,
      "ఆయ‌": 6925,
      "టివ్‌": 6926,
      "వీటిలో": 6927,
      "successful": 6928,
      "మళ్ళ": 6929,
      "instru": 6930,
      "ator": 6931,
      "aging": 6932,
      "చుకుంది": 6933,
      "తెరకెక్క": 6934,
      "ప్రోత్స": 6935,
      "fav": 6936,
      "os": 6937,
      "రిజర్": 6938,
      "హిందూ": 6939,
      "క్రో": 6940,
      "వివరించారు": 6941,
      "అవసరమైన": 6942,
      "ience": 6943,
      "సచి": 6944,
      "ించ‌": 6945,
      "Commit": 6946,
      "Dep": 6947,
      "ఆల్": 6948,
      "డొ": 6949,
      "మెడి": 6950,
      "related": 6951,
      "letter": 6952,
      "నిజానికి": 6953,
      "nom": 6954,
      "కురి": 6955,
      "ట్స్‌": 6956,
      "House": 6957,
      "లవ": 6958,
      "ries": 6959,
      "mony": 6960,
      "spoke": 6961,
      "సలహా": 6962,
      "ఆన్‌": 6963,
      "admitted": 6964,
      "markets": 6965,
      "కమిష": 6966,
      "late": 6967,
      "rains": 6968,
      "icular": 6969,
      "avy": 6970,
      "wanted": 6971,
      "వివాహం": 6972,
      "నేని": 6973,
      "రంగం": 6974,
      "Stud": 6975,
      "గాయాలయ్యాయి": 6976,
      "Bab": 6977,
      "sat": 6978,
      "రస": 6979,
      "జేడీ": 6980,
      "పరీక్షలు": 6981,
      "nath": 6982,
      "పక": 6983,
      "పార్టీకి": 6984,
      "spiritu": 6985,
      "పంజాబ్": 6986,
      "రాల": 6987,
      "లాది": 6988,
      "progress": 6989,
      "మొత్త": 6990,
      "సోనియా": 6991,
      "litre": 6992,
      "arrange": 6993,
      "ini": 6994,
      "atory": 6995,
      "దిగ్": 6996,
      "projects": 6997,
      "milit": 6998,
      "బంగారం": 6999,
      "చూపు": 7000,
      "’.": 7001,
      "కాస్త": 7002,
      "opposition": 7003,
      "పెంచు": 7004,
      "ggest": 7005,
      "గ్రి": 7006,
      "heard": 7007,
      "prep": 7008,
      "roads": 7009,
      "until": 7010,
      "పోస్టుమార్టం": 7011,
      "above": 7012,
      "ax": 7013,
      "scri": 7014,
      "డ్రా": 7015,
      "హౌ": 7016,
      "స్థాన్‌": 7017,
      "దూరం": 7018,
      "సుజు": 7019,
      "సంభవ": 7020,
      "అనుసం": 7021,
      "Face": 7022,
      "Nit": 7023,
      "weight": 7024,
      "సాక్ష": 7025,
      "నాయకుడు": 7026,
      "ఆవిష్": 7027,
      "శుభాకాంక్షలు": 7028,
      "flood": 7029,
      "అగ్ర": 7030,
      "రుల": 7031,
      "Indust": 7032,
      "వర్తి": 7033,
      "witness": 7034,
      "Sonia": 7035,
      "War": 7036,
      "Deep": 7037,
      "పడుతున్న": 7038,
      "Women": 7039,
      "శంకర్": 7040,
      "helps": 7041,
      "fru": 7042,
      "999": 7043,
      "చెబుతున్నారు": 7044,
      "born": 7045,
      "తంత్ర": 7046,
      "poll": 7047,
      "అధికంగా": 7048,
      "Meanwhile": 7049,
      "alore": 7050,
      "nearby": 7051,
      "citizens": 7052,
      "న్నె": 7053,
      "వీటిని": 7054,
      "Medical": 7055,
      "Fo": 7056,
      "కరీ": 7057,
      "క్సి": 7058,
      "టైటి": 7059,
      "charged": 7060,
      "Sur": 7061,
      "బహి": 7062,
      "ode": 7063,
      "సన్‌": 7064,
      "మెంట్‌": 7065,
      "చేశాయి": 7066,
      "కృతజ్ఞ": 7067,
      "Sures": 7068,
      "rug": 7069,
      "గౌరవ": 7070,
      "offered": 7071,
      "Suresh": 7072,
      "ఉందా": 7073,
      "వేరే": 7074,
      "కార్యకలా": 7075,
      "ట్విట్టర్": 7076,
      "చేసినట్లు": 7077,
      "lakhs": 7078,
      "committee": 7079,
      "opportunity": 7080,
      "moment": 7081,
      "Sund": 7082,
      "వద్దు": 7083,
      "reli": 7084,
      "పూర్ణ": 7085,
      "ju": 7086,
      "sell": 7087,
      "దాకా": 7088,
      "రైతులకు": 7089,
      "benefits": 7090,
      "cra": 7091,
      "esides": 7092,
      "దిన": 7093,
      "గోదావరి": 7094,
      "ందర": 7095,
      "actors": 7096,
      "ణాన్ని": 7097,
      "ledge": 7098,
      "43": 7099,
      "Dil": 7100,
      "UV": 7101,
      "ముక్క": 7102,
      "lu": 7103,
      "century": 7104,
      "భవిష్యత్తు": 7105,
      "సంయుక్తంగా": 7106,
      "67": 7107,
      "Even": 7108,
      "చోట్ల": 7109,
      "ఆరోపణలు": 7110,
      "జనం": 7111,
      "aland": 7112,
      "తగ్గు": 7113,
      "confirmed": 7114,
      "ఆరా": 7115,
      "లొ": 7116,
      "alliance": 7117,
      "aught": 7118,
      "pes": 7119,
      "pted": 7120,
      "wind": 7121,
      "ఇరా": 7122,
      "ఇవా": 7123,
      "చ‌": 7124,
      "వాస": 7125,
      "living": 7126,
      "న్నాం": 7127,
      "తీసుకుని": 7128,
      "విమర్శలు": 7129,
      "ఆస్": 7130,
      "ించబడిన": 7131,
      "ట్రంప్‌": 7132,
      "sou": 7133,
      "ంచె": 7134,
      "నివేదిక": 7135,
      "ఉంటుందని": 7136,
      "controvers": 7137,
      "సింహ": 7138,
      "మరణించారు": 7139,
      "ఆహారం": 7140,
      "మనుష": 7141,
      "లాండ్‌": 7142,
      "మిలియన్": 7143,
      "వర్ణ": 7144,
      "అయినప్పటికీ": 7145,
      "Kolk": 7146,
      "విచార": 7147,
      "వరుసగా": 7148,
      "circ": 7149,
      "పను": 7150,
      "resh": 7151,
      "ల్‌గా": 7152,
      "Devi": 7153,
      "Prakash": 7154,
      "ష‌": 7155,
      "request": 7156,
      "చాలామంది": 7157,
      "itude": 7158,
      "ption": 7159,
      "vehicle": 7160,
      "ED": 7161,
      "ఒడి": 7162,
      "ఛార్": 7163,
      "Ramesh": 7164,
      "ంగ్లా": 7165,
      "వసర": 7166,
      "మైనది": 7167,
      "కలిగ": 7168,
      "happens": 7169,
      "ఇద్దరూ": 7170,
      "Donald": 7171,
      "600": 7172,
      "శర": 7173,
      "dict": 7174,
      "squ": 7175,
      "గ్య": 7176,
      "మాస్": 7177,
      "పరిణా": 7178,
      "cting": 7179,
      "ulated": 7180,
      "తేడాతో": 7181,
      "cinem": 7182,
      "మద్య": 7183,
      "trade": 7184,
      "హాజరు": 7185,
      "vious": 7186,
      "avo": 7187,
      "anna": 7188,
      "ఇద్దరి": 7189,
      "vote": 7190,
      "banks": 7191,
      "Bill": 7192,
      "పర్‌": 7193,
      "న్యం": 7194,
      "motor": 7195,
      "అద్భుతమైన": 7196,
      "వయసు": 7197,
      "Kolkata": 7198,
      "Ay": 7199,
      "cere": 7200,
      "surance": 7201,
      "votes": 7202,
      "మ్యాచ్‌లో": 7203,
      "రాష్ట్రాలు": 7204,
      "ffered": 7205,
      "atic": 7206,
      "పాకిస్థాన్": 7207,
      "spirit": 7208,
      "ication": 7209,
      "sex": 7210,
      "లాభ": 7211,
      "affected": 7212,
      "attend": 7213,
      "MPs": 7214,
      "Opposition": 7215,
      "ప్రార్థ": 7216,
      "కూతురు": 7217,
      "తేలి": 7218,
      "గ్రామీ": 7219,
      "relationship": 7220,
      "వై": 7221,
      "బ్యాంక్‌": 7222,
      "చేరుకున్న": 7223,
      "victory": 7224,
      "800": 7225,
      "AR": 7226,
      "ఎత్తున": 7227,
      "Venkat": 7228,
      "మహమ్మారి": 7229,
      "అన్నీ": 7230,
      "ఎడ": 7231,
      "పతా": 7232,
      "ించడంతో": 7233,
      "ద్దరూ": 7234,
      "కలె": 7235,
      "జైలు": 7236,
      "బడ్డాయి": 7237,
      "safe": 7238,
      "దిశగా": 7239,
      "మళ్ళీ": 7240,
      "జాన్": 7241,
      "identified": 7242,
      "బీహార్": 7243,
      "గరిష్ట": 7244,
      "విషయమై": 7245,
      "signific": 7246,
      "తెరకెక్కుతున్న": 7247,
      "తప్పనిసరి": 7248,
      "రుగా": 7249,
      "suggest": 7250,
      "responsibility": 7251,
      "Education": 7252,
      "Ger": 7253,
      "forces": 7254,
      "నున్నట్లు": 7255,
      "Priyanka": 7256,
      "pandemic": 7257,
      "Lets": 7258,
      "ఉండి": 7259,
      "ull": 7260,
      "ఆమోద": 7261,
      "అక్": 7262,
      "ఓవర్": 7263,
      "reach": 7264,
      "colour": 7265,
      "పరిష్కర": 7266,
      "కిలోమీటర్ల": 7267,
      "gap": 7268,
      "జయ్": 7269,
      "వత": 7270,
      "threat": 7271,
      "officers": 7272,
      "petition": 7273,
      "రచయి": 7274,
      "Actor": 7275,
      "ays": 7276,
      "ternet": 7277,
      "critical": 7278,
      "ఇంటికి": 7279,
      "thou": 7280,
      "పోలి": 7281,
      "సైని": 7282,
      "bill": 7283,
      "ఇచ్చింది": 7284,
      "suffered": 7285,
      "ఎయిర్‌": 7286,
      "authorities": 7287,
      "ఇబ్బందులు": 7288,
      "ఇతరు": 7289,
      "పబ్లి": 7290,
      "మత్త": 7291,
      "vey": 7292,
      "నామి": 7293,
      "తాడు": 7294,
      "సంఘం": 7295,
      "lic": 7296,
      "కుడిగా": 7297,
      "సీట్లు": 7298,
      "Mr": 7299,
      "సిక": 7300,
      "plann": 7301,
      "ర్‌ను": 7302,
      "ంచింది": 7303,
      "అత్యు": 7304,
      "Moham": 7305,
      "జోడ": 7306,
      "continued": 7307,
      "Committee": 7308,
      "అప": 7309,
      "assist": 7310,
      "ఏళ్ల": 7311,
      "reports": 7312,
      "తిరస్": 7313,
      "prop": 7314,
      "మార్చ": 7315,
      "disput": 7316,
      "బీజేపీకి": 7317,
      "వ‌ర్": 7318,
      "చాడు": 7319,
      "tests": 7320,
      "వాతావర": 7321,
      "అవకాశ": 7322,
      "Chairman": 7323,
      "Pet": 7324,
      "అంటారు": 7325,
      "ఏదైనా": 7326,
      "కోరి": 7327,
      "utes": 7328,
      "పరిగణ": 7329,
      "prime": 7330,
      "మ్మల్ని": 7331,
      "icke": 7332,
      "రాల్లో": 7333,
      "Child": 7334,
      "Mu": 7335,
      "రౌ": 7336,
      "విమానా": 7337,
      "ional": 7338,
      "స్‌ను": 7339,
      "అంశ": 7340,
      "95": 7341,
      "అప్ర": 7342,
      "isl": 7343,
      "ift": 7344,
      "కాల్పు": 7345,
      "cricke": 7346,
      "స్తున్నాం": 7347,
      "స్టేషన్‌": 7348,
      "trailer": 7349,
      "బ్యాటింగ్": 7350,
      "goes": 7351,
      "రాష్ట్రంలోని": 7352,
      "aug": 7353,
      "చేపట్టిన": 7354,
      "ఏర్పాట్లు": 7355,
      "bh": 7356,
      "block": 7357,
      "అస్": 7358,
      "mater": 7359,
      "అక్క": 7360,
      "ago": 7361,
      "బ్రే": 7362,
      "యూనివర్": 7363,
      "ష్ఠ": 7364,
      "ఉదాహరణకు": 7365,
      "sw": 7366,
      "ఉప్పు": 7367,
      "గమ": 7368,
      "leave": 7369,
      "below": 7370,
      "పాత": 7371,
      "తీసుకోవాలి": 7372,
      "జంతు": 7373,
      "జాగ్రత్తగా": 7374,
      "అశ్": 7375,
      "‌గా": 7376,
      "లుక్": 7377,
      "నెర": 7378,
      "producing": 7379,
      "Such": 7380,
      "About": 7381,
      "ఉదయం": 7382,
      "పడ్డాయి": 7383,
      "completely": 7384,
      "Facebook": 7385,
      "Vish": 7386,
      "greg": 7387,
      "ఊహ": 7388,
      "పత": 7389,
      "వారితో": 7390,
      "ప్రపంచవ్యాప్తంగా": 7391,
      "Sp": 7392,
      "uel": 7393,
      "వస": 7394,
      "enough": 7395,
      "డిజై": 7396,
      "ల్‌కు": 7397,
      "పరిశోధన": 7398,
      "బాలిక": 7399,
      "ye": 7400,
      "బంగ్లా": 7401,
      "నువ్వు": 7402,
      "appre": 7403,
      "includes": 7404,
      "Brit": 7405,
      "Car": 7406,
      "కన్నడ": 7407,
      "నిలిచింది": 7408,
      "pow": 7409,
      "పెద్దగా": 7410,
      "దారుల": 7411,
      "begun": 7412,
      "Bangl": 7413,
      "ఘర్": 7414,
      "cash": 7415,
      "boo": 7416,
      "చుకున్నారు": 7417,
      "Up": 7418,
      "్యాలు": 7419,
      "బాక్": 7420,
      "tele": 7421,
      "ప్రశ్నలు": 7422,
      "ప్రయత్నించ": 7423,
      "Road": 7424,
      "rules": 7425,
      "Salman": 7426,
      "52": 7427,
      "జర్మ": 7428,
      "individ": 7429,
      "research": 7430,
      "జల్": 7431,
      "వుండ": 7432,
      "sust": 7433,
      "ends": 7434,
      "రోజులు": 7435,
      "serve": 7436,
      "ఆరోపించారు": 7437,
      "Apr": 7438,
      "gen": 7439,
      "శై": 7440,
      "seized": 7441,
      "ఒత్తిడి": 7442,
      "performance": 7443,
      "Ba": 7444,
      "Di": 7445,
      "నార్": 7446,
      "స్పద": 7447,
      "125": 7448,
      "Big": 7449,
      "RBI": 7450,
      "mad": 7451,
      "knows": 7452,
      "నిలిచి": 7453,
      "దక్షిణా": 7454,
      "లింగ్‌": 7455,
      "చెప్పే": 7456,
      "strengthen": 7457,
      "Article": 7458,
      "cel": 7459,
      "tty": 7460,
      "princ": 7461,
      "తెలుగులో": 7462,
      "ding": 7463,
      "మరీ": 7464,
      "belong": 7465,
      "మిటి": 7466,
      "exerc": 7467,
      "doctor": 7468,
      "earch": 7469,
      "జగన్‌": 7470,
      "Patel": 7471,
      "బెంగాల్": 7472,
      "multi": 7473,
      "Jud": 7474,
      "తదు": 7475,
      "పుల్": 7476,
      "గుప్": 7477,
      "బుక్": 7478,
      "సమాచార": 7479,
      "వాతావరణ": 7480,
      "‌లు": 7481,
      "ark": 7482,
      "ాలూ": 7483,
      "Witnesses": 7484,
      "Nand": 7485,
      "హరి": 7486,
      "వలసి": 7487,
      "Ahmed": 7488,
      "ప్రస్తా": 7489,
      "కొట్టి": 7490,
      "మాటలు": 7491,
      "discussed": 7492,
      "సంతృ": 7493,
      "draw": 7494,
      "DE": 7495,
      "Gold": 7496,
      "vt": 7497,
      "అల్": 7498,
      "thod": 7499,
      "సరికొత్త": 7500,
      "సంతోషంగా": 7501,
      "character": 7502,
      "Africa": 7503,
      "ఇబ్బంది": 7504,
      "రాన్ని": 7505,
      "vironment": 7506,
      "!\"": 7507,
      "టిఫి": 7508,
      "ఉండవచ్చు": 7509,
      "టెలి": 7510,
      "వార్తలు": 7511,
      "నిర్మించారు": 7512,
      "daughters": 7513,
      "నాథ్‌": 7514,
      "అభిమాను": 7515,
      "ఇన్నింగ్": 7516,
      "తదుపరి": 7517,
      "ఒప్పు": 7518,
      "వ్య‌": 7519,
      "governments": 7520,
      "ఫోన్‌": 7521,
      "cutive": 7522,
      "pu": 7523,
      "associ": 7524,
      "రాజస్థాన్": 7525,
      "యొద్ద": 7526,
      "orders": 7527,
      "నొప్పి": 7528,
      "pictures": 7529,
      "Mem": 7530,
      "కాయ": 7531,
      "akes": 7532,
      "రోజూ": 7533,
      "శానికి": 7534,
      "డేటా": 7535,
      "వ్యవహర": 7536,
      "ఐదుగురు": 7537,
      "సుజుకి": 7538,
      "డిపి": 7539,
      "రులు": 7540,
      "awada": 7541,
      "ముఖ్యం": 7542,
      "అనుసంధా": 7543,
      "Jay": 7544,
      "ఇచ్చే": 7545,
      "వరద": 7546,
      "Constitution": 7547,
      "సినిమాల్లో": 7548,
      "పూజ": 7549,
      "producer": 7550,
      "Board": 7551,
      "Election": 7552,
      "ఓటు": 7553,
      "కూటమి": 7554,
      "నగదు": 7555,
      "చేసుకోవాలి": 7556,
      "మలయా": 7557,
      "నిరు": 7558,
      "గాయాలు": 7559,
      "ender": 7560,
      "ఉన్నత": 7561,
      "మహిళల": 7562,
      "మొబైల్": 7563,
      "ోగ్ర": 7564,
      "అంచనాలు": 7565,
      "ఎల్ల": 7566,
      "కస్ట": 7567,
      "leav": 7568,
      "reser": 7569,
      "black": 7570,
      "ప్ర‌ధాన": 7571,
      "రీమే": 7572,
      "avari": 7573,
      "సక్": 7574,
      "క్రమంగా": 7575,
      "risk": 7576,
      "విశ్వవిద్య": 7577,
      "Earlier": 7578,
      "Bangladesh": 7579,
      "Fore": 7580,
      "promot": 7581,
      "మేర": 7582,
      "నేతృ": 7583,
      "Christians": 7584,
      "సులభం": 7585,
      "ఇశ్రాయేలీ": 7586,
      "ఉష్ణోగ్ర": 7587,
      "SC": 7588,
      "School": 7589,
      "ato": 7590,
      "వాట్": 7591,
      "వాది": 7592,
      "dem": 7593,
      "personnel": 7594,
      "Ju": 7595,
      "Mic": 7596,
      "ముని": 7597,
      "అనుమత": 7598,
      "లభించింది": 7599,
      "sleep": 7600,
      "gri": 7601,
      "ler": 7602,
      "విడ": 7603,
      "debut": 7604,
      "యూపీ": 7605,
      "achin": 7606,
      "temper": 7607,
      "సిద్ధంగా": 7608,
      "model": 7609,
      "సూచించారు": 7610,
      "టీఆర్ఎస్": 7611,
      "society": 7612,
      "విద్యుత్": 7613,
      "Cap": 7614,
      "NCP": 7615,
      "mist": 7616,
      "ముగ": 7617,
      "dev": 7618,
      "పెట్టింది": 7619,
      "particular": 7620,
      "క్రింద": 7621,
      "మొదట": 7622,
      "ushka": 7623,
      "expectations": 7624,
      "HD": 7625,
      "ళ్లను": 7626,
      "brand": 7627,
      "products": 7628,
      "ప్రయోజనాలు": 7629,
      "ఆశ్చర్య": 7630,
      "bel": 7631,
      "separ": 7632,
      "bless": 7633,
      "minor": 7634,
      "నమ్మకం": 7635,
      "శరీర": 7636,
      "ప్రతినిధి": 7637,
      "cred": 7638,
      "కింది": 7639,
      "వేసిన": 7640,
      "కార్యక్రమం": 7641,
      "68": 7642,
      "IR": 7643,
      "hor": 7644,
      "nal": 7645,
      "actually": 7646,
      "ization": 7647,
      "సిద్ధం": 7648,
      "graph": 7649,
      "Out": 7650,
      "ఆరం": 7651,
      "prim": 7652,
      "శివసేన": 7653,
      "భిన్నంగా": 7654,
      "ior": 7655,
      "అరవి": 7656,
      "orig": 7657,
      "గానీ": 7658,
      "sec": 7659,
      "actions": 7660,
      "awa": 7661,
      "59": 7662,
      "మాధ్య": 7663,
      "డిజి": 7664,
      "జరిగాయి": 7665,
      "ముంబయి": 7666,
      "value": 7667,
      "recogn": 7668,
      "పురుష": 7669,
      "దై": 7670,
      "యాజ": 7671,
      "తనను": 7672,
      "అవగా": 7673,
      "బంధు": 7674,
      "నర్జీ": 7675,
      "వీరికి": 7676,
      "god": 7677,
      "పటే": 7678,
      "వన్నీ": 7679,
      "మహీ": 7680,
      "Godavari": 7681,
      "Amar": 7682,
      "attem": 7683,
      "tried": 7684,
      "పార్లమెంటు": 7685,
      "involved": 7686,
      "Temple": 7687,
      "Vik": 7688,
      "sof": 7689,
      "foreign": 7690,
      "లంక": 7691,
      "--": 7692,
      "నను": 7693,
      "ensure": 7694,
      "సేపు": 7695,
      "lad": 7696,
      "ఓటమి": 7697,
      "రవీ": 7698,
      "advis": 7699,
      "biggest": 7700,
      "కనీసం": 7701,
      "రష్యా": 7702,
      "41": 7703,
      "ahead": 7704,
      "సవరణ": 7705,
      "hood": 7706,
      "construction": 7707,
      "Deputy": 7708,
      "Fire": 7709,
      "except": 7710,
      "cross": 7711,
      "Anushka": 7712,
      "వీరిలో": 7713,
      "ప్రయాణ": 7714,
      "యాత్ర": 7715,
      "కొర": 7716,
      "కరించింది": 7717,
      "నెలలో": 7718,
      "command": 7719,
      "అంశాల": 7720,
      "షెడ్యూ": 7721,
      "oned": 7722,
      "స్వల్ప": 7723,
      "కార్యక్రమానికి": 7724,
      "Em": 7725,
      "lap": 7726,
      "ఏది": 7727,
      "lower": 7728,
      "మంజ": 7729,
      "activities": 7730,
      "ఎగు": 7731,
      "గడు": 7732,
      "ఆర్మీ": 7733,
      "జన్మ": 7734,
      "ఇటీవలే": 7735,
      "69": 7736,
      "iled": 7737,
      "గుణంగా": 7738,
      "అనిల్": 7739,
      "యెడల": 7740,
      "సగ": 7741,
      "quick": 7742,
      "హిట్": 7743,
      "మొక్క": 7744,
      "సహజ": 7745,
      "garh": 7746,
      "wants": 7747,
      "yes": 7748,
      "ఒకరి": 7749,
      "జరుగుతోంది": 7750,
      "giving": 7751,
      "క్రీస్తు": 7752,
      "maintain": 7753,
      "tur": 7754,
      "alone": 7755,
      "క్షతగా": 7756,
      "space": 7757,
      "తమకు": 7758,
      "stopped": 7759,
      "మవుతుంది": 7760,
      "quiry": 7761,
      "Met": 7762,
      "రాక": 7763,
      "ింపులు": 7764,
      "సమీక్ష": 7765,
      "seriously": 7766,
      "Cre": 7767,
      "చారి": 7768,
      "సురక్షి": 7769,
      "రావడం": 7770,
      "ఫలిత": 7771,
      "salt": 7772,
      "picture": 7773,
      "క్కా": 7774,
      "ముందే": 7775,
      "జనరల్": 7776,
      "legal": 7777,
      "ఇక్కడి": 7778,
      "వేడి": 7779,
      "తీసుకోవాలని": 7780,
      "oja": 7781,
      "యన్స్": 7782,
      "వాయు": 7783,
      "నాయక": 7784,
      "అధికారికంగా": 7785,
      "Kingdom": 7786,
      "జస్టిస్": 7787,
      "Joh": 7788,
      "న్నే": 7789,
      "కోట": 7790,
      "acting": 7791,
      "energy": 7792,
      "పేరుతో": 7793,
      "వ్యవహరి": 7794,
      "rates": 7795,
      "వడ్డీ": 7796,
      "aman": 7797,
      "్యాత్": 7798,
      "ager": 7799,
      "devot": 7800,
      "బృందం": 7801,
      "స్పీడ్": 7802,
      "April": 7803,
      "ech": 7804,
      "hundred": 7805,
      "continues": 7806,
      "ప్రభుత్వాన్ని": 7807,
      "custody": 7808,
      "destro": 7809,
      "51": 7810,
      "బార్": 7811,
      "argu": 7812,
      "ంతం": 7813,
      "medic": 7814,
      "డిమాండ్‌": 7815,
      "సంచలన": 7816,
      "Corporation": 7817,
      "బారి": 7818,
      "మధు": 7819,
      "igation": 7820,
      "త్వరగా": 7821,
      "స‌మా": 7822,
      "CCI": 7823,
      "cop": 7824,
      "రాబో": 7825,
      "wara": 7826,
      "డీజిల్": 7827,
      "ప్రచార": 7828,
      "democr": 7829,
      "ఇంజి": 7830,
      "మనిషి": 7831,
      "majority": 7832,
      "jointly": 7833,
      "ఆయ‌న": 7834,
      "ధుల": 7835,
      "రోగ": 7836,
      "అనుసర": 7837,
      "కలిపి": 7838,
      "కోవిడ్‌": 7839,
      "Agr": 7840,
      "కరం": 7841,
      "స్వాత": 7842,
      "సీఐ": 7843,
      "శ్రద్ధ": 7844,
      "సమర్థ": 7845,
      "ఎలక్ట్రి": 7846,
      "Per": 7847,
      "vation": 7848,
      "డ్స్": 7849,
      "సాహి": 7850,
      "వీర": 7851,
      "జీబీ": 7852,
      "ఆధ్యాత్": 7853,
      "నిందితులను": 7854,
      "Commissioner": 7855,
      "ఎక్స్‌": 7856,
      "చది": 7857,
      "pping": 7858,
      "కాంత్": 7859,
      "పరమైన": 7860,
      "check": 7861,
      "laws": 7862,
      "Prabhas": 7863,
      "GST": 7864,
      "Jr": 7865,
      "నవీ": 7866,
      "వంట": 7867,
      "విధి": 7868,
      "mention": 7869,
      "వ‌ర‌": 7870,
      "handed": 7871,
      "ప్రయత్నం": 7872,
      "spiritual": 7873,
      "విమానాశ్ర": 7874,
      "Mun": 7875,
      "టర్లు": 7876,
      "target": 7877,
      "receiving": 7878,
      "Tho": 7879,
      "కక్కడే": 7880,
      "ముంది": 7881,
      "locals": 7882,
      "ఆస్పత్రిలో": 7883,
      "కాలా": 7884,
      "ాలన్నారు": 7885,
      "రాజా": 7886,
      "igr": 7887,
      "మెరుగ": 7888,
      "పార్టీలు": 7889,
      "ప్ర‌భు": 7890,
      "స్తోందని": 7891,
      "fam": 7892,
      "మంతా": 7893,
      "నల్‌": 7894,
      "సమూ": 7895,
      "నేషన్": 7896,
      "దూరంగా": 7897,
      "rejected": 7898,
      "accept": 7899,
      "approv": 7900,
      "offers": 7901,
      "భారత్‌కు": 7902,
      "included": 7903,
      "career": 7904,
      "Auto": 7905,
      "వెంకటే": 7906,
      "Famil": 7907,
      "ug": 7908,
      "ట్యా": 7909,
      "ముద్ర": 7910,
      "పైకి": 7911,
      "hospitals": 7912,
      "charges": 7913,
      "inese": 7914,
      "ఆంధ్రప్రదేశ్‌": 7915,
      "FC": 7916,
      "ike": 7917,
      "వన్‌": 7918,
      "ారావు": 7919,
      "తీసుకుంటా": 7920,
      "వాల": 7921,
      "itor": 7922,
      "పుష్": 7923,
      "indra": 7924,
      "ప్రయోజన": 7925,
      "phys": 7926,
      "చేసుకొని": 7927,
      "ashed": 7928,
      "congreg": 7929,
      "మేనే": 7930,
      "స్‌కు": 7931,
      "అనుష్క": 7932,
      "extreme": 7933,
      "interesting": 7934,
      "natural": 7935,
      "NE": 7936,
      "toms": 7937,
      "తేల్": 7938,
      "బ్లాక్": 7939,
      "అందువల్ల": 7940,
      "ముందుగా": 7941,
      "ఆసుపత్రిలో": 7942,
      "ND": 7943,
      "వులను": 7944,
      "సేవలు": 7945,
      "John": 7946,
      "Loc": 7947,
      "Ze": 7948,
      "ti": 7949,
      "డ‌": 7950,
      "సర్‌": 7951,
      "యిన్": 7952,
      "కేసును": 7953,
      "Coronavirus": 7954,
      "తరఫు": 7955,
      "లక్ష్యం": 7956,
      "ప్రశ్నించారు": 7957,
      "supply": 7958,
      "Bh": 7959,
      "Kis": 7960,
      "via": 7961,
      "Chinese": 7962,
      ":⁠": 7963,
      "rank": 7964,
      "బడే": 7965,
      "estim": 7966,
      "పేజీ": 7967,
      "లభిస్తుంది": 7968,
      "57": 7969,
      "Mam": 7970,
      "నిన్ను": 7971,
      "గాక": 7972,
      "కాద": 7973,
      "కేజ": 7974,
      "grand": 7975,
      "ఉద్రి": 7976,
      "ఇవాళ": 7977,
      "Bha": 7978,
      "పల్": 7979,
      "trust": 7980,
      "పిస్తుంది": 7981,
      "ల్లె": 7982,
      "మందిని": 7983,
      "feature": 7984,
      "ఆలయం": 7985,
      "చల్ల": 7986,
      "శతాబ్": 7987,
      "హర్యా": 7988,
      "విభాగం": 7989,
      "నాల్": 7990,
      "వాహన": 7991,
      "title": 7992,
      "గృహ": 7993,
      "nu": 7994,
      "ఐటీ": 7995,
      "వారిపై": 7996,
      "ించాల్సిన": 7997,
      "CPI": 7998,
      "arent": 7999,
      "పెడు": 8000,
      "fection": 8001,
      "oppos": 8002,
      "చెప్పి": 8003,
      "Bangalore": 8004,
      "opportunities": 8005,
      "administr": 8006,
      "Yet": 8007,
      "కప్": 8008,
      "ళు": 8009,
      "ప్రజలను": 8010,
      "సాధ్యం": 8011,
      "sac": 8012,
      "ximum": 8013,
      "నేనే": 8014,
      "policy": 8015,
      "పాత్రలు": 8016,
      "asks": 8017,
      "సోషల్‌": 8018,
      "కన్ను": 8019,
      "హర": 8020,
      "counts": 8021,
      "ఉపయోగి": 8022,
      "కష్టం": 8023,
      "భయం": 8024,
      "ందరి": 8025,
      "చేస్తే": 8026,
      "వుతుంది": 8027,
      "మంచిది": 8028,
      "remains": 8029,
      "క్రీడా": 8030,
      "లాక్‌": 8031,
      "కేజీ": 8032,
      "investment": 8033,
      "పోవడంతో": 8034,
      "histor": 8035,
      "ప్రాధాన్య": 8036,
      "వెర్": 8037,
      "మృతుల": 8038,
      "లేకపో": 8039,
      "developed": 8040,
      "innings": 8041,
      "120": 8042,
      "అంటున్నారు": 8043,
      "ించబడ": 8044,
      "కూలి": 8045,
      "సాధి": 8046,
      "దీప్": 8047,
      "cially": 8048,
      "న్యాయమూర్తి": 8049,
      "Cricket": 8050,
      "తున్నాను": 8051,
      "చెందు": 8052,
      "రూపొందు": 8053,
      "బిఐ": 8054,
      "chairman": 8055,
      "AS": 8056,
      "Wash": 8057,
      "ators": 8058,
      "వెలువ": 8059,
      "exper": 8060,
      "Inst": 8061,
      "Invest": 8062,
      "సంబ": 8063,
      "depend": 8064,
      "ట్రే": 8065,
      "సైకి": 8066,
      "అక్కడికక్కడే": 8067,
      "అభిప్రాయ": 8068,
      "thus": 8069,
      "రుచి": 8070,
      "శాంత": 8071,
      "file": 8072,
      "Institute": 8073,
      "గుర్తించారు": 8074,
      "opened": 8075,
      "flo": 8076,
      "kumar": 8077,
      "ఎక్కడి": 8078,
      "బ్యూ": 8079,
      "యోగా": 8080,
      "disci": 8081,
      "పంప": 8082,
      "asekhar": 8083,
      "Pooja": 8084,
      "June": 8085,
      "స్మా": 8086,
      "టాప్": 8087,
      "వైఎస్సార్": 8088,
      "Water": 8089,
      "jri": 8090,
      "అసో": 8091,
      "బయో": 8092,
      "comments": 8093,
      "పరిమా": 8094,
      "లక్షణ": 8095,
      "achal": 8096,
      "soldi": 8097,
      "రూపాయల": 8098,
      "ceremony": 8099,
      "ఈమె": 8100,
      "ంలోనే": 8101,
      "పెట్టుబడి": 8102,
      "విస్తృ": 8103,
      "సాగ": 8104,
      "వెళ్ళి": 8105,
      "ఫలితంగా": 8106,
      "ordin": 8107,
      "తదితర": 8108,
      "వైఎస్‌": 8109,
      "వలస": 8110,
      "chay": 8111,
      "ఆయా": 8112,
      "ఉల్లి": 8113,
      "గమన": 8114,
      "వస్తున్న": 8115,
      "పుడు": 8116,
      "grant": 8117,
      "Mark": 8118,
      "గఢ": 8119,
      "access": 8120,
      "పెను": 8121,
      "ప్రభావి": 8122,
      "బాధ్యతలు": 8123,
      "pack": 8124,
      "ీకరణ": 8125,
      "కొట్ట": 8126,
      "విషా": 8127,
      "thee": 8128,
      "కూలంగా": 8129,
      "చెందా": 8130,
      "explain": 8131,
      "విస్తర": 8132,
      "పండుగ": 8133,
      "Ajay": 8134,
      "Tal": 8135,
      "beat": 8136,
      "కార్యక్రమాలు": 8137,
      "gree": 8138,
      "south": 8139,
      "నామ": 8140,
      "స్థానాలు": 8141,
      "Star": 8142,
      "undergoing": 8143,
      "Each": 8144,
      "Sep": 8145,
      "ires": 8146,
      "ese": 8147,
      "incidents": 8148,
      "talks": 8149,
      "carry": 8150,
      "treated": 8151,
      "Kejri": 8152,
      "ఆశ్రయ": 8153,
      "Sith": 8154,
      "చిక్కు": 8155,
      "2021": 8156,
      "కావాలి": 8157,
      "వాళ్ళు": 8158,
      "Those": 8159,
      "bing": 8160,
      "నేది": 8161,
      "fourth": 8162,
      "reedom": 8163,
      "Defence": 8164,
      "Laksh": 8165,
      "ఎడి": 8166,
      "ayana": 8167,
      "ంటాడు": 8168,
      "జరుగుతున్నాయి": 8169,
      "ఉపాధి": 8170,
      "Follow": 8171,
      "Lt": 8172,
      "aver": 8173,
      "ఫరె": 8174,
      "oups": 8175,
      "ఉత్తర్": 8176,
      "రాజ్యసభ": 8177,
      "ఆదేశించారు": 8178,
      "పురస్": 8179,
      "డ్రైవర్": 8180,
      "wis": 8181,
      "సహకార": 8182,
      "latest": 8183,
      "Family": 8184,
      "ంజ్": 8185,
      "నాణ్య": 8186,
      "alli": 8187,
      "clar": 8188,
      "హారం": 8189,
      "acts": 8190,
      "note": 8191,
      "వీలు": 8192,
      "railway": 8193,
      "అవగాహన": 8194,
      "ఏక": 8195,
      "almost": 8196,
      "ప్రచు": 8197,
      "thern": 8198,
      "songs": 8199,
      "లిమిటెడ్": 8200,
      "Hence": 8201,
      "ంపి": 8202,
      "Mahindra": 8203,
      "మానాలు": 8204,
      "దేవర": 8205,
      "traff": 8206,
      "అన్నది": 8207,
      "wamy": 8208,
      "ప్రైవేటు": 8209,
      "arrangements": 8210,
      "Jer": 8211,
      "ns": 8212,
      "ంద్‌": 8213,
      "toll": 8214,
      "ంతర": 8215,
      "hair": 8216,
      "direction": 8217,
      "distrib": 8218,
      "వివరాలను": 8219,
      "appear": 8220,
      "ప్రదర్శన": 8221,
      "strength": 8222,
      "itamin": 8223,
      "allegations": 8224,
      "Bar": 8225,
      "కగా": 8226,
      "plied": 8227,
      "See": 8228,
      "ఎవరికీ": 8229,
      "Qu": 8230,
      "పుట్టిన": 8231,
      "phase": 8232,
      "77": 8233,
      "సబ్": 8234,
      "Anand": 8235,
      "Does": 8236,
      "facing": 8237,
      "bench": 8238,
      "ప్రేక్షకుల": 8239,
      "పిటిషన్": 8240,
      "అహ్మ": 8241,
      "చక్ర": 8242,
      "స్ర": 8243,
      "భావం": 8244,
      "ahu": 8245,
      "ఆధు": 8246,
      "అత్యధి": 8247,
      "buy": 8248,
      "employment": 8249,
      "అధ్యయనం": 8250,
      "350": 8251,
      "Sol": 8252,
      "Senior": 8253,
      "etc": 8254,
      "text": 8255,
      "పేద": 8256,
      "Shr": 8257,
      "lands": 8258,
      "express": 8259,
      "judge": 8260,
      "కథానాయి": 8261,
      "ఖచ్చితంగా": 8262,
      "విత్ర": 8263,
      "వాదాలు": 8264,
      "harm": 8265,
      "leads": 8266,
      "జ్ఞాన": 8267,
      "వేదికగా": 8268,
      "వసూలు": 8269,
      "తుది": 8270,
      "seed": 8271,
      "whom": 8272,
      "focus": 8273,
      "తప్పకుండా": 8274,
      "brothers": 8275,
      "కనె": 8276,
      "ారన్నారు": 8277,
      "ందర్‌": 8278,
      "abh": 8279,
      "బిడ్డ": 8280,
      "కాలిక": 8281,
      "66": 8282,
      "BCCI": 8283,
      "దిగ్గ": 8284,
      "ఖాళీ": 8285,
      "విషయంపై": 8286,
      "ాలీవుడ్": 8287,
      "Sachin": 8288,
      "అల్ల": 8289,
      "అక్కడే": 8290,
      "పద్": 8291,
      "చేస్తు": 8292,
      "చుట్ట": 8293,
      "Ravind": 8294,
      "aware": 8295,
      "దానిపై": 8296,
      "కొనసాగుతోంది": 8297,
      "సంప్రద": 8298,
      "కొడుకు": 8299,
      "ప్రణాళిక": 8300,
      "ఆరుగు": 8301,
      "ధై": 8302,
      "ించబడుతుంది": 8303,
      "loved": 8304,
      "plant": 8305,
      "kept": 8306,
      "range": 8307,
      "పరచు": 8308,
      "వివాదం": 8309,
      "గ్రామంలో": 8310,
      "ప్రయోజనం": 8311,
      "పిల్": 8312,
      "inder": 8313,
      "knowledge": 8314,
      "బ్యాక్": 8315,
      "హెల్": 8316,
      "న్యాయం": 8317,
      "apply": 8318,
      "Rak": 8319,
      "కడ": 8320,
      "ades": 8321,
      "మిషన్": 8322,
      "ల్సిందే": 8323,
      "రిజి": 8324,
      "వాల్‌": 8325,
      "కార్యకర్": 8326,
      "లైంగి": 8327,
      "Leg": 8328,
      "north": 8329,
      "పాజిటివ్": 8330,
      "Kejriwal": 8331,
      "idel": 8332,
      "కంపై": 8333,
      "status": 8334,
      "మంజూరు": 8335,
      "sit": 8336,
      "హార": 8337,
      "ండ్లు": 8338,
      "jobs": 8339,
      "‌టి": 8340,
      "కోల్‌": 8341,
      "congrat": 8342,
      "die": 8343,
      "సెంచ": 8344,
      "addition": 8345,
      "స్వయంగా": 8346,
      "CCTV": 8347,
      "destroy": 8348,
      "ఖీ": 8349,
      "ici": 8350,
      "వెండి": 8351,
      "పేలు": 8352,
      "యూవీ": 8353,
      "rule": 8354,
      "పర్యవే": 8355,
      "వాతావరణం": 8356,
      "nagar": 8357,
      "veget": 8358,
      "చ్చా": 8359,
      "బాద్‌": 8360,
      "Sanjay": 8361,
      "ఆకట్టు": 8362,
      "కతా": 8363,
      "ందరికీ": 8364,
      "ించారని": 8365,
      "violence": 8366,
      "Rag": 8367,
      "ఎగ్": 8368,
      "hearing": 8369,
      "వైసీపీ": 8370,
      "ధోనీ": 8371,
      "wish": 8372,
      "పత్తి": 8373,
      "లోను": 8374,
      "icated": 8375,
      "themselves": 8376,
      "నోత్స": 8377,
      "నగరం": 8378,
      "achieve": 8379,
      "Nath": 8380,
      "erjee": 8381,
      "leve": 8382,
      "ఫిక్": 8383,
      "వెల్లడి": 8384,
      "stock": 8385,
      "విజయవాడ": 8386,
      "Sud": 8387,
      "ఆడి": 8388,
      "చిరు": 8389,
      "నెట్‌": 8390,
      "Asia": 8391,
      "ఫిల్": 8392,
      "Adity": 8393,
      "స్పందించారు": 8394,
      "గ్రామీణ": 8395,
      "78": 8396,
      "moun": 8397,
      "ఢీ": 8398,
      "యీ": 8399,
      "సరే": 8400,
      "అతన్ని": 8401,
      "testing": 8402,
      "facilities": 8403,
      "ప్రియాంక": 8404,
      "72": 8405,
      "attention": 8406,
      "application": 8407,
      "ధృ": 8408,
      "abs": 8409,
      "భారతదేశ": 8410,
      "ఖాన్‌": 8411,
      "American": 8412,
      "పంపిణీ": 8413,
      "బంగ్లాదేశ": 8414,
      "categ": 8415,
      "hom": 8416,
      "ఇటువంటి": 8417,
      "సనం": 8418,
      "rog": 8419,
      "seems": 8420,
      "నాశ": 8421,
      "training": 8422,
      "antly": 8423,
      "players": 8424,
      "Kamal": 8425,
      "Him": 8426,
      "Sto": 8427,
      "eight": 8428,
      "ras": 8429,
      "రాదు": 8430,
      "దిగిన": 8431,
      "transport": 8432,
      "loan": 8433,
      "పేట": 8434,
      "స్థితి": 8435,
      "fras": 8436,
      "దేశాన్ని": 8437,
      "గౌర": 8438,
      "క్షేత్ర": 8439,
      "కరు": 8440,
      "ikanth": 8441,
      "పెట్టే": 8442,
      "ప్రత్యేకంగా": 8443,
      "names": 8444,
      "sequently": 8445,
      "Students": 8446,
      "frastru": 8447,
      "City": 8448,
      "bag": 8449,
      "కాపా": 8450,
      "uled": 8451,
      "Look": 8452,
      "rolled": 8453,
      "63": 8454,
      "ఫస్ట్": 8455,
      "మాను": 8456,
      "ami": 8457,
      "యాంటీ": 8458,
      "టెస్ట్": 8459,
      "SBI": 8460,
      "లోక్": 8461,
      "counter": 8462,
      "సంబంధాలు": 8463,
      "హర్యానా": 8464,
      "site": 8465,
      "వతి": 8466,
      "forest": 8467,
      "Everything": 8468,
      "జాబితాలో": 8469,
      "మినహాయ": 8470,
      "Bu": 8471,
      "ME": 8472,
      "asan": 8473,
      "staff": 8474,
      "దిలీ": 8475,
      "commer": 8476,
      "docu": 8477,
      "అమరావ": 8478,
      "ప్లాన్": 8479,
      "Aj": 8480,
      "bats": 8481,
      "attr": 8482,
      "exc": 8483,
      "అనుగుణంగా": 8484,
      "దోష": 8485,
      "Adv": 8486,
      "standing": 8487,
      "సామర్థ్యం": 8488,
      "publ": 8489,
      "inated": 8490,
      "mohan": 8491,
      "మార్చి": 8492,
      "వైరస్‌": 8493,
      "Railway": 8494,
      "Ur": 8495,
      "session": 8496,
      "అప్పటికే": 8497,
      "మ్యూజిక్": 8498,
      "ఘర్షణ": 8499,
      "Tha": 8500,
      "హాలను": 8501,
      "బాలు": 8502,
      "జిల్లాల్లో": 8503,
      "numbers": 8504,
      "Doctors": 8505,
      "symp": 8506,
      "క్యాన్": 8507,
      "green": 8508,
      "plat": 8509,
      "తరఫున": 8510,
      "సెంచరీ": 8511,
      "Dha": 8512,
      "danger": 8513,
      "నవ": 8514,
      "itha": 8515,
      "saf": 8516,
      "తెలిసింది": 8517,
      "approved": 8518,
      "funds": 8519,
      "హృదయ": 8520,
      "కీర్తన": 8521,
      "కేజ్రీ": 8522,
      "Tir": 8523,
      "ించబో": 8524,
      "offering": 8525,
      "సర్వే": 8526,
      "Ph": 8527,
      "nan": 8528,
      "pap": 8529,
      "ఈయన": 8530,
      "Banerjee": 8531,
      "Cur": 8532,
      "dream": 8533,
      "ఆన": 8534,
      "మస్": 8535,
      "సిసి": 8536,
      "్యానికి": 8537,
      "department": 8538,
      "పూజా": 8539,
      "సంద": 8540,
      "inha": 8541,
      "improve": 8542,
      "కరమైన": 8543,
      "ఆదిత్య": 8544,
      "నికే": 8545,
      "encour": 8546,
      "స్తులు": 8547,
      "conference": 8548,
      "విషమంగా": 8549,
      "నమోదయ్యాయి": 8550,
      "waiting": 8551,
      "సంవత్సరం": 8552,
      "cricketer": 8553,
      "గనుక": 8554,
      "ధన": 8555,
      "ivity": 8556,
      "purpose": 8557,
      "survived": 8558,
      "espe": 8559,
      "అనారో": 8560,
      "శీర్": 8561,
      "విలువైన": 8562,
      "క్షతగాత్రు": 8563,
      "ఎనిమి": 8564,
      "ధర్మ": 8565,
      "recomm": 8566,
      "Rajnath": 8567,
      "score": 8568,
      "respectively": 8569,
      "gas": 8570,
      "gment": 8571,
      "kids": 8572,
      "మనసు": 8573,
      "Love": 8574,
      "స్పెష": 8575,
      "మహీంద్రా": 8576,
      "దావీ": 8577,
      "క్రే": 8578,
      "చూసిన": 8579,
      "పార్టీల": 8580,
      "especially": 8581,
      "డిప్యూ": 8582,
      "మున్సి": 8583,
      "దినోత్స": 8584,
      "ఉండాలని": 8585,
      "ట్రె": 8586,
      "వాటికి": 8587,
      "టేబుల్": 8588,
      "Goog": 8589,
      "page": 8590,
      "స్క్రీ": 8591,
      "Arvind": 8592,
      "ప్రయత్నాలు": 8593,
      "ological": 8594,
      "పడ్డాడు": 8595,
      "impact": 8596,
      "billion": 8597,
      "ారట": 8598,
      "comed": 8599,
      "ixel": 8600,
      "frastructure": 8601,
      "నమూ": 8602,
      "terms": 8603,
      "పాప": 8604,
      "difference": 8605,
      "మౌళి": 8606,
      "సొంతం": 8607,
      "గమనార్": 8608,
      "nut": 8609,
      "ఏప్రి": 8610,
      "వాతి": 8611,
      "తీర": 8612,
      "శక్తిని": 8613,
      "స్తోన్న": 8614,
      "ఇస్": 8615,
      "ల్యూ": 8616,
      "చేరారు": 8617,
      "sugar": 8618,
      "సెక్షన్": 8619,
      "groups": 8620,
      "ipal": 8621,
      "నటిస్తోంది": 8622,
      "carried": 8623,
      "Technology": 8624,
      "Five": 8625,
      "tro": 8626,
      "ots": 8627,
      "నగరంలో": 8628,
      "America": 8629,
      "felt": 8630,
      "బల్": 8631,
      "rect": 8632,
      "విఫల": 8633,
      "ague": 8634,
      "contr": 8635,
      "ట్లుగా": 8636,
      "కొంతమంది": 8637,
      "placed": 8638,
      "స్పష్టంగా": 8639,
      "ruption": 8640,
      "కరించిన": 8641,
      "industri": 8642,
      "డాలర్": 8643,
      "నిష్": 8644,
      "వేధ": 8645,
      "మార్కె": 8646,
      "పోలీస్‌": 8647,
      "గొడవ": 8648,
      "traffic": 8649,
      "drug": 8650,
      "yan": 8651,
      "Rajam": 8652,
      "కళాశాల": 8653,
      "62": 8654,
      "asim": 8655,
      "Heavy": 8656,
      "చేయనున్నారు": 8657,
      "villages": 8658,
      "appreci": 8659,
      "దావీదు": 8660,
      "54": 8661,
      "Mak": 8662,
      "Public": 8663,
      "rights": 8664,
      "yle": 8665,
      "పట్టి": 8666,
      "బయలు": 8667,
      "భౌ": 8668,
      "urs": 8669,
      "users": 8670,
      "plans": 8671,
      "పూరి": 8672,
      "క్రితం": 8673,
      "సృష్టి": 8674,
      "డింగ్": 8675,
      "rear": 8676,
      "units": 8677,
      "previous": 8678,
      "హెగ్": 8679,
      "వెల్లడించింది": 8680,
      "పౌలు": 8681,
      "Did": 8682,
      "za": 8683,
      "ఉంచు": 8684,
      "వాదం": 8685,
      "agram": 8686,
      "కలుగు": 8687,
      "ప్రకటించిన": 8688,
      "కెప్టెన్‌": 8689,
      "ఎదురుచూ": 8690,
      "Entertain": 8691,
      "avoid": 8692,
      "bound": 8693,
      "చాల": 8694,
      "comb": 8695,
      "హిత": 8696,
      "idered": 8697,
      "doubt": 8698,
      "%.": 8699,
      "cher": 8700,
      "fat": 8701,
      "ర్‌కు": 8702,
      "వర్గం": 8703,
      "ప్‌లో": 8704,
      "కోట్లను": 8705,
      "అభ్యర్థులు": 8706,
      "పొందింది": 8707,
      "1000": 8708,
      "అర": 8709,
      "ప్రస": 8710,
      "condol": 8711,
      "పిల్లలకు": 8712,
      "వ్యాప్తి": 8713,
      "Varma": 8714,
      "Group": 8715,
      "massive": 8716,
      "Law": 8717,
      "border": 8718,
      "ordered": 8719,
      "ayed": 8720,
      "పెరగ": 8721,
      "Work": 8722,
      "Google": 8723,
      "ళ్లకు": 8724,
      "అంతేకాకుండా": 8725,
      "growing": 8726,
      "Aksha": 8727,
      "RO": 8728,
      "fig": 8729,
      "inikanth": 8730,
      "నిశ్": 8731,
      "నటించింది": 8732,
      "రాజకీయాల్లో": 8733,
      "దేశీయ": 8734,
      "బడ్జెట్‌": 8735,
      "wedding": 8736,
      "ఓడ": 8737,
      "వెల్లు": 8738,
      "కార్యాల": 8739,
      "కార్యక్రమ": 8740,
      "reportedly": 8741,
      "మౌలిక": 8742,
      "denied": 8743,
      "CA": 8744,
      "ఆకా": 8745,
      "కృష్": 8746,
      "ంత్రం": 8747,
      "outside": 8748,
      "ఓడి": 8749,
      "మనీ": 8750,
      "ises": 8751,
      "మాల్లో": 8752,
      "spent": 8753,
      "శిఖ": 8754,
      "తొలిసారి": 8755,
      "ఫలితం": 8756,
      "గూగు": 8757,
      "labor": 8758,
      "July": 8759,
      "గలు": 8760,
      "చెంది": 8761,
      "బాస్": 8762,
      "Heg": 8763,
      "మ‌రి": 8764,
      "Engine": 8765,
      "సీనియర్‌": 8766,
      "పిటిషన్‌": 8767,
      "College": 8768,
      "ఆధ్యాత్మిక": 8769,
      "ique": 8770,
      "slow": 8771,
      "మాల": 8772,
      "స్వి": 8773,
      "క్లా": 8774,
      "వెచ్చ": 8775,
      "Rajinikanth": 8776,
      "student": 8777,
      "ించుకున్నారు": 8778,
      "suspect": 8779,
      "ఉంద": 8780,
      "ఛై": 8781,
      "వైన": 8782,
      "చిరం": 8783,
      "proved": 8784,
      "estic": 8785,
      "ప్రాంతాల": 8786,
      "ప్రత్యక్ష": 8787,
      "justice": 8788,
      "commun": 8789,
      "require": 8790,
      "Besides": 8791,
      "Kal": 8792,
      "ారిత": 8793,
      "అనుభవ": 8794,
      "చేస్తున్నట్లు": 8795,
      "Russia": 8796,
      "సంతృప్తి": 8797,
      "migr": 8798,
      "పోలింగ్": 8799,
      "శాయి": 8800,
      "megap": 8801,
      "exe": 8802,
      "suffering": 8803,
      "bey": 8804,
      "idea": 8805,
      "clim": 8806,
      "ప్రాంతాలు": 8807,
      "దారులకు": 8808,
      "March": 8809,
      "Hegde": 8810,
      "fal": 8811,
      "pen": 8812,
      "యస్": 8813,
      "విశాఖ": 8814,
      "మిత్ర": 8815,
      "evidence": 8816,
      "అంతేకాదు": 8817,
      "విక్రమ్": 8818,
      "మయ్యాయి": 8819,
      "హ్య": 8820,
      "నిధులు": 8821,
      "endul": 8822,
      "సోదరు": 8823,
      "వాస్తవ": 8824,
      "సమ్": 8825,
      "maker": 8826,
      "సభ్యుల": 8827,
      "అద్భుత": 8828,
      "మోటార్స్": 8829,
      "సిరీస్": 8830,
      "extremely": 8831,
      "pal": 8832,
      "ఎప్పు": 8833,
      "కూర్చు": 8834,
      "చేయగల": 8835,
      "looked": 8836,
      "mala": 8837,
      "ministry": 8838,
      "అడిగా": 8839,
      "మితి": 8840,
      "defin": 8841,
      "raise": 8842,
      "మార్కెట్‌": 8843,
      "సెంట్ర": 8844,
      "ఇంతకీ": 8845,
      "పరిశీలి": 8846,
      "Railways": 8847,
      "safety": 8848,
      "వ్యక్తులు": 8849,
      "చనిపోయారు": 8850,
      "silver": 8851,
      "మన్‌": 8852,
      "ముంద": 8853,
      "భాజపా": 8854,
      "జిత్": 8855,
      "scient": 8856,
      "పరిస్థితిని": 8857,
      "వహిస్తున్నారు": 8858,
      "తుడు": 8859,
      "మురు": 8860,
      "చంద్రశేఖ": 8861,
      "considered": 8862,
      "అమిత్‌": 8863,
      "స్పూన్": 8864,
      "ening": 8865,
      "ముడి": 8866,
      "akrishna": 8867,
      "చేయ‌": 8868,
      "తెలుపు": 8869,
      "బెనర్జీ": 8870,
      "శ్రీలంక": 8871,
      "Research": 8872,
      "Gopal": 8873,
      "డిప్యూటీ": 8874,
      "61": 8875,
      "గతం": 8876,
      "ద‌ర్": 8877,
      "agreed": 8878,
      "sup": 8879,
      "సెర్": 8880,
      "remained": 8881,
      "community": 8882,
      "గమనార్హం": 8883,
      "53": 8884,
      "Very": 8885,
      "freedom": 8886,
      "smo": 8887,
      "కల్‌": 8888,
      "పుట్ట": 8889,
      "ధ్యం": 8890,
      "వర్గ": 8891,
      "అనంత": 8892,
      "వీడియోను": 8893,
      "holds": 8894,
      "విశ్వాసం": 8895,
      "ఆహ్వా": 8896,
      "చిరంజీవి": 8897,
      "Apart": 8898,
      "Wed": 8899,
      "anda": 8900,
      "లాగు": 8901,
      "deter": 8902,
      "హాస్పి": 8903,
      "స్తాను": 8904,
      "ఉత్పత్": 8905,
      "Janata": 8906,
      "sea": 8907,
      "cycle": 8908,
      "inside": 8909,
      "పారిశ్రా": 8910,
      "returned": 8911,
      "సహోదరు": 8912,
      "నిధి": 8913,
      "లాడు": 8914,
      "neg": 8915,
      "విడుదలైన": 8916,
      "అంశాలు": 8917,
      "girls": 8918,
      "గుజరాత్‌": 8919,
      "ధర్మా": 8920,
      "introduced": 8921,
      "IM": 8922,
      "నిక్": 8923,
      "assu": 8924,
      "ayan": 8925,
      "gives": 8926,
      "Post": 8927,
      "గమనించ": 8928,
      "yer": 8929,
      "ప్రధానంగా": 8930,
      "భాగస్వామ": 8931,
      "సంఘటనా": 8932,
      "ఇండస్ట్రీ": 8933,
      "కురు": 8934,
      "మెట్రో": 8935,
      "neigh": 8936,
      "lies": 8937,
      "Nat": 8938,
      "fail": 8939,
      "rural": 8940,
      "inch": 8941,
      "తరలి": 8942,
      "శాంత్": 8943,
      "religious": 8944,
      "స్మార్ట్": 8945,
      "famous": 8946,
      "Lal": 8947,
      "pun": 8948,
      "ఇంధ": 8949,
      "raj": 8950,
      "Security": 8951,
      "వెనక్కి": 8952,
      "Motors": 8953,
      "message": 8954,
      "ఉద్రిక్త": 8955,
      "Pul": 8956,
      "డవు": 8957,
      "lose": 8958,
      "ఎస్టీ": 8959,
      "capac": 8960,
      "హీరోయిన్‌గా": 8961,
      "మండల": 8962,
      "Sitharam": 8963,
      "MK": 8964,
      "Odis": 8965,
      "Sum": 8966,
      "తుందో": 8967,
      "sports": 8968,
      "ఉండటం": 8969,
      "జనసేన": 8970,
      "Vijayawada": 8971,
      "సీసీఐ": 8972,
      "independ": 8973,
      "మోడల్": 8974,
      "71": 8975,
      "Sand": 8976,
      "Sho": 8977,
      "కారి": 8978,
      "వస్తోంది": 8979,
      "వృత్తి": 8980,
      "వంతం": 8981,
      "victims": 8982,
      "Ama": 8983,
      "ఆన్": 8984,
      "ఎప్పటి": 8985,
      "కంట్ర": 8986,
      "influ": 8987,
      "క్షన్‌": 8988,
      "Recent": 8989,
      "రూపాయలు": 8990,
      "ంట్లు": 8991,
      "anga": 8992,
      "worry": 8993,
      "మొత్తా": 8994,
      "ఆర్ధిక": 8995,
      "వ్యాయా": 8996,
      "faced": 8997,
      "books": 8998,
      "నెలకొంది": 8999,
      "CB": 9000,
      "కమైన": 9001,
      "వినో": 9002,
      "apped": 9003,
      "తెరకెక్కిన": 9004,
      "Science": 9005,
      "హెగ్డే": 9006,
      "megapixel": 9007,
      "Bach": 9008,
      "విదేశా": 9009,
      "నేర్చు": 9010,
      "గిల్": 9011,
      "management": 9012,
      "matches": 9013,
      "surpr": 9014,
      "మొదలైన": 9015,
      "చెప్పుకొ": 9016,
      "ప్రొడక్షన్": 9017,
      "ometimes": 9018,
      "Ltd": 9019,
      "tes": 9020,
      "ధన్య": 9021,
      "inquiry": 9022,
      "త్తీ": 9023,
      "పాక్‌": 9024,
      "trou": 9025,
      "ర్‌గా": 9026,
      "gradu": 9027,
      "హోండా": 9028,
      "ించాను": 9029,
      "Goa": 9030,
      "శ్రీనివాస్": 9031,
      "ఇదంతా": 9032,
      "థ్": 9033,
      "లోపే": 9034,
      "తున్నది": 9035,
      "షియల్": 9036,
      "ipper": 9037,
      "పంచా": 9038,
      "కొనసాగి": 9039,
      "Mano": 9040,
      "స్టేట్": 9041,
      "విడ్": 9042,
      "చేయి": 9043,
      "essential": 9044,
      "సమాన": 9045,
      "హోదా": 9046,
      "నిలిపి": 9047,
      "దారితీ": 9048,
      "torque": 9049,
      "పోల్": 9050,
      "Therefore": 9051,
      "decisions": 9052,
      "గూర్చి": 9053,
      "సిడెంట్": 9054,
      "Nm": 9055,
      "మించి": 9056,
      "విస్": 9057,
      "వులకు": 9058,
      "మేలు": 9059,
      "జాతి": 9060,
      "additional": 9061,
      "ఉద్యోగం": 9062,
      "soldiers": 9063,
      "లైంగిక": 9064,
      "Kul": 9065,
      "ంపు": 9066,
      "ఫూ": 9067,
      "imately": 9068,
      "cris": 9069,
      "వారే": 9070,
      "పోర్టు": 9071,
      "photos": 9072,
      "బృంద": 9073,
      "కుటుంబానికి": 9074,
      "favour": 9075,
      "సగటు": 9076,
      "విదేశాంగ": 9077,
      "Sure": 9078,
      "అయ్యే": 9079,
      "చారాన్ని": 9080,
      "స్యం": 9081,
      "క్షీ": 9082,
      "comment": 9083,
      "ipur": 9084,
      "గ్రామం": 9085,
      "స్వతంత్ర": 9086,
      "winning": 9087,
      "refused": 9088,
      "చైర్మన్": 9089,
      "పరిచయం": 9090,
      "మతా": 9091,
      "environment": 9092,
      "ira": 9093,
      "వర్తన": 9094,
      "scene": 9095,
      "Elect": 9096,
      "Akshay": 9097,
      "PS": 9098,
      "అమర్": 9099,
      "మంగళ": 9100,
      "కుంటే": 9101,
      "cancer": 9102,
      "Raja": 9103,
      "version": 9104,
      "ప్రభాస్": 9105,
      "nearly": 9106,
      "నిరోధక": 9107,
      "ఎలక్ట్రిక్": 9108,
      "enced": 9109,
      "aste": 9110,
      "propos": 9111,
      "venue": 9112,
      "phones": 9113,
      "descri": 9114,
      "modern": 9115,
      "ఉపాధ్యా": 9116,
      "హింస": 9117,
      "Odisha": 9118,
      "remake": 9119,
      "path": 9120,
      "నందు": 9121,
      "ోల్": 9122,
      "రియల్": 9123,
      "దిల్": 9124,
      "నాట": 9125,
      "talking": 9126,
      "congregation": 9127,
      "civil": 9128,
      "్రు": 9129,
      "ulted": 9130,
      "శాతానికి": 9131,
      "స్థలం": 9132,
      "crime": 9133,
      "చేశాను": 9134,
      "ruling": 9135,
      "గవర్నర్‌": 9136,
      "క్రైస్తవ": 9137,
      "ప్రోత్సహ": 9138,
      "పతాకంపై": 9139,
      "వికెట్": 9140,
      "చూద్దాం": 9141,
      "భివృద్ధి": 9142,
      "Assam": 9143,
      "stands": 9144,
      "responsible": 9145,
      "AM": 9146,
      "ఈసారి": 9147,
      "ించడంలో": 9148,
      "క్షో": 9149,
      "మార్గా": 9150,
      "రాజమౌళి": 9151,
      "maximum": 9152,
      "conditions": 9153,
      "మండలం": 9154,
      "మెరుగైన": 9155,
      "rum": 9156,
      "rally": 9157,
      "ించగల": 9158,
      "దిల్లీ": 9159,
      "జిల్ల": 9160,
      "ండ్ల": 9161,
      "దంప": 9162,
      "చూడాలి": 9163,
      "Aug": 9164,
      "తెలుసుకున్న": 9165,
      "culture": 9166,
      "filled": 9167,
      "Tod": 9168,
      "ఇవన్నీ": 9169,
      "స్వే": 9170,
      "లేం": 9171,
      "akonda": 9172,
      "unit": 9173,
      "ప్రతిపా": 9174,
      "Comp": 9175,
      "చెప్పా": 9176,
      "ఫేస్‌": 9177,
      "నిర్ధార": 9178,
      "Az": 9179,
      "PF": 9180,
      "num": 9181,
      "alem": 9182,
      "ases": 9183,
      "మాం": 9184,
      "కాండ": 9185,
      "అతడిని": 9186,
      "centre": 9187,
      "త్వంలోని": 9188,
      "normal": 9189,
      "festival": 9190,
      "trains": 9191,
      "సీజన్": 9192,
      "సినిమాపై": 9193,
      "ially": 9194,
      "వర్గాల": 9195,
      "Because": 9196,
      "confidence": 9197,
      "Cro": 9198,
      "fresh": 9199,
      "అపొ": 9200,
      "రికార్": 9201,
      "షియా": 9202,
      "ద్రవ్య": 9203,
      "Open": 9204,
      "Life": 9205,
      "Vice": 9206,
      "కున్నాడు": 9207,
      "aches": 9208,
      "మూసి": 9209,
      "మూడవ": 9210,
      "చూపి": 9211,
      "ఏర్పడింది": 9212,
      "ఇండియాలో": 9213,
      "airport": 9214,
      "ఆధునిక": 9215,
      "endulkar": 9216,
      "2000": 9217,
      "88": 9218,
      "west": 9219,
      "forth": 9220,
      "Nothing": 9221,
      "ఇండో": 9222,
      "Mamata": 9223,
      "Bus": 9224,
      "Tendulkar": 9225,
      "Vin": 9226,
      "తలె": 9227,
      "దరణ": 9228,
      "remember": 9229,
      "stage": 9230,
      "exact": 9231,
      "మనము": 9232,
      "బంధం": 9233,
      "విజయాన్ని": 9234,
      "మెంట్స్": 9235,
      "తక్కువగా": 9236,
      "మండిపడ్డారు": 9237,
      "Agriculture": 9238,
      "ba": 9239,
      "జత": 9240,
      "తోనే": 9241,
      "product": 9242,
      "అఖి": 9243,
      "సునీ": 9244,
      "లాలు": 9245,
      "కెరీ": 9246,
      "therefore": 9247,
      "సూత్ర": 9248,
      "Lead": 9249,
      "గెలిచిన": 9250,
      "sound": 9251,
      "icial": 9252,
      "వాటా": 9253,
      "chol": 9254,
      "అవ‌": 9255,
      "నెస్": 9256,
      "144": 9257,
      "sister": 9258,
      "సంక్షేమ": 9259,
      "Nav": 9260,
      "iy": 9261,
      "jail": 9262,
      "బడ్డ": 9263,
      "ల్‌ను": 9264,
      "ardhan": 9265,
      "rupe": 9266,
      "భక్తులు": 9267,
      "Dal": 9268,
      "కడు": 9269,
      "చల్": 9270,
      "enge": 9271,
      "వాం": 9272,
      "గ్రం": 9273,
      "విష‌": 9274,
      "మరణాలు": 9275,
      "Rajput": 9276,
      "visited": 9277,
      "transfer": 9278,
      "false": 9279,
      "Honda": 9280,
      "ఔష": 9281,
      "ows": 9282,
      "ష్టా": 9283,
      "ంటూరు": 9284,
      "నిందితుల": 9285,
      "పాటలు": 9286,
      "ఫేస్": 9287,
      "agriculture": 9288,
      "దేవరకొండ": 9289,
      "వస్తే": 9290,
      "విల": 9291,
      "verdict": 9292,
      "బీసీసీఐ": 9293,
      "సోమ": 9294,
      "కోర్టులో": 9295,
      "cient": 9296,
      "speaking": 9297,
      "పాలిత": 9298,
      "discussion": 9299,
      "టన్‌": 9300,
      "కావు": 9301,
      "విద్యార్థులకు": 9302,
      "arrived": 9303,
      "పరిధిలో": 9304,
      "crucial": 9305,
      "ఉందన్నారు": 9306,
      "బాల్": 9307,
      "2013": 9308,
      "కంప్యూ": 9309,
      "క్రియేషన్": 9310,
      "వహించారు": 9311,
      "డిజైన్": 9312,
      "Instagram": 9313,
      "Pal": 9314,
      "ఏకంగా": 9315,
      "వివే": 9316,
      "దుల": 9317,
      "కావడంతో": 9318,
      "వినియోగం": 9319,
      "కృతజ్ఞతలు": 9320,
      "Bachchan": 9321,
      "nations": 9322,
      "isha": 9323,
      "యితే": 9324,
      "సైడ్": 9325,
      "va": 9326,
      "ఖ్": 9327,
      "నల్ల": 9328,
      "యన్నారు": 9329,
      "article": 9330,
      "కాలంగా": 9331,
      "ఎదుర్": 9332,
      "బ్రె": 9333,
      "travell": 9334,
      "అంశంపై": 9335,
      "ఎల్లప్పుడూ": 9336,
      "RTC": 9337,
      "భగ": 9338,
      "stress": 9339,
      "సిద్ద": 9340,
      "నాని": 9341,
      "గుంటూరు": 9342,
      "లేను": 9343,
      "బ్యానర్": 9344,
      "కల్పించ": 9345,
      "నిర్వహించిన": 9346,
      "చుట్టూ": 9347,
      "చివరకు": 9348,
      "కేబి": 9349,
      "rences": 9350,
      "Chiran": 9351,
      "తరహా": 9352,
      "గోవా": 9353,
      "మృతు": 9354,
      "BSP": 9355,
      "prophe": 9356,
      "dispute": 9357,
      "Chop": 9358,
      "ticket": 9359,
      "కట్": 9360,
      "కార్య‌": 9361,
      "పార్టీలో": 9362,
      "సర్వ": 9363,
      "Ple": 9364,
      "్మ": 9365,
      "repe": 9366,
      "crim": 9367,
      "కౌన్సి": 9368,
      "క్రికెటర్": 9369,
      "చమురు": 9370,
      "నిర్మిస్తున్న": 9371,
      "నైపుణ": 9372,
      "Zealand": 9373,
      "pie": 9374,
      "జన్‌": 9375,
      "జింగ్": 9376,
      "మలు": 9377,
      "యైన": 9378,
      "ఱ్": 9379,
      "notice": 9380,
      "Maha": 9381,
      "integr": 9382,
      "install": 9383,
      "Ashwin": 9384,
      "CEO": 9385,
      "Yu": 9386,
      "lay": 9387,
      "యతీ": 9388,
      "గాఢ": 9389,
      "సిన్": 9390,
      "రుపు": 9391,
      "దిగ": 9392,
      "ార్‌": 9393,
      "గుళ": 9394,
      "తీశారు": 9395,
      "చుగా": 9396,
      "పరిష్కారం": 9397,
      "సల్మాన్": 9398,
      "tel": 9399,
      "చుట్టు": 9400,
      "ensive": 9401,
      "subject": 9402,
      "ఉన్నాయని": 9403,
      "ఆకర్షణ": 9404,
      "exercise": 9405,
      "ెర": 9406,
      "సిపి": 9407,
      "webs": 9408,
      "సమాజ": 9409,
      "ించాం": 9410,
      "మధ్యప్రదేశ్": 9411,
      "న్యూజి": 9412,
      "examination": 9413,
      "చివరికి": 9414,
      "అదనంగా": 9415,
      "Budget": 9416,
      "bail": 9417,
      "న్నత": 9418,
      "దాటి": 9419,
      "హిందు": 9420,
      "విచారి": 9421,
      "చేరుకుంది": 9422,
      "France": 9423,
      "ప్రస్తావ": 9424,
      "అమరావతి": 9425,
      "అటువంటి": 9426,
      "ita": 9427,
      "లేము": 9428,
      "గోపాల్": 9429,
      "షియం": 9430,
      "Section": 9431,
      "ప్రపంచం": 9432,
      "సంస్థల": 9433,
      "evening": 9434,
      "దశలో": 9435,
      "teaser": 9436,
      "Kan": 9437,
      "Kore": 9438,
      "figh": 9439,
      "mid": 9440,
      "అయ్య": 9441,
      "సమే": 9442,
      "instit": 9443,
      "Rajiv": 9444,
      "whether": 9445,
      "క్కింది": 9446,
      "దాడికి": 9447,
      "రచయిత": 9448,
      "average": 9449,
      "ఱ్ఱ": 9450,
      "700": 9451,
      "ించనుంది": 9452,
      "amed": 9453,
      "Play": 9454,
      "prepared": 9455,
      "Sitharaman": 9456,
      "కమ్యూ": 9457,
      "roid": 9458,
      "acqu": 9459,
      "తోందని": 9460,
      "మార్కెట్లు": 9461,
      "రంగంలోకి": 9462,
      "అక్కడికి": 9463,
      "అప్పుడే": 9464,
      "cinema": 9465,
      "IA": 9466,
      "యాల్సి": 9467,
      "తేజ": 9468,
      "raid": 9469,
      "ించుచు": 9470,
      "providing": 9471,
      "looks": 9472,
      "ట్రైలర్": 9473,
      "battle": 9474,
      "CS": 9475,
      "నుంచే": 9476,
      "ources": 9477,
      "వరల్డ్": 9478,
      "ighte": 9479,
      "స్తలు": 9480,
      "prising": 9481,
      "Creations": 9482,
      "సంక్షో": 9483,
      "urged": 9484,
      "agon": 9485,
      "నీళ్లు": 9486,
      "చేయబడిన": 9487,
      "cles": 9488,
      "movement": 9489,
      "పిలుపు": 9490,
      "కవి": 9491,
      "వుంటుంది": 9492,
      "method": 9493,
      "dule": 9494,
      "Nirmala": 9495,
      "వ్యాఖ్యానించారు": 9496,
      "Wel": 9497,
      "కుండ": 9498,
      "verse": 9499,
      "అవ్": 9500,
      "2009": 9501,
      "కల్పి": 9502,
      "ఉత్తరా": 9503,
      "broke": 9504,
      "చేరిన": 9505,
      "damaged": 9506,
      "నిల్": 9507,
      "సుల": 9508,
      "ఉన్నతా": 9509,
      "Rama": 9510,
      "Thus": 9511,
      "అత్యధికంగా": 9512,
      "Total": 9513,
      "గన్": 9514,
      "దేని": 9515,
      "Associ": 9516,
      "causes": 9517,
      "fortun": 9518,
      "graphy": 9519,
      "లక్ష్మీ": 9520,
      "అప్రమత్త": 9521,
      "Prem": 9522,
      "Ti": 9523,
      "finis": 9524,
      "isgarh": 9525,
      "తెలిసిన": 9526,
      "ఫీజు": 9527,
      "ించుకున్న": 9528,
      "పంజాబ్‌": 9529,
      "sources": 9530,
      "rat": 9531,
      "ర్యం": 9532,
      "తాత్": 9533,
      "వేశం": 9534,
      "బలమైన": 9535,
      "Lanka": 9536,
      "కమ": 9537,
      "ందరూ": 9538,
      "టిడిపి": 9539,
      "పోవు": 9540,
      "మిని": 9541,
      "స్తారని": 9542,
      "వర్గాలు": 9543,
      "helped": 9544,
      "detained": 9545,
      "object": 9546,
      "చేస్తామని": 9547,
      "జర్మనీ": 9548,
      "inaug": 9549,
      "anded": 9550,
      "విజే": 9551,
      "తెగ": 9552,
      "బాదు": 9553,
      "ల్లోకి": 9554,
      "priced": 9555,
      "sched": 9556,
      "Children": 9557,
      "democracy": 9558,
      "అపొస్తలు": 9559,
      "Further": 9560,
      "టోర్": 9561,
      "చేరుకున్నారు": 9562,
      "జ్ఞానం": 9563,
      "Following": 9564,
      "Recently": 9565,
      "ర్థ": 9566,
      "చిత్త": 9567,
      "acce": 9568,
      "లెట్": 9569,
      "cert": 9570,
      "kills": 9571,
      "నెలల": 9572,
      "ప్రభుత్వాలు": 9573,
      "పాయింట్ల": 9574,
      "Monday": 9575,
      "capacity": 9576,
      "lished": 9577,
      "ఆగ్రహం": 9578,
      "ota": 9579,
      "ప్రజాస్వామ": 9580,
      "protests": 9581,
      "కార్పొరే": 9582,
      "Happ": 9583,
      "ws": 9584,
      "విన్": 9585,
      "నాటక": 9586,
      "పరిశు": 9587,
      "వర్క్": 9588,
      "firm": 9589,
      "వ్యవహారం": 9590,
      "operations": 9591,
      "నమోదైంది": 9592,
      "చదవండి": 9593,
      "creat": 9594,
      "పండి": 9595,
      "erous": 9596,
      "army": 9597,
      "విప": 9598,
      "పూడి": 9599,
      "ప్రీమి": 9600,
      "పెరుగుతుంది": 9601,
      "సమావేశానికి": 9602,
      "రీమేక్": 9603,
      "levels": 9604,
      "Jana": 9605,
      "అగర్": 9606,
      "చేతిలో": 9607,
      "omb": 9608,
      "పాల్‌": 9609,
      "polling": 9610,
      "ఎంసీ": 9611,
      "Movie": 9612,
      "running": 9613,
      "priest": 9614,
      "Ed": 9615,
      "ఆశి": 9616,
      "imposed": 9617,
      "hore": 9618,
      "cooperation": 9619,
      "create": 9620,
      "liter": 9621,
      "extended": 9622,
      "చేరుకొని": 9623,
      "hattisgarh": 9624,
      "74": 9625,
      "నిజమే": 9626,
      "ప్రియ": 9627,
      "Team": 9628,
      "skipper": 9629,
      "Keep": 9630,
      "కృష్ణా": 9631,
      "పారిశ్రామిక": 9632,
      "79": 9633,
      "dates": 9634,
      "కాపాడు": 9635,
      "బాహు": 9636,
      "rape": 9637,
      "ట్టుగా": 9638,
      "సేవల": 9639,
      "warm": 9640,
      "Time": 9641,
      "cul": 9642,
      "pil": 9643,
      "ింటి": 9644,
      "దిగారు": 9645,
      "capt": 9646,
      "makers": 9647,
      "కుమారులు": 9648,
      "పొందుతూ": 9649,
      "rising": 9650,
      "option": 9651,
      "holy": 9652,
      "Rajamou": 9653,
      "Sik": 9654,
      "bul": 9655,
      "క్యం": 9656,
      "యిడ్": 9657,
      "concl": 9658,
      "overs": 9659,
      "దీనివల్ల": 9660,
      "కాల్పులు": 9661,
      "ఫైల్": 9662,
      "costs": 9663,
      "Narasim": 9664,
      "British": 9665,
      "temperature": 9666,
      "sold": 9667,
      "accompan": 9668,
      "జున": 9669,
      "ఇంజనీ": 9670,
      "contain": 9671,
      "minent": 9672,
      "చేయాల్సి": 9673,
      "స్మార్ట్‌": 9674,
      "Amaz": 9675,
      "నేర": 9676,
      "పోటు": 9677,
      "lying": 9678,
      "science": 9679,
      "స్తూనే": 9680,
      "ించుకుంది": 9681,
      "నటులు": 9682,
      "బహుశా": 9683,
      "religion": 9684,
      "primary": 9685,
      "Municipal": 9686,
      "Kur": 9687,
      "eep": 9688,
      "అయో": 9689,
      "నప్పుడు": 9690,
      "degree": 9691,
      "పై": 9692,
      "కారణాల": 9693,
      "భావిస్తున్నారు": 9694,
      "journey": 9695,
      "అంటు": 9696,
      "assa": 9697,
      "comfort": 9698,
      "మానసిక": 9699,
      "receive": 9700,
      "reality": 9701,
      "ఇంటర్వ్యూ": 9702,
      "strike": 9703,
      "storage": 9704,
      "Your": 9705,
      "ఉల్లం": 9706,
      "ఎంటర్": 9707,
      "avati": 9708,
      "Islam": 9709,
      "reduce": 9710,
      "T20": 9711,
      "table": 9712,
      "అట": 9713,
      "ఐక్య": 9714,
      "నడ": 9715,
      "మయ్యారు": 9716,
      "యాల": 9717,
      "రానున్న": 9718,
      "సభ్యులకు": 9719,
      "sales": 9720,
      "Similar": 9721,
      "mentioned": 9722,
      "ధన్యవాదాలు": 9723,
      "Net": 9724,
      "Ter": 9725,
      "తరం": 9726,
      "దను": 9727,
      "entered": 9728,
      "తీసుకుంది": 9729,
      "పునరా": 9730,
      "refer": 9731,
      "వ్యవహారాల": 9732,
      "అశో": 9733,
      "దుర": 9734,
      "కొంచె": 9735,
      "ably": 9736,
      "స్టై": 9737,
      "ఉండండి": 9738,
      "తరలించి": 9739,
      "accompanied": 9740,
      "Gar": 9741,
      "Miss": 9742,
      "రల్‌": 9743,
      "ంత్రా": 9744,
      "shows": 9745,
      "Author": 9746,
      "వయస్సు": 9747,
      "jeevi": 9748,
      "Speaker": 9749,
      "Siv": 9750,
      "Well": 9751,
      "fix": 9752,
      "ఆధిక": 9753,
      "కటి": 9754,
      "కరె": 9755,
      "శె": 9756,
      "వచ్చని": 9757,
      "చేయబో": 9758,
      "yourself": 9759,
      "wonder": 9760,
      "విద్యార్థుల": 9761,
      "సహాయక": 9762,
      "begins": 9763,
      "ప్రైవేట్": 9764,
      "కాశ్మీర్": 9765,
      "sacrif": 9766,
      "crisis": 9767,
      "గార్": 9768,
      "నున్నాడు": 9769,
      "క్ర‌": 9770,
      "Meh": 9771,
      "ఇవ్వాలని": 9772,
      "prior": 9773,
      "వివాదా": 9774,
      "ఉమ్మ": 9775,
      "చేయడంతో": 9776,
      "సూపర్‌": 9777,
      "attacked": 9778,
      "దాడిలో": 9779,
      "heaven": 9780,
      "bhp": 9781,
      "చేస్తాయి": 9782,
      "దాన": 9783,
      "door": 9784,
      "బిగ్": 9785,
      "సూర్య": 9786,
      "player": 9787,
      "అమెరికాలో": 9788,
      "చీఫ్‌": 9789,
      "టార్క్": 9790,
[...]
